e r 79410973
e n</w> 78208670
i n 71581576
e r</w> 63736536
t h 56867362
a n 55636980
c h 52520532
e n 50004311
s t 36384640
u n 36368107
r e 34235893
a r 31841571
th e</w> 31355922
i t 31208268
i n</w> 30427202
o n 28534422
o r 28528644
a t 28071617
a l 27158836
o n</w> 25912274
d i 23817728
e s</w> 23242545
c h</w> 23075851
e d</w> 22710435
e l 22239668
i s 20324382
r o 20318096
in g</w> 19876950
a u 19235700
l i 18661984
d er</w> 18555130
e s 18211138
an d</w> 18200509
t o</w> 17811353
a s</w> 17618829
i l 16741891
o f</w> 15816842
u r 15287982
s i 15146683
e i 15108709
e in 14239000
a n</w> 14237117
a t</w> 13974892
a s 13585107
t i 13242274
o l 13091768
o m 13089767
di e</w> 13054560
b e 12943931
g e 12579217
o r</w> 12475887
o u 12410008
i s</w> 12348752
s ch 12257198
r i 12115758
d e 11958659
d en</w> 11762243
t e</w> 11761040
a m 11207651
un d</w> 10715780
a g 10558219
a l</w> 10532267
a b 10201951
v er 10137450
l e 9869877
s e 9519120
i t</w> 9480722
h e</w> 9375050
en t</w> 8833453
a c 8650974
at i 8544168
t en</w> 8488544
u s 8118269
r a 7564684
i c 7448048
i r 7275256
n e 7229215
g en</w> 7151834
en t 7147673
i e</w> 7107318
v e</w> 7077716
s a 6889049
w h 6801481
i ch 6800241
l o 6782349
t er 6767202
d e</w> 6758333
un g</w> 6696105
i e 6694187
l e</w> 6684013
a r</w> 6632221
t e 6551147
' s</w> 6462248
s p 6460158
n o 6418667
h a 6415268
d er 6282920
th at</w> 6120480
h r 6077890
i g 5953301
w e 5936526
f or</w> 5917125
l y</w> 5874079
t er</w> 5863584
f f 5779244
s t</w> 5354910
i d</w> 5223537
u t 5160065
p ro 5094140
e m 5091637
c on 5080422
o p 5071321
f ü 5022853
e t 4985608
S t 4965006
a y</w> 4874876
w er 4838768
ch en</w> 4792625
T he</w> 4714494
c e</w> 4713886
w as</w> 4713568
s u 4680677
a d 4615756
s e</w> 4478643
v on</w> 4474887
c om 4389468
is t</w> 4386095
z u</w> 4365430
sa id</w> 4347912
b er 4341287
it h</w> 4336897
0 0 4248313
i m</w> 4247199
i m 4223158
t s</w> 4189833
e c 4114847
u m</w> 4109618
m it</w> 4048885
f or 4035228
w ith</w> 4003128
e h 3990977
c o 3974952
ein e</w> 3968136
u l 3936736
ati on</w> 3913264
p o 3906058
au f</w> 3892967
d as</w> 3889026
a k 3887994
a h 3879613
ich t</w> 3862350
g e</w> 3790083
u t</w> 3787444
e m</w> 3697145
a p 3669307
ar e</w> 3655657
an d 3655024
it i 3652337
e in</w> 3630006
a ch 3628716
er s</w> 3608773
A n 3600487
s h 3580312
al s</w> 3575006
de m</w> 3562979
b er</w> 3561129
fü r</w> 3559650
g en 3530202
a f 3496023
b e</w> 3481233
e x 3480914
r u 3476511
S ch 3462959
si ch</w> 3401784
d es</w> 3395800
p l 3379167
il l</w> 3377948
i st 3361038
h e 3351359
a ch</w> 3324114
i er 3320189
D ie</w> 3218286
n icht</w> 3209607
I n 3173902
in g 3169239
p er 3155528
u m 3145300
b y</w> 3139777
e st 3119163
s o</w> 3115632
l d</w> 3112365
a m</w> 3102578
c k 3086734
w or 3051287
t r 3029734
el l 3027782
ch e</w> 3023461
on s</w> 2974936
at e</w> 2969657
ou t</w> 2939561
ro m</w> 2914941
V er 2914927
er e</w> 2912307
al l 2910693
h is</w> 2890681
ei t</w> 2883880
p re 2872098
o o 2838081
q u 2822147
R e 2811904
U n 2798038
f rom</w> 2795202
v i 2792190
m o 2787845
2 00 2777128
o w 2776619
h t</w> 2745699
ha ve</w> 2712991
al l</w> 2641621
u r</w> 2639174
it y</w> 2630691
li ch</w> 2625961
t h</w> 2615177
i ch</w> 2607157
p or 2582984
g es 2582426
A u 2552423
d ay</w> 2546181
ä n 2540016
m en</w> 2505458
h as</w> 2498931
th er</w> 2480706
ou ld</w> 2463961
w ill</w> 2448181
m ent</w> 2433793
a y 2417588
t ed</w> 2413063
d u 2410995
e y</w> 2407869
y e 2404273
c i 2403679
s en</w> 2396714
au s</w> 2392351
as s</w> 2382280
r an 2375553
e b 2350452
P ro 2313645
p ar 2301521
m e</w> 2299382
ti on</w> 2288418
il li 2283339
h o 2273932
p e 2272945
it s</w> 2272813
ag e</w> 2271189
h at</w> 2256056
l u 2251095
on e</w> 2244846
d en 2233868
ol l 2225213
t z 2218872
m an 2213486
as t</w> 2207535
m e 2207333
d s</w> 2204556
au ch</w> 2203665
t o 2196329
v er</w> 2195176
no t</w> 2163580
m a 2135040
un g 2133723
h ab 2133024
g i 2091001
a hr 2085405
be i</w> 2077734
C h 2049763
w ar 2047641
er n</w> 2043058
ein en</w> 2031635
or e</w> 2029719
in d</w> 2004980
ein er</w> 1987139
e l</w> 1986643
is chen</w> 1979268
t a 1967924
d ing</w> 1957041
i el 1956635
o ff 1953289
ü r 1947386
i r</w> 1932327
in e</w> 1929102
l a 1922198
g o 1920408
w ir 1911479
d ass</w> 1896715
au s 1896641
d o 1885841
A l 1879775
un gen</w> 1876825
s o 1872565
d es 1857815
m an</w> 1851702
u p</w> 1846833
b o 1839467
m in 1838962
D er</w> 1834516
ä r 1825625
o h 1819497
B e 1814339
st en</w> 1803614
n ach</w> 1803368
n en</w> 1798799
wh o</w> 1795536
ati on 1793060
ou r</w> 1778514
r it 1777432
f t</w> 1776319
e t</w> 1763349
z u 1757665
k e</w> 1754459
en d</w> 1744648
si e</w> 1736118
g an 1723090
s er 1722504
E n 1722184
ein em</w> 1721752
ent s</w> 1721264
t w 1720851
v or</w> 1716597
h er</w> 1704591
ha d</w> 1697597
s ag 1696678
re c 1693545
I n</w> 1690930
ei r</w> 1681654
g er 1679011
es t</w> 1672998
m er</w> 1663637
ü n 1662269
w ar</w> 1654088
th is</w> 1651365
k l 1648000
th ey</w> 1643450
an n</w> 1643218
wer e</w> 1630618
f in 1629241
th eir</w> 1624953
g er</w> 1621329
b ut</w> 1620291
es s</w> 1617906
D e 1617452
g el 1616566
t en 1615296
g r 1614950
c k</w> 1613113
sch af 1589868
ar k 1588880
S p 1585826
b en</w> 1568767
N e 1565589
s en 1563376
ch t</w> 1562626
a d</w> 1561815
T h 1558683
u b 1558237
g ro 1547666
e it 1541224
com p 1539315
m er 1534376
E r 1532266
m ore</w> 1527346
p p 1521495
A r 1517217
ut sch 1504261
au f 1499644
wer den</w> 1497654
d ed</w> 1489877
an n 1485793
g t</w> 1483516
no ch</w> 1474653
s el 1471564
be en</w> 1457938
h al 1456440
al ly</w> 1452464
D as</w> 1449933
w ie</w> 1446357
re d</w> 1446016
r is 1444963
u s</w> 1442290
t ing</w> 1429702
ur e</w> 1426827
k s</w> 1425371
l ei 1424808
m on 1423185
y o 1421413
ung s 1419255
in c 1416272
s ol 1405563
l and</w> 1400872
t ra 1400365
f i 1397821
at ed</w> 1389183
k om 1384198
r ä 1381635
om e</w> 1377181
wh ich</w> 1373485
1 9 1371537
f ir 1368025
l in 1367437
e p 1362933
ü ber</w> 1359990
ö n 1357786
f e 1352702
di es 1351172
h at 1346652
h en</w> 1342913
li e 1342845
h r</w> 1341159
in ter 1331710
G e 1325528
re s 1325303
ab out</w> 1321356
g ht</w> 1321281
B er 1320144
ar y</w> 1316353
d ur 1316104
s ind</w> 1312477
ac k</w> 1310649
g h 1308606
ar s</w> 1306051
m it 1303307
p ri 1302849
v o 1302234
an t</w> 1299062
w ould</w> 1294259
il l 1293959
d ent</w> 1291953
w e</w> 1288139
us t</w> 1285221
st r 1284533
n e</w> 1277838
el l</w> 1264279
' t</w> 1261585
wir d</w> 1260622
v or 1256607
an s</w> 1256230
w i 1254018
hab en</w> 1250992
am e</w> 1249807
t s 1240537
we it 1237541
al i 1237118
eh r</w> 1236462
ing s</w> 1232988
A b 1225556
f o 1222313
an y</w> 1214013
g h</w> 1205447
ol d</w> 1203879
c an</w> 1201623
ö r 1193876
l an 1185322
b r 1185107
n er</w> 1184660
es s 1182457
al so</w> 1182212
t ri 1180950
il e</w> 1177072
e v 1175712
- - 1175503
po s 1169679
is che</w> 1166880
u e</w> 1165825
st ell 1158046
ab er</w> 1154721
I t</w> 1151410
si on</w> 1144371
ar d</w> 1143532
d a 1142310
i c</w> 1136903
am p 1136756
o ther</w> 1135930
w en 1133962
w ei 1133075
2 0 1131214
b t</w> 1129865
ab le</w> 1124631
re s</w> 1115056
it e</w> 1114718
i hr 1114573
st e</w> 1111099
w ur 1109689
k ing</w> 1108787
e u 1106578
th an</w> 1105731
t ro 1103610
e d 1102304
yo u</w> 1101780
E in 1099561
m p 1096946
V or 1092662
ch er</w> 1090524
o b 1088463
ati ons</w> 1082497
D i 1079513
ge gen</w> 1079347
00 0</w> 1079146
P ar 1078774
ye ar</w> 1077976
t y</w> 1076757
t re 1076547
P o 1076244
ak e</w> 1074377
er t</w> 1072967
M ar 1071924
ä h 1068796
illi on</w> 1067168
m is 1066861
af ter</w> 1062774
or s</w> 1060787
co un 1059583
n ur</w> 1058703
ic e</w> 1057911
ow n</w> 1057229
z um</w> 1056003
m ehr</w> 1052301
on g</w> 1051782
G es 1050995
r ü 1047428
as e</w> 1044034
J ahr 1039480
op le</w> 1036180
i on</w> 1033234
f ol 1027214
a v 1027163
a in 1025385
an ce</w> 1017599
s c 1015573
f f</w> 1013010
t ur 1012400
et z 1011406
at es</w> 1011003
b u 1010495
i h 1008025
k ön 1006813
m en 1001675
f e</w> 997041
ie l</w> 994283
R o 991300
g u 989140
du c 986603
s on</w> 977483
k en</w> 977399
Pro z 972781
N o 972340
i es</w> 969981
M on 966627
a st 966256
0 0</w> 961589
ac e</w> 961502
- -</w> 957965
hat te</w> 955425
H e</w> 953034
an der 951716
pe ople</w> 948928
ti me</w> 946782
wh en</w> 945755
el y</w> 944620
A us 937628
si dent</w> 935376
in v 933180
ü ber 933152
M e 929439
ge b 927239
i d 921380
M it 921330
ac k 920580
te t</w> 918449
is e</w> 912382
sag te</w> 911310
v ed</w> 910829
as s 910713
un d 906359
an z 902897
h er 901813
f er 901401
re i 900180
j e 899692
iti on</w> 899213
e - 898373
l er</w> 896395
o ver</w> 896186
K on 895069
b es 894398
d r 893237
a g</w> 892619
ver n 889481
B ut</w> 888060
m ark 886700
t el 880519
no w</w> 879415
es e</w> 878765
i g</w> 878461
b ur 876789
be t 876294
s he</w> 875473
h el 875184
ex p 873766
ag en</w> 871018
en ce</w> 869209
schaf t</w> 867949
t on</w> 866992
se in</w> 866545
c ent</w> 865257
ne w</w> 864932
tw o</w> 864464
be it 863308
c es</w> 862342
B un 860874
ge w 859313
o der</w> 858199
ä l 858033
Proz ent</w> 855914
S ie</w> 855028
f en</w> 855019
De utsch 854708
for m 853790
fir st</w> 852996
ou s</w> 851010
k t</w> 850882
au se</w> 850860
ges ch 849570
re e</w> 849171
at en</w> 844518
v es</w> 837357
in to</w> 836940
ic i 836357
li chen</w> 833423
i k 833036
M o 831873
ur o</w> 830187
lo s 830002
at t 829668
k on 824650
l ast</w> 823844
t t 823284
w ay</w> 815077
m u 814471
p ol 812439
oo d</w> 810635
ne h 810189
min ist 808906
se i</w> 808014
us s</w> 807401
y s</w> 806421
p ub 805883
d ar 804892
t u 804574
th ere</w> 804357
pre s 803781
i a</w> 802661
u ro 801910
E uro</w> 800989
a in</w> 800321
M in 800292
or t</w> 798593
s k 797698
b ei 797434
l at 795023
re por 793156
T o 791358
lo w 790735
on en</w> 790518
b el 788741
it z 787278
i l</w> 786677
l ä 784980
ig ht</w> 780934
al e</w> 780510
in s</w> 779939
A mer 779593
en s</w> 779476
ver y</w> 776844
st ar 776279
b is</w> 772719
n ation 772436
am a</w> 770683
u d 768980
C o 767595
er n 767404
ac c 765563
g n 765136
ü ck 764495
f r 764124
L e 764078
P re 762443
C om 762056
der n</w> 760850
In ter 760663
G r 759910
w ie 759246
ri e 758691
E uro 758312
i z 754794
der s</w> 754621
c re 753927
ro u 752473
ah l 752431
O b 751292
p h 750355
o g 749506
in n 747268
li che</w> 746247
c ould</w> 746112
el t</w> 745401
s y 744734
ü s 744378
ye ars</w> 744273
b an 743880
ah r</w> 742956
v en</w> 742767
W e</w> 741409
1 0</w> 741261
e ar 740775
B o 737769
we e 737733
F ran 735826
li ch 735743
ach t</w> 734484
200 8</w> 732570
v ing</w> 729916
hab e</w> 728681
lo o 728179
inc lu 727338
s ur 727170
or d 725990
E s</w> 723796
re g 722358
ter s</w> 720073
ä ch 718566
U S 717731
iti es</w> 711858
d re 711415
go vern 710639
st ri 710031
s ome</w> 709462
com e</w> 708985
f u 707611
z ur</w> 707056
M illi 705869
y ing</w> 703241
r e</w> 702116
l au 701880
d o</w> 701579
Z u 700507
s on 699900
un ter</w> 698281
be c 697925
m illion</w> 697114
ay s</w> 695574
l as 694804
n o</w> 693687
a ff 692157
pub li 691200
mo st</w> 690433
wur de</w> 690014
Au f 687932
th em</w> 686459
v is 686013
st eh 685290
z ei 684457
wh at</w> 683798
w w 683399
ti m 682197
ge t</w> 681675
C on 680828
st er</w> 680665
sch en</w> 679832
f a 679676
Bun des 678587
Un ter 678263
c ur 677911
k ti 677447
i f</w> 676402
Amer ic 675366
or y</w> 674974
fü hr 674760
m y</w> 674145
ier t</w> 672261
a b</w> 672095
un ter 671495
ne t</w> 670696
i li 670467
H o 669290
h ig 666933
d am 666223
an g 663308
E x 663150
u te</w> 663027
U . 661600
m il 658975
a re 658400
ß en</w> 657471
p er</w> 655716
t or</w> 655046
i er</w> 654166
c y</w> 652631
li ke</w> 652339
m al</w> 648569
ti ons</w> 648048
o se</w> 647548
en s 645857
th ing</w> 644661
en n 642983
f ac 642505
j ust</w> 640176
o k 638710
T e 637927
at ing</w> 634901
A f 634692
w ir</w> 634334
F r 633834
di c 633628
z w 633016
er en</w> 632791
en de</w> 632327
F or 631949
al le 630748
po li 630426
le tz 629890
ge st 627853
Ne w</w> 626993
en d 626126
ri ch 625598
is h</w> 623781
g ra 623110
v ic 622795
eb en</w> 622428
etz t</w> 621933
m t</w> 621875
ch n 621734
k e 619159
as ed</w> 618723
w s</w> 616390
S .</w> 616065
dur ch</w> 614284
d on</w> 613697
u n</w> 613634
k ann</w> 613531
u p 612938
Ob ama</w> 612545
an t 612476
F in 611815
v el 608835
ci al</w> 608113
h im</w> 607313
k ed</w> 605962
o ff</w> 604466
for e</w> 604126
per cent</w> 603890
o c 603452
sch on</w> 603392
N ach 603375
ou gh</w> 602692
, 000</w> 602614
S te 602032
in a</w> 602000
k er</w> 601374
wie der</w> 601152
b le 600446
ver s 600290
de c 599057
St a 597889
on ly</w> 597390
u st 596881
M a 596400
ig e</w> 596051
sh o 595620
m ar 595367
kom men</w> 595087
t ak 594732
it ed</w> 594290
em ent</w> 594028
de utsch 593027
h and 592008
ä hr 589721
f re 589634
oll en</w> 589574
K o 589432
ge m 587385
B an 587312
om e 586689
we i</w> 585034
wh ere</w> 584995
in ce</w> 584066
W e 583749
F re 583090
l t</w> 582976
inv est 582502
j o 582246
v en 582220
si ch 581797
po in 581642
ec t</w> 581571
ti ve</w> 579695
g re 579240
l ed</w> 578134
bec ause</w> 575447
h in 574120
em ber</w> 570858
st s</w> 570531
Re g 569160
U. S.</w> 568803
te il 567960
s eine</w> 567338
con t 566218
b re 565958
r y</w> 565391
govern ment</w> 563090
S e 562602
H er 559796
im mer</w> 559571
m at 558389
is ch</w> 557240
200 9</w> 556288
ier ung</w> 555243
sh i 555091
h ol 554905
z i 553816
ti g</w> 553724
M en 552737
er g 552421
f ahr 552166
con om 551281
m s</w> 550682
ur t</w> 550380
ic al</w> 549913
T he 549647
t ung</w> 549391
un der 549133
G er 548705
be g 548086
v ie 547649
pol it 547324
b ack</w> 547213
f all 547117
st at 547027
il y</w> 546813
d own</w> 546540
b le</w> 544976
man y</w> 544141
be fore</w> 543184
an c 542771
S P 542070
e g 540413
a u</w> 539331
st ru 539124
ou s 538800
en g 538230
e ff 537668
I ch</w> 536323
m üs 536191
as h 535634
2 0</w> 535413
d el 534713
n ed</w> 533806
E r</w> 533683
ein es</w> 532520
h ei 530971
wen n</w> 530971
op er 530911
Jahr en</w> 530764
m un 530415
en den</w> 529193
ihr e</w> 527904
wor den</w> 527120
n te</w> 526041
vo m</w> 526007
w al 525386
h ar 524970
de t</w> 524477
wor k</w> 523836
f l 522952
por t 521825
sol l</w> 521708
J ahr</w> 521416
th rou 520588
L i 520364
3 0</w> 519321
le g 519206
t ei 519150
st e 518768
ati ve</w> 518384
st o 517182
w el 516236
z wei</w> 515795
r .</w> 515663
do ch</w> 515404
re l 514949
d ann</w> 514481
it ä 514315
k eit</w> 513910
di g 512539
sa ys</w> 511993
l ine</w> 511653
Un d</w> 509678
neh men</w> 509118
sp iel 507767
N or 507036
w ür 506806
th ree</w> 505546
Q u 504981
es day</w> 504916
Po li 504290
z e</w> 504061
I s 504053
z en</w> 502554
or t 502351
e conom 501184
tr y</w> 500702
o s</w> 500010
ch ar 499938
n ah 499753
ec ted</w> 499650
D a 499179
is h 498252
w er</w> 497758
a th 497104
por t</w> 496967
on n 496319
1 , 495845
5 0</w> 495357
F ü 494563
g ab 494043
M an 493876
c le 493192
l es</w> 493187
nation al</w> 492873
ne u 492696
D em 492689
ta g</w> 491223
pro duc 490233
se tz 489605
st er 489247
d y</w> 489070
h ä 487932
w n</w> 487454
gi bt</w> 487131
st ag</w> 487041
n ing</w> 485983
g lei 485975
pl ay 485175
st and</w> 485118
ma de</w> 484714
gen en</w> 483665
f un 483431
ain st</w> 482673
sag t</w> 482494
re ch 482400
us ed</w> 482359
o ch</w> 482271
ho w</w> 482207
200 7</w> 481653
at er</w> 481606
res s</w> 480921
W o 480259
B ar 480042
an g</w> 480040
be ing</w> 479792
di s 478988
m ö 478818
em p 478330
sp ec 478201
f er</w> 477688
kön nen</w> 477469
g o</w> 477035
wh ile</w> 476982
a ir 476695
f am 476652
b us 476551
W ir</w> 475156
l er 475131
ol og 475014
su ch</w> 474263
l än 474150
b en 473887
oo k</w> 473887
ic k 473074
-- -- 472920
t old</w> 472617
P ol 472599
ge ben</w> 472364
I m</w> 472037
m ak 471969
E in</w> 471363
l ar 471107
ag ainst</w> 470676
p r 470503
1 1</w> 470110
it u 470100
k eine</w> 469931
p rä 469798
si de</w> 468578
M c 468522
le a 466956
off ici 466608
vi el 466105
J o 466063
Ges ch 465583
1 . 464944
et s</w> 464602
ig n</w> 463389
it al</w> 463354
h eit</w> 462251
1 0 461726
d ro 460416
ß e</w> 459629
re ich 458875
comp any</w> 458206
ar beit 457462
k o 457083
- S 457051
in k</w> 456932
throu gh</w> 456588
r at 455825
T his</w> 455276
en n</w> 455227
m ake</w> 454979
s at 454419
U m 453530
ou se</w> 453319
Deutsch land</w> 453232
Au ch</w> 452115
i en</w> 451288
ri st 450488
b ar 449635
qu ar 449168
s einer</w> 449018
ti c 448997
di d 448718
G ro 448597
su p 447595
B il 446925
a z 446757
on al</w> 446629
i an</w> 446557
par t 446215
un k 444496
ti g 443803
c ap 443653
wee k</w> 443328
P e 443310
ou t 442995
J u 442207
wor ld</w> 441788
G en 441520
L and 440801
il ity</w> 440214
Euro p 438775
d a</w> 438582
ier en</w> 438396
e f 437961
t al 436678
ri ght</w> 435442
sa y</w> 435352
O r 435227
S o</w> 434571
kl är 434518
s eit</w> 434227
b l 432507
z ur 432084
p en 431965
go ing</w> 431923
I N 431716
w om 430570
B r 430516
zw ischen</w> 430434
se con 430207
te m 430184
an s 429116
äh ri 429097
and s</w> 428893
d ri 428693
m ay</w> 428604
wi th 427864
th ose</w> 427723
un der</w> 427723
ch an 427442
sp e 427319
te l</w> 426010
si ve</w> 425376
ch il 424966
N ach</w> 424703
S o 424672
C ar 423998
m uss</w> 423645
d ung</w> 423496
c all 422732
U hr</w> 422519
T ra 422168
es en</w> 421453
ch en 420618
inc re 420045
c ar 419972
K in 419029
th en</w> 418986
bei m</w> 418983
p s</w> 418767
G el 418523
An d</w> 418509
ol le 418435
J oh 418416
lo w</w> 418310
M r</w> 418297
The y</w> 417789
h ome</w> 417394
z e 417219
s ince</w> 417145
t - 416915
ev en</w> 416056
S u 415967
m ents</w> 415353
un s</w> 415142
al le</w> 415075
W h 414751
pro f 414099
m ei 413884
ö l 413422
w ell</w> 412180
si gn 410970
b ro 410760
ris e</w> 410738
ig er</w> 409359
Y or 408825
B es 408712
l en</w> 408217
c ent 408139
bus in 407519
war en</w> 407467
x t</w> 407076
ber e 406610
er k 406301
sy st 405772
Z eit 405407
b st</w> 405032
c ed</w> 404008
b ar</w> 403864
ser v 403146
W ir 402344
K ar 401338
s s</w> 400459
z eit</w> 400367
inclu ding</w> 400267
h ö 399634
l in</w> 399599
B rit 399405
t es</w> 399400
w in 398893
Men schen</w> 397563
at ur 397413
di ff 396961
Jahr e</w> 396945
F o 396934
he it 396889
an ge 396270
19 9 395260
st re 395102
1 2</w> 394725
ä u 394595
er i 394416
st ill</w> 394216
fu l</w> 393837
p a 392882
h ör 392830
al en</w> 392543
st ra 391810
sh ould</w> 390446
bur g</w> 390117
mu ch</w> 389794
at s 389755
ac t</w> 389034
per i 388770
se t</w> 388602
st ate</w> 388232
d ings</w> 387989
se e</w> 387811
c c 387740
su b 387480
man n</w> 386846
d - 386805
i gen</w> 386773
hal ten</w> 386587
t ake</w> 386512
ap p 385683
w oh 385086
v ol 384819
f te</w> 384380
Sp iel 384354
re sp 383970
H am 383954
b is 383669
1 5</w> 383604
se c 381590
k ur 381259
s ei 381185
dre i</w> 379679
ta in 379554
di d</w> 379408
bel ie 378896
as on</w> 377640
st im 377399
un den</w> 377221
i vers 376535
we en</w> 376442
l it 376152
K om 376150
f il 375995
pro vi 375578
au p 375508
o ver 375071
cont in 374907
N ation 374604
n ach 373966
P rä 373907
v e 373214
B et 372753
con c 372752
g ed</w> 372732
n un</w> 372504
Ü ber 372491
or d</w> 372209
S en 372025
P er 371920
th s</w> 371920
M r.</w> 371865
c al</w> 371320
dur ing</w> 371212
ar t</w> 371057
ah l</w> 370417
i f 370316
el ec 370302
ä tz 370274
n um 370214
ge ht</w> 370198
am m 369661
O p 369033
re su 368911
w är 368838
t or 368263
st and 367879
g ar</w> 367398
A ut 367316
M ich 367256
shi p</w> 366950
g s</w> 366937
ter n</w> 366665
sch n 366466
el le</w> 365819
M u 365505
c t</w> 365415
am es</w> 365293
stell t</w> 365285
er te</w> 365119
di rec 364777
ü ck</w> 364727
an cial</w> 364590
ar - 363916
de m 363848
oll te</w> 363371
Milli onen</w> 363215
coun try</w> 362407
. . 362295
ig h 362107
us e</w> 361865
ent ly</w> 361394
ad t</w> 361315
F ri 361063
a de</w> 360582
d iti 360344
Fin anz 359368
P h 359316
bet ween</w> 358845
me di 358451
Un ited</w> 358342
US - 358312
al th</w> 358307
Min ist 358104
Ar beit 357892
' re</w> 357865
us s 357671
hä t 357432
au m</w> 356814
al es</w> 356809
us am 356771
er sten</w> 356683
dies e</w> 356606
bere its</w> 356562
g l 356340
sch ei 356219
M it</w> 355776
dam it</w> 355746
Yor k</w> 355691
k ün 355669
ff en</w> 355024
ur n 354422
s ome 354326
th ink</w> 354145
l ess</w> 354105
G o 354102
li g 353855
b or 353206
iti k</w> 351910
gen er 351666
W el 351630
lo b 351358
p le 351161
an ts</w> 351023
in form 350809
st ed</w> 350789
re ad 350710
B ro 350620
ti v 350489
Ch ina</w> 350409
is su 350340
minist er</w> 349768
au en</w> 349692
a il 349516
z ie 349321
2 . 348950
H ar 348568
ti gen</w> 348506
Th ere</w> 348305
ne xt</w> 348160
j etzt</w> 348015
wur den</w> 347852
se hr</w> 347781
W or 346831
ar o 346830
en e</w> 346744
S ep 346354
L u 345425
st än 345397
we gen</w> 345375
op p 345142
f ten</w> 344472
ar ly</w> 344374
publi c</w> 344218
poli ce</w> 344042
a si 343733
su m 343485
T u 343434
0 . 343181
w . 342935
s ha 342852
ber s</w> 342701
th ese</w> 342071
k re 341980
Americ an</w> 341940
c ri 341373
O N 341210
ell en</w> 340571
h ere</w> 340381
M ark 339780
y our</w> 339765
ww w. 339671
ur s 339480
be k 339248
ch te</w> 339020
bu il 338588
m ent 338394
A s 338289
s einen</w> 338047
de f 337931
C he 337897
B u 337458
B us 337162
las sen</w> 337089
f ri 336863
ist an</w> 336848
li k 336691
an no 336624
l am 336518
t schaf 336078
par t</w> 335968
f el 335608
K re 335594
en ti 335250
bes ch 335180
mil it 335131
ap pe 334543
a k</w> 334104
co m</w> 333335
m em 332284
J un 332185
d ru 332111
I ra 332076
mark et</w> 331635
dies er</w> 331502
E l 331318
Ber lin</w> 330936
U S</w> 330685
A d 330473
de vel 330147
ü tz 330074
secon d</w> 330059
di en 329370
ou th</w> 329318
z ahl 328426
ag o</w> 328268
in gen</w> 327826
ö ff 327642
mö g 327625
c tion</w> 327379
s m 326835
i hr</w> 326502
ne ue</w> 326403
ag er</w> 326316
F u 326177
weit er</w> 325596
for m</w> 325568
ich ts</w> 325321
ö ß 325239
am s</w> 324861
S er 324328
n is</w> 324120
y p 323913
wei l</w> 323768
w a</w> 323661
g ood</w> 323605
1 8 323587
in du 322824
A ber</w> 322576
H e 322411
g ut</w> 322282
steh t</w> 321769
En t 321532
2 , 320987
P ri 320111
ic s</w> 319962
müs sen</w> 319859
v iel</w> 319610
D och</w> 319192
S a 319137
vie w</w> 318799
f t 318676
oo l</w> 318529
En de</w> 318071
f ul 318040
aro und</w> 317693
on s 317388
sch ie 317233
sel bst</w> 316564
ban k</w> 316480
er st</w> 316328
s ame</w> 316253
St ra 316182
fo und</w> 316135
F ra 315834
S h 315372
T hat</w> 314810
ing ton</w> 314770
c an 314676
Fü r</w> 314488
hat ten</w> 314041
er in</w> 313992
dr en</w> 313946
itä t</w> 313783
o m</w> 313734
n or 313335
F l 313099
ow n 313078
te chn 312971
ge t 312180
t om 312153
sei en</w> 311994
th ough</w> 311898
hal b</w> 311706
a - 311693
. com</w> 311576
al y 311194
ti al</w> 311032
hel p</w> 311019
r en 311009
ut z 310292
de st 310171
am er 309772
resp on 309040
St re 308923
r und</w> 308724
gab en</w> 308696
R es 308604
Be i</w> 308244
ber g</w> 308057
c or 307494
st u 307372
b illion</w> 307160
busin ess</w> 306817
b il 306452
J an 306431
ge f 306370
.. .</w> 306363
for mer</w> 306357
k no 306354
ver gan 306174
wer de</w> 305918
ges t</w> 305799
ag es</w> 305572
. de</w> 305546
se ar 305544
ch es</w> 305340
is ion</w> 305177
te am</w> 305020
ge hen</w> 304868
c amp 304279
I f</w> 304007
z eu 303357
at h</w> 303343
we ise</w> 302941
f our</w> 302839
ic k</w> 302693
ap pro 302592
y - 302172
or gan 302108
f all</w> 301880
dies em</w> 301722
1 5 301463
or ding</w> 300672
Pre sident</w> 300514
sch l 300475
re le 300342
ru pp 300088
a ge 299155
No v 299053
c er 298966
s ed</w> 298585
chan ge</w> 298386
t schaft</w> 297772
mon th</w> 297698
k ill 297485
mon ths</w> 297378
li c 297347
er klär 296139
L on 296021
a red</w> 295721
qu i 295681
2 5</w> 295584
en - 295556
c as 295550
er ed</w> 295329
li m 295195
w a 295112
s einem</w> 295111
k now</w> 294932
w ant</w> 294878
Z eit</w> 294811
gro up</w> 294385
se hen</w> 294351
Sch ul 294328
pro ble 293756
l ing</w> 293633
E ine</w> 293348
as si 293230
pl ace</w> 292973
ei l</w> 292904
T r 292814
on - 292797
W est 292309
c r 292107
lo se</w> 291787
Com p 291745
ihr en</w> 291275
bo th</w> 291069
so ci 291055
pre sident</w> 290836
ihr er</w> 290580
Y o 290512
neu en</w> 290307
offici als</w> 289993
t ors</w> 289627
alle m</w> 289509
gr öß 289366
an other</w> 289351
for der 289129
t al</w> 289087
ist en</w> 289004
ie der 288666
g ame</w> 288426
ur s</w> 288292
b lei 287924
oll ar</w> 287633
quar ter</w> 287362
th e 286784
ma chen</w> 286616
U - 286552
i de 286432
3 . 286102
n ten</w> 285967
e p</w> 285765
kom mt</w> 285535
Ch rist 285179
F or</w> 285001
ir e</w> 284849
i ons</w> 284773
S y 284711
4 0</w> 284305
li fe</w> 283980
mis sion</w> 283751
chil dren</w> 283733
Milli ar 283408
devel op 283297
v al 283258
ti ge</w> 282964
syst em</w> 282852
vic es</w> 282706
S he</w> 282585
ye ar- 282425
u res</w> 282317
Ban k</w> 282287
in f 281734
e f</w> 281547
I r 281546
R ück 281540
off en 281497
et wa</w> 281481
A P</w> 281339
n t</w> 281078
ent r 280538
co ur 280199
Un ivers 280193
di es</w> 280159
ander en</w> 279740
eit en</w> 279411
pro te 279393
sel f</w> 279343
gan g</w> 279303
s w 279089
R ich 278490
L ei 278453
ie f</w> 277853
g ing</w> 277674
g es</w> 277561
ne t 277544
i b 277508
an y 277462
viel e</w> 276843
read y</w> 276572
oh ne</w> 276514
sch ein 276493
ur y</w> 276120
th re 275824
call ed</w> 275648
re ma 275420
repor t</w> 275147
tem ber</w> 275059
w is 275040
sch w 274914
st a 274653
d an 274529
w ollen</w> 274282
L in 274039
A s</w> 273958
un de</w> 273825
vergan genen</w> 273808
b all</w> 273670
fin ancial</w> 273618
St u 273508
d ays</w> 273316
m or 273190
ne ed</w> 273104
anno un 273055
L IN 273024
Af gh 272878
at or</w> 272799
s itz 272691
f ur 272609
b ased</w> 272571
M or 272208
steh en</w> 272126
ti es</w> 272002
l ong</w> 271972
ish ed</w> 271971
tur n</w> 271698
1 3</w> 271658
z eh 271609
us si 271332
Sep tember</w> 271306
In di 271070
er r 271002
ih n</w> 270995
ex c 270952
C or 270926
to o</w> 270811
th ir 270715
sh ow 270646
ver b 270633
st ud 270379
cle ar</w> 270285
k en 270203
ä f 270101
in er</w> 269946
de ut 269938
t le</w> 269875
W er 269646
a el</w> 269568
mon ey</w> 269543
ier te</w> 269307
t lich</w> 269298
glei ch</w> 269234
si den 268731
el n</w> 268117
ha pp 267415
ta in</w> 267194
C D 267032
O ff 267006
m us 266409
W ash 266035
1 4</w> 265952
deutsch en</w> 265365
w o</w> 265347
lan g</w> 265325
p ut</w> 264797
s or 264771
f le 264595
war d</w> 264439
w ays</w> 264214
S ie 264023
v est 263352
h op 263264
dur ch 263095
T im 263019
se l</w> 263015
au th 262828
do c 262798
ag t</w> 262761
com mun 262635
n ight</w> 262611
ad d 262556
ne y</w> 262426
inform ation</w> 262395
h än 262157
all er 262099
et ing</w> 261833
or en</w> 261830
Au g 261789
gan z</w> 261780
hig h 261660
B l 261648
ver k 261604
er ung</w> 261212
pri v 261149
pos ition</w> 260801
1 7 260644
c ity</w> 260542
la g</w> 260448
br au 260427
fam ily</w> 260416
Gen er 260348
1 00</w> 260202
qu est 259693
1 8</w> 259583
eb en 259556
A m</w> 259221
ou ght</w> 259004
ma j 258716
fi ve</w> 258684
Tu esday</w> 258560
fü n 258271
S un 257863
1 6 257857
W ie</w> 257737
v el</w> 257720
ih m</w> 257711
G u 257686
l and 257682
sho w</w> 257645
ö s 257571
c la 257526
r ation</w> 257282
ON LIN 257271
con si 257209
se cur 257130
se ason</w> 256977
ist s</w> 256887
on g 256769
le ft</w> 256620
ar ds</w> 256519
W ed 256397
s ollen</w> 256168
g ent 255605
num ber</w> 255587
to p</w> 255297
is cher</w> 255276
A kti 255253
em s</w> 255207
ONLIN E</w> 254845
vi er</w> 254701
si ble</w> 254573
Wash ington</w> 254531
Mon day</w> 254089
lie ß 254004
son dern</w> 253953
Is ra 253694
P l 253626
se ver 253588
Joh n</w> 253532
1 6</w> 253303
O l 253278
s ow 253143
g ri 252919
W enn</w> 252779
Kon z 252287
u al</w> 252235
h ist 252134
ähri ge</w> 251988
v ir 251953
B ay 251952
t ure</w> 251622
con tro 251484
am en</w> 251450
D ar 251335
f ast</w> 251274
' ve</w> 251251
comp an 251187
1 4 250952
om in 250668
Fri day</w> 250428
k te</w> 250300
f est 250098
repor ted</w> 249713
f rü 249698
En g 249696
pro c 249644
n is 249643
it t</w> 249426
G re 249403
year- old</w> 249390
ec u 249249
o s 249238
200 6</w> 249237
Dem oc 249148
cur r 249142
G E 248596
wh e 248493
Di en 248358
o b</w> 248336
d at 247975
he ute</w> 247866
camp a 247624
c ase</w> 247310
Wed n 247273
exp ected</w> 247260
n ung</w> 247243
fall s</w> 247215
w on</w> 247094
ber ich 247005
kön nte</w> 246867
P al 246766
sat z</w> 246604
3 , 246583
im p 246487
d ra 246397
Th urs 246317
Wedn esday</w> 246218
at ely</w> 245899
go t</w> 245849
in st 245651
al is 245594
ation en</w> 245453
an ti 245336
gro w 245316
Thurs day</w> 245274
M ün 245056
au er</w> 244951
t a</w> 244922
K l 244768
p a</w> 244319
h in</w> 244153
D av 244127
US A</w> 244071
F lu 244064
W elt</w> 243946
au t</w> 243921
st ei 243503
n er 243192
ti l</w> 243165
Ge or 243157
I E 243029
- J 242887
sp ä 242869
U r 242626
te te</w> 242446
et was</w> 242276
Mich ael</w> 242252
Ne u 242102
as ch 242049
F ir 242000
s ite</w> 241716
pl an 241373
rec ei 241111
w in</w> 241039
hig h</w> 240887
d ür 240708
ver y 240279
i o</w> 240071
am t</w> 240063
I m 239911
fahr en</w> 239383
Fran k 239357
emp lo 239334
Reg ierung</w> 239292
ch s</w> 239152
t t</w> 239008
1 7</w> 238692
ati c</w> 238591
h äl 238244
Lon don</w> 238180
age ment</w> 237973
f li 237902
th ers</w> 237834
sup port</w> 237746
W ar 237734
- year-old</w> 237664
H ei 237612
il s</w> 237511
P lat 237500
m ach 237408
20 10</w> 237329
Co un 237230
Unter nehmen</w> 237138
al - 237047
stell en</w> 236672
diff er 236435
An gel 236147
tim es</w> 236094
ag en 236058
w rit 236016
k n 236000
he alth</w> 235852
lo t</w> 235767
b est</w> 235259
ad ded</w> 235193
St ates</w> 235192
to day</w> 235185
de l</w> 235047
w ich 234681
pl ay</w> 234570
ber t</w> 234437
z o 234425
in ing</w> 234272
ch ten</w> 234165
z weit 234115
sp ok 233939
di sc 233751
W i 233649
olog y</w> 233258
c l 233173
ne e 232584
on es</w> 232521
gh ts</w> 232418
spok es 232316
F am 232273
i al</w> 232225
f iel 232060
fol low 231997
ul ar</w> 231979
- K 231785
su cc 231736
ck en</w> 231692
usam men 231502
sp ar 231426
C ol 231200
em ents</w> 231110
' m</w> 231069
T re 231035
b all 230912
ec ts</w> 230829
j a</w> 230579
k ein</w> 230310
es si 230040
Mc C 229900
A pri 229798
pos iti 229783
er st 229779
gen d 229704
t ru 229631
ge l</w> 229505
gr am 229391
B ei 229347
ro ss</w> 229135
is p 229015
en ing</w> 228927
Al s</w> 228810
ein mal</w> 228756
Sch l 228735
Apri l</w> 228614
om men</w> 228448
b eit</w> 228401
c are</w> 228379
ü h 228352
woh l</w> 228335
in ed</w> 228301
in nen</w> 228158
c ame</w> 228125
comp le 228078
L o 228046
b ri 227955
D ru 227763
H and 227751
f äl 227625
Yo u</w> 227460
fe w</w> 226937
i ous</w> 226786
h ier</w> 226661
B ür 226610
In vest 226519
m ight</w> 225955
Sta ats 225868
ag re 225772
et t 225279
ne ver</w> 225264
ander e</w> 225215
D ur 224804
a way</w> 224463
S ec 224381
ad ing</w> 224311
en z 224058
M i 224025
Milliar den</w> 223916
a w 223592
ru n</w> 223216
le y</w> 223188
den ce</w> 223173
la w 223131
t ook</w> 223103
h tt 222993
hal f</w> 222892
al t</w> 222879
resu l 222838
we ver</w> 222837
ab ility</w> 222728
in de 222520
V ol 222334
lo s</w> 222177
S onn 222138
htt p</w> 222040
p ast</w> 221997
C lin 221988
st an 221599
m i 221438
S ich 221329
S am 221267
b al 221200
en ed</w> 221144
L and</w> 221139
n s</w> 221083
econom ic</w> 220779
g ab</w> 220599
compan ies</w> 220578
g lob 220465
i p 220393
m id 220344
th er 220109
b ra 220035
acc ording</w> 219967
Poli ze 219719
c ust 219557
Re publi 219522
F ahr 219088
ear ly</w> 218933
v al</w> 218919
pl an</w> 218711
ann t</w> 218670
S ol 218603
t ar 218349
to ber</w> 218291
b oo 218290
milit ary</w> 218177
M il 218011
al ity</w> 217839
a di 217710
J e 217501
M ann</w> 217471
den en</w> 217233
l l</w> 216964
A m 216961
thir d</w> 216951
der al</w> 216922
Au f</w> 216718
me hr 216520
s es</w> 216388
with out</w> 216280
ut es</w> 215959
k a</w> 215952
poin t</w> 215887
Nov ember</w> 215876
D es 215508
ähr end</w> 215474
h om 215471
zur ück 215433
lat er</w> 215374
ac ks</w> 215118
er ing</w> 215082
ch ed</w> 214489
ep t</w> 214460
le ast</w> 214402
o un 214357
F il 214297
e ach</w> 213885
re ally</w> 213741
t ly</w> 213702
letz t</w> 213625
in j 213415
H ouse</w> 213375
tr ä 213316
G eb 213241
o - 213188
p op 213173
k ers</w> 213044
lä s 213015
all es</w> 212907
Afgh an 212877
d pa</w> 212769
i k</w> 212727
2 5 212652
f ut 212534
P ak 211985
erg y</w> 211930
str y</w> 211913
Bus h</w> 211531
ß er 211494
ro p 211335
whe ther</w> 211176
B ra 211116
invest ig 211037
b ig</w> 210947
Wel t 210741
z eit 210717
Fu ß 210711
L än 210678
i on 210419
co ver 210055
sch e</w> 210003
D ollar</w> 209947
contin u 209869
in s 209763
co urt</w> 209492
w at 209485
da bei</w> 209238
D is 209185
di t</w> 208926
19 8 208898
en en</w> 208862
J ap 208656
fi ed</w> 208553
n äch 208498
Sun day</w> 208464
A n</w> 208185
at s</w> 207987
poin ts</w> 207887
de al</w> 207827
ou l 207825
ier ten</w> 207748
n ichts</w> 207714
Jan u 207686
lik ely</w> 207567
fo re 207553
off ic 207427
sp re 207419
gi on</w> 207336
so ur 206951
Ne w 206920
ch ang 206843
bet ter</w> 206810
m ir</w> 206798
1 3 206789
h um 206661
lit tle</w> 206572
r ate</w> 206542
bei den</w> 206406
se e 206353
al ready</w> 206260
O n</w> 206216
si x</w> 206137
loo king</w> 206030
Americ a</w> 205993
D - 205941
p ay 205933
um ent</w> 205933
t z</w> 205912
m ich</w> 205897
y mp 205848
S outh</w> 205817
an ischen</w> 205810
F eb 205794
g ar 205622
b lo 205584
6 0</w> 205555
z un 205518
star t</w> 205509
s ure</w> 205496
en ding</w> 205457
secur ity</w> 205123
ah n 205015
pp ed</w> 204983
1 .</w> 204967
tra g</w> 204871
sch ool</w> 204701
4 . 204645
st ie 204640
e very</w> 204377
s ales</w> 204299
W hen</w> 204218
A t</w> 204213
Che f</w> 204021
m a</w> 203945
as sen</w> 203937
K r 203782
wär e</w> 203672
ous ly</w> 203496
je doch</w> 203334
b ab 203323
ß t</w> 203281
hät ten</w> 203268
H aup 203185
O n 203076
p ur 203070
e ver</w> 202939
Fam ili 202738
wom en</w> 202695
sp o 202632
SP IE 202627
auf en</w> 202539
op s</w> 202496
öff ent 202423
un til</w> 202422
SPIE GE 202392
Ber lin 202383
Nach rich 202317
po wer</w> 202251
M is 201994
ing er</w> 201842
loo k</w> 201775
ag ue</w> 201692
campa ign</w> 201679
polit ical</w> 201609
st ä 201512
l age</w> 201428
ci p 201362
e very 201283
k un 201278
sh are</w> 201257
n ess</w> 201148
st - 201093
c olle 200921
t ag 200739
am ong</w> 200657
J ah 200606
com ing</w> 200450
ti c</w> 200435
1 2 200351
d au 200261
ar ing</w> 200208
aller dings</w> 200140
ex ecu 200019
Polize i</w> 200001
k tion</w> 199998
s us 199964
Gro ß 199915
a h</w> 199555
econom y</w> 199369
is en</w> 199256
H ol 199244
re sear 199239
ad v 199209
k s 199177
w an 199103
it ing</w> 198899
Ste u 198880
wür de</w> 198763
in ten 198424
h ouse</w> 198357
g ung</w> 198354
da für</w> 198274
p ris 198033
f ar</w> 197942
mem bers</w> 197836
ver sch 197820
f oo 197798
Brit ish</w> 197419
ti on 197215
Pro ble 197193
lu b</w> 197141
SPIEGE L</w> 196961
P au 196947
ck t</w> 196799
b i 196703
be h 196631
part ment</w> 196549
aus ge 196351
z ed</w> 196251
M at 196084
li er</w> 196015
fer ence</w> 195992
g te</w> 195976
lich keit</w> 195715
h ard</w> 195681
H il 195502
tr ans 195456
fün f</w> 195390
D am 195342
ge hör 195338
W ahl 195301
c ul 195234
ü l 195225
inv ol 195200
te i</w> 195150
el s</w> 195110
gem ein 195033
S atur 195022
heit s 194868
Clin ton</w> 194733
he ad</w> 194700
Me di 194538
li cher</w> 194493
m ed</w> 194491
ac tion</w> 194358
F e 194349
Fra u</w> 194325
wom an</w> 194316
ne ws</w> 194312
on der 194275
im pro 194225
sever al</w> 194065
rec ent</w> 194063
Aug ust</w> 194055
B el 193988
ag ed</w> 193969
es sion</w> 193815
V on</w> 193749
mak ing</w> 193722
An gaben</w> 193704
con tr 193562
al ten</w> 193541
er war 193540
er - 193533
B C</w> 193390
b ed</w> 193356
ch ief</w> 193353
on t</w> 193202
W as</w> 193074
im port 192984
los s</w> 192973
la w</w> 192968
Gel d</w> 192915
gra m</w> 192888
le ad</w> 192839
weit er 192809
D ec 192555
b in</w> 192401
c ro 192362
is m</w> 192311
re m</w> 192299
bo dy</w> 192135
Ira q</w> 191651
z äh 191622
par ty</w> 191486
sow ie</w> 191477
be l</w> 191413
Th om 191230
or ity</w> 191170
on y</w> 191117
R ussi 190804
e ch 190738
is ed</w> 190723
n ei 190453
Prä sident</w> 190432
P r 190214
Sich er 190167
Nation al</w> 190128
c rit 190002
Af ri 189992
gen ommen</w> 189873
m acht</w> 189764
h it</w> 189723
indu stry</w> 189680
eh t</w> 189672
en ds</w> 189627
oll ten</w> 189600
le it 189563
ä mp 189516
ser vices</w> 189192
wor king</w> 189112
ah n</w> 189064
1 - 188982
SP D</w> 188853
Dav id</w> 188726
serv ice</w> 188605
Afghan istan</w> 188539
B au 188520
m el 188511
1 9</w> 188490
Nor th</w> 188411
mit tel 188272
j ect</w> 188256
f eh 188248
com mit 188222
w ent</w> 188044
T or 187802
en k 187788
ö h 187761
r un 187753
l ung</w> 187471
y n 187463
2 4</w> 187433
O ne</w> 187400
D an 186864
i or</w> 186432
lo cal</w> 186377
g ress</w> 186362
p un 186282
Satur day</w> 185996
stat ement</w> 185842
O c 185807
Ol ymp 185548
W al 185511
0 - 185489
W ol 185167
b an</w> 185132
in n</w> 185090
2 1</w> 185069
sch ließ 184909
L eben</w> 184845
mit t 184798
gr ün 184648
Eng land</w> 184541
letz ten</w> 184495
il ed</w> 184256
inn ing</w> 184002
do es</w> 183950
er ten</w> 183930
kill ed</w> 183922
kom men 183908
S el 183883
so gar</w> 183857
ant wor 183833
s ollte</w> 183655
ac y</w> 183611
Ch ar 183397
inter national</w> 183332
zeh n</w> 183306
if ic 183214
tei l</w> 183107
hel d</w> 183013
it ag</w> 182930
tschaf ts 182901
pl ac 182861
f - 182860
tri es</w> 182815
4 , 182684
g a 182510
zur ück</w> 182362
des sen</w> 182337
R ei 182281
al low 182222
at ors</w> 182157
f ig 182074
M ann 181696
fol ge</w> 181664
or ts</w> 181620
As soci 181620
fut ure</w> 181608
se en</w> 181476
F D 181425
cust om 181366
gro ßen</w> 181327
Univers ity</w> 181267
p ay</w> 181253
di g</w> 181115
vi ol 181111
pri ces</w> 181037
announ ced</w> 180996
an aly 180923
B re 180896
deutsch e</w> 180858
5 00</w> 180755
b and</w> 180564
Jun e</w> 180557
s ing</w> 180534
Sch w 180480
d ort</w> 180271
f ach</w> 180254
s co 180156
C ity</w> 180149
p ed</w> 180123
t in</w> 180110
gi ve</w> 179910
M an</w> 179832
st adt</w> 179760
s ch</w> 179734
s - 179627
setz en</w> 179557
maj or</w> 179555
ich te</w> 179458
f ace</w> 179454
ing t</w> 179452
si eht</w> 179143
stim m 179118
wir k 179048
cla im 179033
ic kl 178932
mo ve</w> 178828
L eb 178814
D onn 178551
us ing</w> 178472
C ali 178458
W ei 178391
T el 178193
some thing</w> 178175
li ck</w> 178119
resul ts</w> 178116
pl at 178026
um s</w> 177957
mu si 177941
peri o 177796
k t 177644
S k 177607
did n</w> 177603
are a</w> 177476
l agen</w> 177475
d ge</w> 177450
sp ra 177300
be come</w> 177221
zi al 177187
Wor ld</w> 177187
ent er</w> 177089
ag ain</w> 177051
r ul 177006
r a</w> 176918
Ir an</w> 176803
ru p 176710
sp r 176692
en z</w> 176689
T ex 176684
ih rem</w> 176626
ol le</w> 176594
fall en</w> 176552
Comp any</w> 176264
ge stellt</w> 176223
ge gen 176207
In st 176182
Haup t 176146
a i 176145
Zeit ung</w> 175906
äch st</w> 175883
o l</w> 175844
gew esen</w> 175780
2 2</w> 175654
R u 175649
an der</w> 175510
per son 175425
is ch 175313
ra ft</w> 175313
ar re 175258
b s</w> 175225
führ t</w> 175158
S co 175132
K ur 175106
ac ross</w> 174860
H al 174855
McC ain</w> 174842
b st 174792
glob al</w> 174722
ad minist 174424
en se</w> 174361
tak en</w> 174312
3 1</w> 174192
ver su 174122
ne w 173937
W ith</w> 173842
L ie 173486
a ir</w> 173425
lan ge</w> 173381
ter n 173253
St adt</w> 173183
Kin der</w> 173074
ver l 173069
Un ion</w> 173067
z war</w> 172953
c ar</w> 172905
R i 172896
Plat z</w> 172853
u tion</w> 172825
ac tiv 172720
m ust</w> 172705
F all</w> 172702
en der</w> 172655
fin al</w> 172628
Reg ier 172408
Wo che</w> 172339
ke hr 172331
k am</w> 172329
sa m</w> 172257
ck s</w> 172255
sa ying</w> 172181
er ste</w> 172000
W in 171890
f ind</w> 171839
gre at</w> 171744
pres ent 171693
T V</w> 171660
p as 171547
k ey</w> 171514
An ge 171386
p ic 171314
lie gt</w> 171122
T ri 170975
a den</w> 170891
Bil d 170834
av ail 170757
Flu g 170662
Inter net</w> 170630
ta x</w> 170415
nah men</w> 170410
A S 170202
sag en</w> 170181
S pe 170036
d ou 169934
W oh 169908
D enn</w> 169902
str at 169791
U R 169763
ha m</w> 169648
20 11</w> 169591
Mar ch</w> 169580
ß en 169574
rupp e</w> 169563
tur ned</w> 169480
c all</w> 169189
da von</w> 169189
b ie 169129
te e</w> 168974
Feb ru 168891
S om 168798
S ü 168666
ver sion</w> 168451
de ath</w> 168415
c el 168390
di vi 168367
W il 168312
ut ed</w> 168291
y er</w> 168182
pl ans</w> 168109
an a</w> 168088
c los 168075
ex peri 168017
gro ße</w> 167613
o il</w> 167518
in come</w> 167504
gem acht</w> 167405
st är 167351
si d 167326
B y</w> 167104
Mu si 167101
direc tor</w> 167095
da zu</w> 166938
he ad 166915
for man 166810
pos ed</w> 166707
Mit tw 166639
D a</w> 166613
weit ere</w> 166607
E d 166586
6 . 166553
th ings</w> 166407
b ig 166396
p ati 166212
n ie</w> 166211
itu ation</w> 166170
i ed</w> 166011
sch ul 165919
der ung</w> 165835
Ch in 165800
spokes man</w> 165758
se x 165730
nah me</w> 165703
c o</w> 165692
t est</w> 165588
p ut 165514
F ern 165474
kno wn</w> 165447
H el 165132
w ater</w> 164887
ex per 164868
pro gram</w> 164864
off ice</w> 164847
B eh 164816
reg ul 164711
st or 164607
th ern</w> 164604
u ten</w> 164504
F ol 164497
su g 164374
inter est</w> 164346
kon nte</w> 164260
5 . 164138
G ol 163908
wel t 163891
Euro pe 163766
lo st</w> 163668
d or 163646
amp f</w> 163639
jo b</w> 163567
en ough</w> 163555
di sp 163539
G em 163394
pos sible</w> 163359
---- ---- 163352
b ack 163239
c a</w> 163205
re co 163193
wür den</w> 163124
Al l</w> 162934
del i 162574
T ro 162425
b in 162403
f an 162259
fin den</w> 162259
M erk 162222
as ked</w> 162199
te st 162134
con su 162099
incre ase</w> 162082
zei ch 162038
H a 161914
re al</w> 161804
P unk 161795
G ar 161755
st ütz 161655
import ant</w> 161512
CD U</w> 161479
Gr ün 161297
rec ord</w> 161253
curr ent</w> 161218
all er</w> 161062
n ie 160856
B ec 160728
sm all</w> 160581
teil te</w> 160421
V or</w> 160414
belie ve</w> 160385
M ag 160362
Sp itz 160328
tak ing</w> 160257
l ate</w> 160256
coun tries</w> 160061
ke ep</w> 159882
v ice</w> 159738
fiel d</w> 159680
th em 159646
dic al</w> 159623
gab e</w> 159583
wee ks</w> 159581
fo ur 159550
ch ter</w> 159456
le t 159425
G ra 159204
W est</w> 159145
eh en</w> 159137
Tra iner</w> 159098
den n</w> 159007
ell ing</w> 158871
il t</w> 158823
7 . 158573
di ed</w> 158552
re - 158550
ter m</w> 158490
com es</w> 158446
f ree</w> 158426
p f 158420
a ver 158184
zei gt</w> 158131
T ag</w> 158125
ess es</w> 158099
deut lich</w> 158085
as h</w> 157732
Wo chen</w> 157730
ob s</w> 157703
ne c 157660
wen iger</w> 157613
lä u 157468
offici al</w> 157452
co st</w> 157418
P or 157363
ap er</w> 157355
M är 157182
Arbeit s 157091
elec tion</w> 156917
r at</w> 156893
Deutsch en</w> 156878
f ang</w> 156857
us h 156797
ä d 156687
le ading</w> 156654
ri ch</w> 156567
c ol 156504
m us</w> 156494
S tim 156492
c are 156460
gi ven</w> 156460
er sch 156282
ier e</w> 156215
M ay</w> 156084
or ities</w> 155903
dec ision</w> 155832
200 5</w> 155795
iel t</w> 155715
ti gt</w> 155522
Af ter</w> 155445
lea der</w> 155379
ein z 155338
ro w</w> 155311
in sur 155303
sup por 155212
for n 155172
Minist er</w> 155108
s ci 155077
leg al</w> 155040
F C</w> 154918
wi de</w> 154915
der zeit</w> 154815
po ten 154812
los sen</w> 154586
ess er</w> 154513
as se 154497
at ten 154455
avail able</w> 154418
Europe an</w> 154333
Ent schei 154332
o w</w> 154222
H is</w> 154203
M us 154201
c lose</w> 154058
Tim es</w> 154056
dies es</w> 154051
W er</w> 153931
Isra el</w> 153844
Wir tschafts 153836
19 7 153835
9 . 153782
W hat</w> 153666
s ing 153621
Pro f 153575
z er</w> 153484
2 3</w> 153482
cap ital</w> 153410
fam ili 153329
is on</w> 153247
hät te</w> 153099
fü h 153095
c ut</w> 152995
D u 152830
Fre itag</w> 152768
ch t 152761
Fr age</w> 152737
2 - 152627
al ways</w> 152603
stru c 152497
g s 152383
A N 152313
tr an 152126
am ed</w> 152046
En tw 151954
diti onal</w> 151950
ri cht</w> 151781
du e</w> 151744
t ali 151731
k an 151715
de mo 151674
3 0 151628
kon z 151577
h u 151542
ac coun 151522
B i 151400
ha ving</w> 151327
H in 151290
8 0</w> 151123
ol s</w> 150818
n at 150761
fur ther</w> 150758
ge geben</w> 150636
ck e</w> 150580
yo ung</w> 150564
issu e</w> 150432
T o</w> 150394
me as 150218
en ded</w> 150207
K ap 150158
ei genen</w> 150010
Fü hr 149911
8 . 149848
ben ef 149815
Sp iel</w> 149736
li ve</w> 149662
str ong</w> 149646
ges etzt</w> 149634
l ungen</w> 149620
priv ate</w> 149608
G l 149602
t ory</w> 149558
Au str 149401
tr ying</w> 149349
läs st</w> 149338
Berlin er</w> 149278
spä ter</w> 149133
pri ce</w> 149079
der t</w> 149069
E U- 149056
a i</w> 148929
c ris 148905
k eiten</w> 148838
Pol itik</w> 148772
v ar 148719
g st</w> 148679
fo c 148663
w eit</w> 148557
ris k</w> 148509
Di ese</w> 148442
sch ri 148423
c ou 148403
A t 148401
si g 148375
hei ßt</w> 148191
wer s</w> 148182
s it 148013
ho sp 147991
fe deral</w> 147977
Mon tag</w> 147893
St ate</w> 147806
en nen</w> 147782
ru ch</w> 147646
tr itt</w> 147549
si ons</w> 147521
es sen</w> 147515
un ds</w> 147333
Bes ch 147330
te mp 147313
w ollte</w> 147288
differ ent</w> 147179
ei gen 147147
bo t</w> 147077
inclu de</w> 146705
ch o 146702
ch ing</w> 146687
In form 146682
de b 146625
di gt</w> 146612
W illi 146595
häl t</w> 146526
b y 146478
u es</w> 146470
ger ade</w> 146436
ig n 146372
Pe ter</w> 146204
t ä 145986
b om 145965
P at 145862
A R 145812
tr ag 145760
ear lier</w> 145684
me eting</w> 145598
N ieder 145560
dar auf</w> 145470
G i 145433
un s 145384
si cht</w> 145380
P ub 145315
T it 145174
for t 145145
grow th</w> 145079
la un 145066
M al</w> 145046
d i</w> 145017
wen ig</w> 144998
w ach 144984
S pre 144869
T ran 144630
p ass 144605
m ut 144569
20 0</w> 144562
f ar 144538
ne arly</w> 144535
2 7</w> 144524
O ber 144500
s li 144470
k ten</w> 144465
H ö 144430
t yp 144423
p le</w> 144358
ne ar</w> 144336
per forman 144325
m ember</w> 144260
Land es 144239
pre vi 144199
Gr und 144197
g res 144166
g lie 144126
on ders</w> 144041
pro mis 144037
vir on 144007
re t 144003
sich er 143974
su ff 143918
l ished</w> 143917
execu tive</w> 143870
tro l 143797
B ri 143714
ch all 143697
3 - 143667
I tali 143662
af f</w> 143619
w ing</w> 143607
m als</w> 143449
eu te</w> 143416
Austr ali 143388
sch le 143363
Sonn tag</w> 143323
Ex per 143199
reich en</w> 143195
P res 143078
in t</w> 143045
der ed</w> 143043
d ly</w> 142919
Mittw och</w> 142888
d own 142883
o thers</w> 142861
Inter national</w> 142851
S ach 142752
with in</w> 142749
gen d</w> 142684
G oo 142683
li ed</w> 142652
K ran 142596
ges amt</w> 142495
Fr auen</w> 142493
O N</w> 142440
up s</w> 142388
en ergy</w> 142371
B en 142317
sch rei 142314
Ju ly</w> 142285
M än 142250
perio d</w> 142238
C an 142143
il le</w> 142133
ar t 142066
cre dit</w> 142016
äf ts 142016
comp et 142006
New s 141995
Thom as</w> 141912
g ames</w> 141863
produc ts</w> 141845
E le 141821
vis ion</w> 141792
co sts</w> 141661
kun ft</w> 141639
op en</w> 141627
j ud 141626
an z</w> 141544
in e 141537
f lo 141522
l ands</w> 141496
mark ets</w> 141465
kl ar</w> 141433
ol e</w> 141245
iti ker</w> 141238
ent schei 141157
6 , 141132
ci es</w> 141128
on ds</w> 141097
pl ain 141079
' ll</w> 141044
Stre et</w> 141001
p ite</w> 140984
stell ung</w> 140976
bur ger</w> 140950
contin ue</w> 140846
ul t</w> 140839
on ce</w> 140784
De partment</w> 140734
br ingen</w> 140675
lau t</w> 140671
ol o 140631
dies en</w> 140456
g lich</w> 140414
beg an</w> 140404
m ag 140387
m .</w> 140239
E U</w> 140076
4 5</w> 140014
Merk el</w> 139996
g ern</w> 139992
ci l</w> 139956
wh ose</w> 139944
Donn er 139916
re turn</w> 139904
amer ik 139837
2 8</w> 139802
Nachrich ten</w> 139708
all en</w> 139662
f ood</w> 139511
5 , 139483
P ap 139397
et z</w> 139384
R om 139350
m ul 139161
n ation</w> 139160
den ti 138973
de ci 138952
be w 138827
n u 138826
in es</w> 138678
st on</w> 138640
C ap 138502
beh ind</w> 138497
D ie 138437
Steu er 138398
Ges prä 138353
medi a</w> 138331
le ben</w> 138283
est im 138272
sch o 138264
f igh 138261
gel e 138257
Donner stag</w> 138196
d n</w> 138177
fin anz 138163
Bro wn</w> 138135
v öl 138109
Mit arbeit 138102
är e</w> 137987
ho urs</w> 137972
Dien stag</w> 137944
Jap an</w> 137932
We g</w> 137929
is ing</w> 137888
mo b 137858
provi de</w> 137832
se h 137649
ab il 137624
th ought</w> 137535
ih nen</w> 137500
0 , 137491
o ften</w> 137429
Deutsch e</w> 137370
j ust 137366
re ven 137358
A T 137350
fir e</w> 137332
z wei 137330
tri b 137330
Te chn 137309
g ers</w> 137281
t own</w> 137278
7 , 137229
y ers</w> 137106
U K</w> 137068
T ur 137064
gen cy</w> 136951
com m 136806
7 0</w> 136739
ell er</w> 136653
k aum</w> 136652
tre ten</w> 136636
lea ders</w> 136628
Ho ch 136623
conc ern 136556
ap p</w> 136512
in iti 136500
vis it</w> 136497
Er fol 136381
Pro du 136378
Ko re 136373
lin es</w> 136280
k einen</w> 136254
Th em 136251
-J ährige</w> 136250
ge ther</w> 136228
ye t</w> 136174
as es</w> 136107
f tig</w> 136006
pl ant</w> 135990
m b 135980
se chs</w> 135929
le t</w> 135850
Al l 135849
K il 135826
b rit 135814
e vi 135778
m om 135774
on d</w> 135692
ri ed</w> 135667
An dre 135663
fil m</w> 135638
Fuß ball 135596
d one</w> 135518
id a</w> 135508
al ong</w> 135502
sho t</w> 135463
Er geb 135442
ra cht</w> 135221
S ome</w> 135098
O k 135070
A c 134998
de te</w> 134989
dar f</w> 134896
K ir 134890
stie g</w> 134715
stud y</w> 134687
f ran 134652
al most</w> 134640
Pak istan</w> 134633
est er</w> 134624
contro l</w> 134567
2 6</w> 134559
St and 134533
K an 134529
v oll 134507
Me hr 134493
W is 134458
H u 134448
Wh ite</w> 134447
Bay ern</w> 134389
Mit tel 134282
e e</w> 134163
u le</w> 134091
ein fach</w> 134029
e qu 134019
kön nten</w> 133917
A le 133914
ur ch</w> 133823
z t</w> 133768
cas h</w> 133753
off er</w> 133676
or der</w> 133662
d on 133661
su pp 133651
N at 133635
3 5</w> 133510
A si 133486
ti ert</w> 133482
le vel</w> 133467
organ iz 133465
et ro 133454
vi de 133415
do ing</w> 133403
ann te</w> 133402
ver s</w> 133394
nis se</w> 133383
am ent</w> 133330
lo c 133215
ser ies</w> 133179
g lau 133175
f urt</w> 133062
des t</w> 133055
att ack</w> 133001
k rise</w> 132903
cris is</w> 132841
w ährend</w> 132790
t lichen</w> 132766
ro om</w> 132717
Inst it 132622
w it 132592
fü r 132584
aff en</w> 132573
be wer 132549
man agement</w> 132490
Par tei 132481
can did 132476
sign ific 132450
A ir 132417
ful l</w> 132355
u ally</w> 132294
Cali forn 132266
Brit ain</w> 132236
Poli ce</w> 132223
play ers</w> 132116
en er</w> 132104
erklär te</w> 132097
6 - 132051
M er 131999
follow ing</w> 131913
an ische</w> 131902
get ting</w> 131780
fel d</w> 131779
en ten</w> 131736
K at 131730
f al 131714
ati ves</w> 131705
par tic 131703
C op 131675
bis her</w> 131630
l s</w> 131626
te ten</w> 131616
200 4</w> 131468
le ar 131361
pro du 131337
d it 131334
Da bei</w> 131249
h or 131158
Nation al 131122
Z usammen 131103
on line</w> 131100
pro per 131040
y ed</w> 131035
t ow 130993
K op 130960
r ates</w> 130926
sch lag</w> 130876
wh y</w> 130762
diff ic 130703
S al 130672
t ou 130656
S eit 130633
ei cht</w> 130568
Par tei</w> 130457
h aus</w> 130436
qu e</w> 130391
li ght</w> 130323
zu folge</w> 130285
li g</w> 130268
. m.</w> 130241
est er 130231
proble m</w> 130217
techn ology</w> 130207
u red</w> 130206
develop ment</w> 130121
M ad 130089
poli cy</w> 130052
mat eri 129956
ein ig 129901
gram m</w> 129891
lar ge</w> 129806
mei ster</w> 129708
gener al</w> 129683
administ ration</w> 129675
di re 129497
n ame</w> 129439
e as 129398
zun ächst</w> 129156
c anc 129053
iel e</w> 128992
A tom 128981
g ilt</w> 128978
bo ard</w> 128938
to gether</w> 128890
s ent 128857
di sa 128854
dat a</w> 128837
des cri 128802
Europ e</w> 128782
blei bt</w> 128769
ban ks</w> 128679
f rei 128639
kön ne</w> 128570
Bar ack</w> 128532
Ham burg</w> 128497
buil ding</w> 128467
ill s</w> 128413
M r 128405
al th 128383
J ust 128340
t m 128299
v ent 128283
P R 128248
c at 128176
t it 127866
Mün chen</w> 127823
g ir 127779
fr age</w> 127728
for ce</w> 127724
O R 127582
resear ch</w> 127552
g le</w> 127497
ran t</w> 127478
C hr 127392
j ahr</w> 127376
Ko al 127360
we ch 127281
di stri 127252
pl ann 127232
proble ms</w> 127228
lie gen</w> 127169
Entw ickl 127096
c lo 127059
lar gest</w> 127022
D re 127018
k rit 127004
sch lä 126965
sto ck</w> 126932
gro und</w> 126925
ak ing</w> 126791
le b 126715
Di es 126675
comp ared</w> 126659
schaf ten</w> 126604
Gesch äfts 126597
ent w 126591
B I 126558
zweit en</w> 126403
0 s</w> 126390
gro ß 126357
C S 126356
ell s</w> 126258
vo te</w> 126255
ess or</w> 126252
M ut 126216
u f 126119
mus ste</w> 126114
pres s</w> 126095
Europ a</w> 126079
Be isp 126074
ähri gen</w> 125938
p h</w> 125909
In c</w> 125725
ad s</w> 125724
b asi 125678
m ig 125577
2 9</w> 125560
u ters</w> 125543
out side</w> 125506
si b 125472
G eh 125333
ta x 125271
st ar</w> 125196
sk i</w> 125166
N o</w> 125163
B or 125097
l on 125092
ter r 125018
ein ge 124958
T eil</w> 124873
blei ben</w> 124852
s ent</w> 124756
ne te</w> 124684
p at 124657
Par t 124657
ac tu 124636
Californ ia</w> 124618
re st 124568
usam men</w> 124469
port un 124441
C ha 124439
sug gest 124312
ch e 124196
f ell</w> 124182
D en</w> 124145
mo v 124120
b au</w> 124115
forder t</w> 124107
s .</w> 124087
se ven</w> 124032
sp iel</w> 124026
per son</w> 124009
ür lich</w> 123980
sus p 123980
de ta 123950
siden tial</w> 123904
Gener al</w> 123863
t liche</w> 123813
8 , 123806
rele ase</w> 123803
rele ased</w> 123779
zu g</w> 123777
aver age</w> 123666
Ne ws</w> 123662
kti on 123572
Te am</w> 123425
näch sten</w> 123378
h and</w> 123266
ung sp 123247
rit ten</w> 123235
er fol 123167
star ted</w> 123136
9 0</w> 123106
ran ge</w> 122998
tu n</w> 122961
ing ly</w> 122837
St o 122835
organ is 122812
to tal</w> 122802
b ul 122754
B ur 122748
performan ce</w> 122676
h ung</w> 122632
L os</w> 122525
ic ally</w> 122469
L ast</w> 122283
commun ity</w> 122264
tr agen</w> 122154
M ex 122074
proc ess</w> 122047
a il</w> 122006
man ager</w> 122005
cour se</w> 121994
t ungen</w> 121981
zie hen</w> 121978
Le ague</w> 121909
c li 121891
L a 121881
Ho wever</w> 121866
mög lich</w> 121801
Leb ens 121742
oper ations</w> 121739
en te</w> 121723
ri ghts</w> 121690
ag ing</w> 121666
on nen</w> 121626
x im 121619
Gro up</w> 121597
hig her</w> 121514
Dam it</w> 121492
wor kers</w> 121483
Fl or 121474
k ind</w> 121467
N E 121454
es n</w> 121441
D ok 121418
re li 121326
se qu 121313
T er 120990
J er 120806
D el 120692
ah e 120626
g as</w> 120611
for ces</w> 120587
Ge gen 120575
H au 120572
L ab 120569
Democ r 120402
custom ers</w> 120373
min utes</w> 120353
reg ierung</w> 120353
con ference</w> 120269
eu rop 120266
en ces</w> 120240
4 - 120236
b ir 120079
fe el</w> 120071
v eh 120055
pr ac 119986
re qui 119965
St ad 119947
d ah 119945
spiel en</w> 119889
b esser</w> 119816
geb racht</w> 119759
inter nation 119756
mo ther</w> 119706
pun kt</w> 119515
d ition</w> 119421
lie ßen</w> 119399
En erg 119375
ie ty</w> 119358
hist ory</w> 119251
c ut 119224
s ou 119223
wan ted</w> 119147
fi c</w> 119141
C enter</w> 119044
in dic 119020
glei ch 118989
th ous 118946
fir m</w> 118930
fore ign</w> 118926
Ar beit</w> 118865
ful ly</w> 118797
K un 118778
re st</w> 118714
un ser 118695
An fang</w> 118681
h im 118658
Dec ember</w> 118627
U P 118536
Sp an 118531
oul dn</w> 118499
Ro bert</w> 118474
op portun 118455
fr ont</w> 118455
ad a</w> 118398
ei ght</w> 118380
M as 118375
a de 118286
ic ro 118280
ma in 118259
re gion</w> 118247
9 , 118244
führ er</w> 118212
Gem ein 118177
i denti 118174
b ook</w> 118126
we st 118096
char ges</w> 118095
ul ation</w> 118093
im mt</w> 118077
ck er</w> 117999
f tw 117995
ell schaft</w> 117978
ra di 117972
ro le</w> 117951
t an 117900
s qu 117896
stat ements</w> 117852
sp ort</w> 117815
Wol f 117810
en viron 117800
H an 117792
al te</w> 117708
ti onal</w> 117704
s l 117682
m ort 117607
k - 117554
da gegen</w> 117465
kn app</w> 117439
tre at 117425
invest ment</w> 117399
n en 117361
do esn</w> 117309
en sive</w> 117259
zahl en</w> 117257
B ör 117188
resu lt</w> 117170
es se</w> 117051
Sec ur 117041
wor ks</w> 116957
recei ved</w> 116904
St ein 116897
t on 116892
f est</w> 116889
Be g 116850
c aus 116828
spec i 116776
Wir tschaft</w> 116773
in ci 116745
K ul 116712
le gen</w> 116630
sch er</w> 116623
rat s</w> 116612
arbeit en</w> 116591
S eit</w> 116549
d aten</w> 116523
wi fe</w> 116431
ci vi 116424
sch t</w> 116411
h ous 116409
p an 116406
si mp 116346
s ollten</w> 116211
di gen</w> 116112
rec ently</w> 116090
play ed</w> 116025
europ ä 116009
Mar tin</w> 115960
stud ents</w> 115936
p ack 115881
F est 115858
ga ve</w> 115776
Frank furt</w> 115773
hr en</w> 115680
indu stri 115677
zo gen</w> 115656
S an</w> 115638
be kommen</w> 115628
i ds</w> 115588
D en 115585
w ahr 115502
auf ge 115490
stand ing</w> 115447
g än 115436
am oun 115413
ahe ad</w> 115379
h aup 115324
low er</w> 115303
Geor ge</w> 115252
h y 115191
K en 115143
ex tre 115134
Te il 115063
Ab out</w> 115042
Pau l</w> 115042
e duc 114982
schn ell</w> 114883
- B 114829
issu es</w> 114817
ßer dem</w> 114763
ab end</w> 114537
repor ts</w> 114522
le vel 114498
z usammen</w> 114451
ut z</w> 114451
l ong 114417
J ack 114375
führ en</w> 114342
ell eicht</w> 114314
urn al 114313
A k 114293
Pri v 114260
anz ler 114232
tro ops</w> 114190
b as 114189
re duc 114068
Bundes lig 114021
d ate</w> 114013
D r.</w> 113981
hist or 113969
w ood</w> 113936
Z ahl 113932
In du 113892
Bür ger 113849
Beisp iel</w> 113756
o t</w> 113742
19 6 113695
f ra 113660
d le</w> 113594
war ds</w> 113574
Ge f 113541
Angel es</w> 113473
Wh ile</w> 113467
de ter 113405
st aff</w> 113387
m ing</w> 113359
M ö 113328
pa id</w> 113310
on al 113300
bek annt</w> 113188
Au ßen 113165
gro ups</w> 113104
P ress</w> 113095
Sp r 113022
sen ior</w> 113022
der en</w> 113001
Ch amp 112967
sha res</w> 112965
g an</w> 112959
Ok tober</w> 112873
Or gan 112840
ch i 112823
ar ti 112811
j ährige</w> 112792
D ass</w> 112789
sch ef</w> 112751
v an 112691
Minist er 112681
di st 112656
ro und</w> 112653
wei ß</w> 112559
mar k</w> 112545
wal t</w> 112545
ach ed</w> 112485
A pp 112484
auth orities</w> 112484
ge ts</w> 112449
Mon aten</w> 112407
j un 112401
T ag 112386
ar ri 112340
li es</w> 112277
at temp 112264
Ban ken</w> 112164
ei gent 112111
müs se</w> 112108
en a</w> 111918
for ward</w> 111902
t in 111888
as n</w> 111833
sch wer 111699
Democr atic</w> 111444
B est 111387
gr und</w> 111378
experi ence</w> 111307
Americ ans</w> 111293
Th ese</w> 111288
L it 111267
2 7 111220
k ra 111191
S m 111124
stell er</w> 111039
ro ad</w> 111009
D o 111005
c al 110955
st eu 110917
eh em 110834
Dru ck 110799
terr or 110662
ün st 110633
fa ther</w> 110614
T age</w> 110613
c au 110612
Republi can</w> 110552
fac t</w> 110491
wer k 110448
st ates</w> 110428
F ar 110377
Sam stag</w> 110346
sp rech 110339
b ad</w> 110284
ein ige</w> 110260
o ft</w> 110257
k ämp 110190
st en 110182
h i 110177
sa w</w> 110085
L eit 110039
E ig 110009
H or 109971
h on 109949
Ver k 109914
S an 109886
' d</w> 109879
y le</w> 109863
f et 109849
- T 109849
Mit glie 109782
p ho 109727
c oll 109720
Min uten</w> 109648
F el 109635
r ace</w> 109560
z en 109559
veh ic 109532
p rü 109522
val ue</w> 109386
ü t 109371
j obs</w> 109367
an er</w> 109358
Co urt</w> 109351
him self</w> 109328
Fr en 109287
V ir 109260
S ha 109221
on a</w> 109193
N ur</w> 109162
ev ision</w> 109112
sel ves</w> 109102
y right</w> 109045
p ul 109010
f lu 108986
e y 108984
v ely</w> 108974
agen cy</w> 108925
ge kommen</w> 108867
nee ded</w> 108832
si cher</w> 108785
sat z 108689
Entschei dung</w> 108640
strat eg 108632
ber eit 108576
um b 108545
divi du 108533
it en</w> 108506
in dividu 108504
chil d</w> 108436
re cht</w> 108417
Fran ce</w> 108394
des halb</w> 108375
se cre 108318
w o 108316
iti g</w> 108303
gef ähr 108280
for d</w> 108244
ation s 108209
nee ds</w> 108156
R is 108134
Go vern 108121
ch amp 108113
im medi 108090
sp richt</w> 108055
ach er</w> 108016
bec ame</w> 107980
y si 107939
ab o 107908
ord in 107905
de mon 107850
. 000</w> 107778
enn t</w> 107749
st al 107739
ste ad</w> 107735
sp ending</w> 107690
P an 107613
mo ved</w> 107573
vic tory</w> 107445
B rü 107443
ment al</w> 107397
ph one</w> 107394
spiel er</w> 107329
D ann</w> 107274
hand elt</w> 107177
tr au 107172
en zen</w> 107074
v an</w> 107025
zu vor</w> 106991
star k</w> 106956
par ents</w> 106929
k rä 106872
pro gr 106804
erklär t</w> 106795
c ing</w> 106748
ut t 106729
con fi 106701
run ning</w> 106641
Qu ar 106619
incre ased</w> 106617
z um 106616
Con gress</w> 106612
viel en</w> 106589
V i 106575
S V</w> 106563
0 ,000</w> 106555
hin ter</w> 106503
ass er</w> 106494
We b</w> 106464
Chin ese</w> 106461
sto p</w> 106432
big gest</w> 106305
K rise</w> 106287
h ie 106278
diti ons</w> 106274
stat t</w> 106262
me t</w> 106083
are as</w> 106070
hop e</w> 106069
f ei 106053
evi dence</w> 105988
pati ents</w> 105943
n ings</w> 105940
200 3</w> 105915
Is lam 105912
ra ther</w> 105910
UP I</w> 105897
Janu ary</w> 105894
en e 105893
ä m 105850
mor ning</w> 105822
st age</w> 105814
e qui 105809
att acks</w> 105794
st ory</w> 105734
G rü 105708
l ö 105703
c ru 105691
st ein</w> 105653
us es</w> 105557
st ing</w> 105550
zu letzt</w> 105527
Sch wei 105522
produc tion</w> 105480
asse ts</w> 105466
M al 105450
oll ars</w> 105430
an i</w> 105423
s n 105415
oper ation</w> 105388
kommen den</w> 105387
ro te</w> 105348
gh ter</w> 105343
inter est 105294
Mär z</w> 105292
pr o</w> 105244
b it</w> 105189
invol ved</w> 105154
wee k 105152
m al 105128
ges agt</w> 105052
minist eri 105029
ch air 104977
schaf ts 104962
B al 104938
emplo ye 104920
nu clear</w> 104833
setz t</w> 104827
lan g 104781
Oc tober</w> 104729
mil es</w> 104697
we g</w> 104671
D eb 104639
pe l</w> 104573
es p 104514
C N 104489
bes onders</w> 104485
c lub</w> 104470
F ac 104278
Russi a</w> 104257
w r 104243
eben falls</w> 104136
exp lo 104061
Cop yright</w> 104032
siden ten</w> 104026
si s</w> 103956
fin det</w> 103950
Joh n 103923
ch ec 103897
J ames</w> 103886
hr e</w> 103865
m ein 103798
r al</w> 103787
Bes u 103757
H af 103741
Zu kunft</w> 103587
sch wer</w> 103560
S ti 103516
erwar tet</w> 103480
cer tain 103479
b it 103412
ab ge 103407
d lich</w> 103301
c lim 103209
st ers</w> 103181
Au s</w> 103134
f as 103100
p ra 103016
er hö 103011
Pre m 102982
gehör t</w> 102971
N ord 102933
teil t</w> 102933
musi c</w> 102796
des ig 102755
Z u</w> 102695
re icht</w> 102640
mak es</w> 102629
for t</w> 102556
Mitarbeit er</w> 102547
ic o</w> 102534
mark t</w> 102464
h au 102450
Gesch ichte</w> 102439
thous ands</w> 102423
Ju gend 102404
ro l 102386
J etzt</w> 102378
cas es</w> 102336
Gesch ä 102329
poten tial</w> 102184
Minister prä 102183
ander em</w> 102182
eh er</w> 102172
tal ks</w> 102153
rel ated</w> 102136
an - 102086
ff t</w> 102062
g in 102048
c e 102045
cover ed</w> 101971
dam als</w> 101878
chang es</w> 101871
No w</w> 101803
go al</w> 101780
Ar t</w> 101778
Staats an 101778
bu d 101770
foo t 101748
F eu 101742
je der</w> 101725
s il 101667
Z entr 101663
invest ors</w> 101645
Famili e</w> 101627
par ti 101623
si mil 101604
bis lang</w> 101601
ann ten</w> 101596
p ing</w> 101570
rit t</w> 101567
f ass 101560
diffic ult</w> 101489
fi z 101487
oper ating</w> 101460
T agen</w> 101459
m et 101444
man u 101313
n omin 101284
3 2</w> 101257
gu te</w> 101254
An aly 101235
M ei 101230
ge worden</w> 101165
T ali 101129
R uss 101081
it z</w> 101050
ev ent</w> 100996
E L 100991
lie ß</w> 100960
ho wever</w> 100958
FD P</w> 100935
ä ß 100932
ur en</w> 100854
s eines</w> 100822
schließ lich</w> 100770
ck ed</w> 100736
nei gh 100700
hum an</w> 100695
dem and</w> 100626
mort g 100596
pl om 100533
Par lam 100466
t able</w> 100412
e k 100323
R el 100289
gan gen</w> 100258
T i 100253
u li 100174
b ill</w> 100155
am p</w> 100144
u ter</w> 100106
sc re 99973
ak tu 99947
v a</w> 99927
st ung</w> 99922
Sy st 99903
Sta aten</w> 99887
sol di 99885
pre sidential</w> 99880
Coun ty</w> 99878
four th</w> 99865
ne l</w> 99794
ch ance</w> 99763
3 00</w> 99747
z usammen 99713
2 8 99672
as ser 99646
ges ehen</w> 99636
PR News 99620
A cc 99619
sum mer</w> 99593
mei sten</w> 99583
fun den</w> 99563
as k</w> 99559
Ber n 99525
mo der 99479
L au 99461
be d 99443
e k</w> 99434
ei ther</w> 99407
j ün 99389
sp ace</w> 99365
Fren ch</w> 99354
to gra 99318
ü ch 99228
d ollars</w> 99208
Z iel</w> 99164
5 - 99154
lat est</w> 99135
Druck version</w> 99127
n on- 99124
me et</w> 99073
Indi a</w> 99060
en th 99055
ester day</w> 99054
O h 98894
S port 98878
ri min 98873
b un 98870
Re uters</w> 98858
or ig 98846
oc c 98800
be stä 98779
li c</w> 98746
vide o</w> 98677
z us 98618
Pro je 98550
ür z 98548
br ing</w> 98547
gegen über</w> 98546
S par 98506
z y</w> 98464
200 0</w> 98451
h old</w> 98440
sel l</w> 98416
ma in</w> 98375
ch ef</w> 98373
Sen ate</w> 98353
gen au</w> 98278
sp ort 98240
re du 98199
Jah res</w> 98164
ges p 98100
ff e</w> 98086
U l 98010
d ungen</w> 97955
bl ack</w> 97943
se a</w> 97941
s ätz 97871
su ch 97855
tri al</w> 97851
ie t</w> 97840
So zial 97825
wis sen</w> 97754
S im 97752
2 4 97750
Ma i</w> 97744
L an 97743
F i 97729
rü ck 97712
j u 97636
H aus</w> 97609
eff orts</w> 97550
20 12</w> 97537
show ed</w> 97527
es sen 97518
Seit e</w> 97487
Mann schaft</w> 97472
A h 97443
K rie 97358
sch ätz 97312
sp ent</w> 97300
as se</w> 97261
rou ght</w> 97224
te gr 97211
Sch n 97129
St unden</w> 97117
3 3</w> 97059
n ers</w> 97011
th o 96992
ander s</w> 96977
Them a</w> 96961
b att 96955
me dical</w> 96928
r ing</w> 96860
F T 96834
än de</w> 96784
e .de</w> 96737
Beh ör 96733
Erfol g</w> 96713
agre ement</w> 96669
se tt 96628
new sp 96611
dest ens</w> 96562
care er</w> 96559
Janu ar</w> 96455
ke ep 96423
su per 96417
Kran ken 96413
O per 96409
t .</w> 96360
so li 96344
fr ag 96342
re f 96290
gele gt</w> 96187
N et 96157
Kin der 96141
s al 96083
m ur 96048
tra de</w> 96038
any thing</w> 95966
Tex as</w> 95942
no thing</w> 95886
D er 95883
me ans</w> 95874
h under 95873
high - 95846
200 1</w> 95798
sh ort 95782
schl uss</w> 95776
ar beit</w> 95765
E ast</w> 95696
B lo 95692
s ituation</w> 95688
h il 95660
k ul 95638
sour ces</w> 95613
Par is</w> 95594
l - 95566
Ira q 95564
por ts</w> 95472
lich es</w> 95471
oo ds</w> 95436
grow ing</w> 95420
go ti 95367
z er 95344
wor ked</w> 95299
hosp ital</w> 95262
ins gesamt</w> 95207
dru g</w> 95190
l ist</w> 95090
k r 95069
tel evision</w> 95055
t ungs 95041
z iel 95036
F rei 94891
ir c 94866
wer k</w> 94843
cel eb 94822
St .</w> 94803
ro se</w> 94788
kur z</w> 94730
tain ed</w> 94718
V o 94703
F eh 94674
K a 94645
D at 94634
hie ß</w> 94615
Spre cher</w> 94602
St r 94592
Amer ik 94591
Z ahl</w> 94565
pro sec 94535
m illi 94471
pres sure</w> 94450
de u 94361
si eben</w> 94357
bab ly</w> 94292
Män ner</w> 94278
eff ec 94243
W ett 94241
he av 94238
play ing</w> 94229
Christ ian</w> 94219
S il 94206
show s</w> 94201
y m 94198
z entr 94107
bu y</w> 94106
fri end</w> 94101
B BC</w> 94096
ome ter</w> 94093
tw o- 94073
al ität</w> 94034
quest ion</w> 93952
A p 93937
ac qu 93937
g yp 93897
we b 93891
C up</w> 93870
hom es</w> 93853
Spiel er</w> 93819
M id 93811
ill ing</w> 93772
spre chen</w> 93763
de fin 93744
ger ech 93710
Vor sitz 93706
ein ander</w> 93696
äch lich</w> 93696
H oll 93695
Sü d 93695
si e 93628
on e- 93544
acc ess</w> 93543
des pite</w> 93459
k el</w> 93449
Su per 93414
ec i 93380
F rü 93373
to - 93360
B as 93321
continu ed</w> 93290
Me ter</w> 93283
E ar 93266
j e</w> 93263
SP D- 93254
In de 93244
tr ac 93239
Associ ation</w> 93228
äu ß 93208
ab sol 93195
li ves</w> 93145
c ast</w> 93083
K e 93075
schein t</w> 93055
C E 93027
ch ers</w> 93025
a p</w> 92956
y s 92937
In nen 92935
cer tain</w> 92914
signific ant</w> 92901
fri ends</w> 92879
i - 92827
Unter neh 92824
M ur 92786
l a</w> 92781
Mar k</w> 92754
str on 92742
st ec 92728
S or 92678
si on 92678
Dur ch 92654
di um</w> 92597
pen dent</w> 92552
lin ed</w> 92549
st et</w> 92548
Geor gi 92532
ag ent 92487
R au 92478
Sch war 92461
wirk lich</w> 92452
gesch lossen</w> 92370
stru g 92364
lo ve</w> 92302
er ne 92246
Gr und</w> 92178
Al ler 92176
se t 92154
inclu ded</w> 92152
long - 92127
r ac 92088
comm on</w> 92075
ftw are</w> 92054
re qu 91965
zu dem</w> 91956
g rei 91942
amp le</w> 91933
wie der 91914
i x</w> 91902
hal t</w> 91900
con ditions</w> 91884
Er mitt 91882
E m 91874
prof it</w> 91872
p e</w> 91869
offen bar</w> 91865
Ch ic 91836
investig ation</w> 91809
ge h 91801
av ing</w> 91779
au tom 91762
dar über</w> 91720
Z um</w> 91675
p lo 91652
T err 91643
rema in</w> 91631
con st 91599
sh oo 91568
fe at 91554
tr on 91550
H off 91538
Sel bst 91527
bre ak</w> 91516
Punk te</w> 91501
rie f</w> 91494
ser ious</w> 91486
to s</w> 91483
Democ rats</w> 91462
pro j 91442
mat ch</w> 91415
ser ve</w> 91313
lei ch 91300
1 00 91292
re ich</w> 91268
al low</w> 91249
B - 91248
person al</w> 91241
W ach 91192
2 6 91162
an im 91161
mehr ere</w> 91131
M y</w> 91129
S ar 91109
g ol 91095
d s 91081
ne g 91070
B ran 91062
wir tschaf 91053
G rie 91049
pro bably</w> 91049
n ine</w> 91010
c ause</w> 90991
Fin ancial</w> 90943
so ft</w> 90929
wor th</w> 90904
reco gn 90898
2 .</w> 90850
w le 90848
Tali ban</w> 90841
U m</w> 90817
sing le</w> 90817
l en 90788
Mö g 90775
eigent lich</w> 90745
lea ve</w> 90728
Bil d</w> 90717
di schen</w> 90679
Di es</w> 90663
d in 90636
7 5</w> 90631
co - 90568
imp act</w> 90555
Ein satz</w> 90537
M - 90483
so on</w> 90381
de bt</w> 90372
doc ument</w> 90271
P a 90245
M icro 90244
S ou 90215
incre as 90195
V - 90185
3 6</w> 90146
hel ped</w> 90127
z el 90120
ad vis 90106
I l 90075
au ft</w> 90071
re present 90052
f und</w> 90023
schri ft</w> 89955
ab or 89934
in - 89904
vol l</w> 89903
z ös 89894
inter view</w> 89892
J ul 89888
V ier 89888
st ation</w> 89879
2 9 89847
spec ial</w> 89820
ex ist 89803
f ic 89745
simil ar</w> 89735
B ru 89705
ach ie 89691
g ten</w> 89653
ck et</w> 89619
ti ger</w> 89612
iti ve</w> 89607
them selves</w> 89573
Län der</w> 89572
stru ction</w> 89559
tra ining</w> 89474
w il 89446
r as 89376
sco red</w> 89351
Goo gle</w> 89320
pro ject</w> 89319
w ants</w> 89305
Fil m</w> 89293
Ä n 89282
ich ten</w> 89230
famili es</w> 89200
cou ple</w> 89190
succ ess 89180
e z</w> 89176
ran ts</w> 89168
con duc 89166
J ones</w> 89142
haup t</w> 89113
f elt</w> 89097
d ated</w> 89095
wi esen</w> 89070
insur ance</w> 89029
agre ed</w> 88991
Mark t</w> 88965
po wer 88920
e th 88852
kün dig 88846
previ ous</w> 88840
T ab 88775
pa ar</w> 88756
b ach</w> 88723
L age</w> 88712
al though</w> 88671
t te</w> 88665
ar g 88655
Jun i</w> 88621
y esterday</w> 88595
re ti 88580
sign ed</w> 88573
K öl 88570
ar en</w> 88519
viol ence</w> 88357
ver z 88292
Zu dem</w> 88246
sh ort</w> 88203
Sch au 88188
t ur</w> 88125
com mer 88115
ne ben</w> 88110
alle in</w> 88099
char ge</w> 88028
entw ick 88003
Wo chen 88000
stell te</w> 87962
n immt</w> 87957
ab ly</w> 87948
ä um 87934
Re ch 87928
ne goti 87903
qu ali 87881
m and</w> 87869
er halten</w> 87845
Isra el 87831
tig te</w> 87828
ma ß 87812
C E</w> 87742
Man ager</w> 87709
ti eren</w> 87706
3 4</w> 87704
ens es</w> 87686
M ay 87683
ide a</w> 87680
in zwischen</w> 87662
allow ed</w> 87637
w rote</w> 87634
b loo 87536
h tm 87519
com b 87440
mög lich 87439
fü l 87430
ei ch</w> 87393
Br and 87324
tal k</w> 87302
Pol itiker</w> 87296
arre sted</w> 87289
is ches</w> 87274
zäh lt</w> 87268
con sum 87250
en ge</w> 87227
in king</w> 87196
T ür 87183
orig in 87183
T ar 87180
W at 87121
rupp en</w> 86997
b au 86982
U N 86948
ex ten 86913
chair man</w> 86884
qu ality</w> 86862
di se 86850
b rought</w> 86846
hei m</w> 86839
Zu sch 86802
G ruppe</w> 86776
sh ire</w> 86760
Flor ida</w> 86750
se um</w> 86726
w inning</w> 86725
for ced</w> 86709
L etz 86702
Sa ison</w> 86677
ad ver 86645
in tel 86637
f el</w> 86635
B is</w> 86631
he art</w> 86624
f ight</w> 86604
pur ch 86581
f ern</w> 86560
R olle</w> 86527
rema ins</w> 86503
af ter 86492
L ou 86470
re gi 86429
200 2</w> 86390
str eng 86390
htm l</w> 86384
B S</w> 86367
Kon kur 86367
größ ten</w> 86356
sig n</w> 86341
us h</w> 86283
play er</w> 86277
Wis sen 86236
as soci 86214
sol d</w> 86138
A tt 86120
or i 86090
c y 86050
dar an</w> 86030
arbeit et</w> 86019
claim s</w> 85994
spe e 85974
b ung</w> 85960
B lick</w> 85946
prof essi 85936
fo rec 85923
mak ers</w> 85918
in si 85896
Kore a</w> 85860
sch en 85829
Pe ople</w> 85808
He alth</w> 85808
au di 85801
manu fac 85800
sta at 85799
I de 85798
s an 85787
fa iled</w> 85757
S on 85742
scho ols</w> 85718
c ement</w> 85694
sa fet 85694
so cial</w> 85678
he alth 85655
r en</w> 85627
Sie g</w> 85609
zei gen</w> 85590
ent al</w> 85578
sur vi 85551
ven tion</w> 85548
bor n</w> 85538
tre i 85532
acc used</w> 85486
canc er</w> 85458
anzler in</w> 85445
ig keit</w> 85441
offic er</w> 85429
leg is 85420
app lic 85394
m y 85355
ä ter</w> 85354
5 5</w> 85330
st opp 85315
Europ ä 85273
ti ce</w> 85246
d omin 85245
re ta 85212
letz te</w> 85183
En gl 85158
10 . 85157
em er 85126
le - 85118
M ore</w> 85097
w est</w> 85076
Coun cil</w> 85035
Aller dings</w> 85023
gi ving</w> 85005
nat ürlich</w> 84989
heit en</w> 84988
Tag es 84986
De z 84967
tro ffen</w> 84921
g ner</w> 84905
mis s 84904
rec or 84896
Dru ck</w> 84893
some one</w> 84891
treat ment</w> 84887
führ ung</w> 84882
tri ed</w> 84872
safet y</w> 84859
ei lig 84843
reg ist 84776
stan den</w> 84762
Mut ter</w> 84755
L eute</w> 84753
Jul i</w> 84746
ev ents</w> 84742
Ges und 84726
größ te</w> 84718
f s</w> 84695
net work</w> 84658
re fle 84644
Par k</w> 84641
Au to</w> 84594
vie ws</w> 84585
y al</w> 84553
offic ers</w> 84550
Kr itik</w> 84437
gen heit</w> 84414
eci ally</w> 84402
tro tz</w> 84397
4 8</w> 84363
ho ch</w> 84333
v ier 84323
call s</w> 84297
schaf t 84264
Febru ar</w> 84252
esp ecially</w> 84235
or ney</w> 84210
R ec 84190
fa il 84168
shi ps</w> 84158
El tern</w> 84151
sib ility</w> 84050
qu ick 84028
we hr</w> 83883
fun ds</w> 83846
W all</w> 83829
Ö ster 83817
ad es</w> 83796
r o</w> 83792
Febru ary</w> 83705
a vo 83703
N icht</w> 83702
li ving</w> 83699
A - 83695
f rist 83681
men s</w> 83649
us er</w> 83646
min destens</w> 83635
ing - 83630
nec ess 83581
com ment</w> 83561
erne ut</w> 83549
h ein 83545
D ist 83540
Per son 83525
level s</w> 83473
t end</w> 83470
B on 83430
Hei m 83411
T ON</w> 83400
li cht</w> 83395
c op 83318
b us</w> 83314
hol ders</w> 83274
Chic ago</w> 83237
CN N</w> 83227
ver letzt</w> 83201
gen den</w> 83193
weit eren</w> 83157
O ther</w> 83153
b ing</w> 83152
W ahl</w> 83118
ann ual</w> 83084
ge be</w> 83073
K unden</w> 83043
f ans</w> 83040
ats ächlich</w> 83031
m ay 83017
s ön 83013
L ö 82990
7 - 82988
agent ur</w> 82968
ro r</w> 82948
con fir 82939
E R 82925
sid ents</w> 82916
ph ysi 82896
E is 82885
produc t</w> 82872
an stal 82830
sid ent 82821
ab ri 82792
st ay</w> 82765
an ces</w> 82748
ter ms</w> 82734
krit is 82713
K n 82693
week end</w> 82688
en h 82665
O f</w> 82655
cro w 82647
ab hän 82589
mat ter</w> 82584
wh ite</w> 82580
h und 82572
m as 82554
4 4</w> 82547
sp ro 82543
vo ters</w> 82520
pris on</w> 82498
M el 82493
Govern ment</w> 82490
Jack son</w> 82486
se x</w> 82479
Po st</w> 82460
K ön 82454
Proble m</w> 82440
pro pos 82435
n - 82426
at ory</w> 82396
sch war 82393
sp ir 82358
M ob 82351
it ali 82340
Ver hand 82265
Ergeb nis</w> 82143
lon ger</w> 82127
rel ation 82119
K u 82104
Proble me</w> 82094
Afri ca</w> 82071
eff ort</w> 82059
Konz ern</w> 82048
V ide 82022
Ex - 82021
au lt</w> 82018
y ment</w> 82014
Pre is</w> 82000
disa p 81997
char ged</w> 81995
e i</w> 81993
St utt 81993
syst ems</w> 81950
ent lich</w> 81935
W ährend</w> 81933
p it 81921
gel n</w> 81912
pres ent</w> 81903
Ä r 81827
est ab 81821
al ed</w> 81817
3 7</w> 81778
k o</w> 81754
dür fte</w> 81735
ak ti 81724
B is 81716
inn er 81713
o p</w> 81686
Re k 81665
3 8</w> 81663
we g 81658
Par ty</w> 81653
proper ty</w> 81648
th - 81632
Hau sh 81623
be at</w> 81599
erfol gre 81595
R ob 81593
ul arly</w> 81573
l auf 81570
ell en 81564
co ach</w> 81562
re fer 81548
Woh n 81536
den ken</w> 81473
T al 81460
g ain 81432
Hal b 81418
N un</w> 81407
n atur 81361
D ro 81359
Dez ember</w> 81347
Ge win 81321
uns ere</w> 81284
re ly</w> 81283
T wo</w> 81281
ob ach 81249
No t</w> 81229
Rich ard</w> 81208
de ad</w> 81204
F ans</w> 81202
m ess 81196
iz ed</w> 81182
Bundes regierung</w> 81180
amoun t</w> 81147
sich tlich</w> 81146
et te</w> 81090
pp ing</w> 81061
un ded</w> 81043
gen u 81042
he ard</w> 81015
c ted</w> 81012
Sm ith</w> 80979
p .</w> 80949
do m</w> 80948
stimm ung</w> 80882
mul ti 80856
D F 80853
Grü nen</w> 80825
O ur</w> 80817
d om 80806
H inter 80787
Hil fe</w> 80769
se y</w> 80748
qu o 80681
bro ad 80681
Frank fur 80663
li gen 80643
d .</w> 80639
a id</w> 80592
berich tete</w> 80521
m äß 80507
be sten</w> 80489
vi a</w> 80488
B ahn 80446
tro ub 80445
H en 80435
can not</w> 80431
rä um 80420
Ger many</w> 80381
sc ri 80371
wer t</w> 80352
reven ue</w> 80352
ser ved</w> 80315
de ten</w> 80301
b li 80272
Mit te</w> 80199
k ung</w> 80190
pro mo 80167
fran zös 80106
n amed</w> 80102
berich tet</w> 80073
cent er</w> 80072
me l</w> 80043
ad ditional</w> 80004
se ems</w> 79961
a ther</w> 79955
t ell</w> 79906
1 1. 79869
st att 79857
in dest</w> 79819
j unk 79815
buil d</w> 79798
R - 79773
Dem on 79755
ste p</w> 79747
Ger icht</w> 79727
Tel e 79720
k al 79575
ho ch 79566
Res ear 79546
brau cht</w> 79527
i de</w> 79512
deci ded</w> 79509
t sch 79492
hu ge</w> 79487
s s 79450
el te</w> 79446
pop ular</w> 79444
or ing</w> 79424
se par 79420
exp ec 79420
zeich net</w> 79410
3 .</w> 79407
M y 79383
ter ed</w> 79377
m es</w> 79342
Entwickl ung</w> 79326
sen se</w> 79321
Sch al 79258
in ess</w> 79242
positi ve</w> 79212
K ab 79198
K olle 79197
ch ester</w> 79178
un t</w> 79164
un i 79145
ti e</w> 79124
it or</w> 79087
p assi 79067
contr act</w> 79062
k ar 79033
g - 79008
it al 79006
Pres se 78982
Z wei 78934
j ährigen</w> 78926
P - 78902
descri bed</w> 78858
w asn</w> 78846
op position</w> 78844
V iele</w> 78829
n a</w> 78814
John son</w> 78791
ges etz 78783
h our</w> 78780
In s 78759
Op fer</w> 78751
Inform ationen</w> 78721
quest ions</w> 78712
mach te</w> 78700
Sta at</w> 78691
wh ole</w> 78689
E ven</w> 78668
tei dig 78665
S O 78647
Tit el</w> 78604
Mon ate</w> 78579
succ ess</w> 78566
spra ch</w> 78565
4 2</w> 78498
z - 78481
Fo to</w> 78474
t ten</w> 78467
pr in 78442
Energ ie 78418
f y</w> 78404
pro chen</w> 78371
parti cip 78355
At lan 78341
quick ly</w> 78338
x - 78335
every thing</w> 78326
demon str 78312
C ro 78294
Sch i 78290
inclu des</w> 78290
dru ck</w> 78277
w ed</w> 78273
rie b</w> 78266
H ä 78256
ish ing</w> 78211
G ut 78210
N acht</w> 78203
in o</w> 78201
ation al</w> 78185
Terr or 78181
cl ass</w> 78162
busin esses</w> 78156
Iraq i</w> 78141
kl einen</w> 78101
pri me</w> 78064
äh n 78046
W eit 78029
cre ate</w> 77996
i an 77952
ack ed</w> 77951
p ass</w> 77915
C re 77880
Sta at 77879
tu res</w> 77875
Ph ili 77861
Ale x 77803
H um 77795
lo ans</w> 77776
ge ord 77753
no v 77738
og ra 77733
actu ally</w> 77726
partic ularly</w> 77725
employe es</w> 77632
li mit 77625
kün ftig</w> 77599
W eb 77586
d ul 77537
thre e- 77533
me an 77519
anc ing</w> 77369
UR L</w> 77367
ast ern</w> 77350
is mus</w> 77348
4 00</w> 77325
K or 77320
we hr 77319
kon nten</w> 77290
wech sel 77285
gi es</w> 77265
Pat ri 77262
N i 77250
tr a</w> 77250
Führ ung</w> 77233
las si 77200
ab en</w> 77168
in ge</w> 77154
k i</w> 77125
G az 77083
verl oren</w> 77072
anc ed</w> 77066
s burg</w> 77053
st off 77022
St ar</w> 77018
gerech net</w> 77013
f ung</w> 77003
ös ung</w> 77000
h us 76943
p ain 76941
E mp 76941
s ale</w> 76934
chall eng 76932
k tor</w> 76931
Mus li 76911
exp ect</w> 76908
Er st</w> 76816
An der 76815
S port</w> 76801
f is 76783
er weise</w> 76780
m ary</w> 76771
Po s 76749
c lu 76741
bes onder 76741
m ine</w> 76737
ak er</w> 76731
foc us</w> 76718
p sy 76709
pre dic 76697
cor por 76694
Au ßerdem</w> 76684
ver än 76649
To ur 76610
it ors</w> 76607
u tions</w> 76606
je den</w> 76591
her r 76569
R am 76567
3 9</w> 76560
ex ample</w> 76545
rec ession</w> 76541
wir e</w> 76515
curr ently</w> 76489
ed ul 76482
dau ghter</w> 76468
N amen</w> 76467
Pro te 76462
v ey</w> 76428
I I</w> 76419
o ben</w> 76413
dro ht</w> 76412
newsp aper</w> 76400
Mark t 76376
No ch</w> 76343
appe ared</w> 76343
r au 76342
bes ser 76331
le h 76306
f äh 76286
pres sed</w> 76265
rich tig</w> 76244
pe ace</w> 76235
et t</w> 76214
H ier</w> 76193
ver tre 76185
M any</w> 76167
Gel d 76143
Associ ated</w> 76140
any one</w> 76139
al ing</w> 76116
ger icht</w> 76067
Koal ition</w> 76012
po st</w> 75997
ar m 75993
G al 75980
Stra ße</w> 75951
c irc 75928
all s</w> 75924
e te</w> 75897
ver schie 75891
ant ly</w> 75872
C l 75853
H y 75827
ein s</w> 75816
polit ischen</w> 75809
j ah 75800
B S 75797
Ge w 75781
m eine</w> 75776
re ds</w> 75748
z ens</w> 75741
An t 75740
e e 75725
soldi ers</w> 75723
vi elleicht</w> 75714
p ie 75713
ver antwor 75629
kre ich</w> 75613
ol l</w> 75599
d ler</w> 75510
z es</w> 75509
Exper ten</w> 75491
De f 75490
ter - 75489
ver li 75471
v ent</w> 75429
Sch ä 75412
ati st 75400
b ase</w> 75383
em o 75310
r uss 75309
ast er</w> 75299
educ ation</w> 75299
Sch ool</w> 75294
sol che</w> 75292
ac ts</w> 75272
ar ch 75240
Bun de 75230
acc ep 75224
jud ge</w> 75220
ze itig</w> 75206
in tro 75159
Le hr 75122
ent er 75054
ges ichts</w> 75043
Ch ance</w> 75039
w and 75036
F ach 75033
Euro - 75011
ne ten</w> 74981
dor f</w> 74973
b ruch</w> 74971
char ac 74968
Pal est 74964
cent ral</w> 74907
r uns</w> 74897
ter t</w> 74884
mom ent</w> 74872
rul es</w> 74858
re ach</w> 74855
ver ur 74829
B ill</w> 74824
Sch on</w> 74823
lan gen</w> 74818
Sch ü 74813
th ro 74786
li e</w> 74779
commun ic 74774
we ap 74736
4 7</w> 74728
war d- 74672
Organ is 74662
z z 74661
Russ land</w> 74659
poin ted</w> 74658
ear nings</w> 74635
R adi 74624
ar d 74621
op ening</w> 74592
6 5</w> 74590
. com 74574
Russi an</w> 74574
8 - 74566
p .m.</w> 74476
ra ised</w> 74431
D ort</w> 74370
Er schein 74368
fu el</w> 74359
Car ol 74344
add ition</w> 74314
sit es</w> 74278
Län dern</w> 74261
bal d</w> 74260
in side</w> 74253
H aus 74238
f rie 74222
sch edul 74208
ge ber</w> 74202
5 0 74193
Hö he</w> 74181
n ut 74179
los ses</w> 74179
rit te</w> 74159
ali gen</w> 74096
b ür 74093
ein igen</w> 74078
A F 74059
l te</w> 74041
über haupt</w> 74019
S at 73994
dr am 73980
Kre dit 73950
er stellt</w> 73946
k rie 73935
teil ung</w> 73927
k ampf</w> 73919
Com mit 73906
Kom mun 73872
der ungen</w> 73808
N . 73790
d acht</w> 73786
r än 73754
m ung</w> 73743
ti ves</w> 73737
ati ven</w> 73729
co ver</w> 73688
Fran kreich</w> 73687
T a 73631
v ille</w> 73626
po ol</w> 73611
V ater</w> 73604
Priv at 73579
we isen</w> 73565
G M</w> 73558
pl es</w> 73548
bud get</w> 73524
serv ative</w> 73518
tak es</w> 73499
Indu stri 73495
re as 73494
Kil ometer</w> 73467
w olle</w> 73445
G ri 73429
Grie chen 73426
Dok ument</w> 73420
ret ary</w> 73375
Vol ks 73374
erst mals</w> 73359
v in 73345
setz ung</w> 73344
Land es</w> 73343
ach ing</w> 73303
C O 73273
Ham burger</w> 73261
Frankfur ter</w> 73252
po se</w> 73239
Micro soft</w> 73232
tra vel</w> 73220
opportun ity</w> 73210
Mil it 73200
respon se</w> 73197
eigen e</w> 73196
Regier ungs 73172
m ern</w> 73169
P as 73152
Sec retary</w> 73103
M et 73090
doc um 73071
Z w 73069
inde x</w> 73052
concern s</w> 73047
materi al</w> 73047
är en</w> 73019
su it</w> 73006
en ced</w> 73004
P M</w> 72999
su cht</w> 72999
v ement</w> 72983
G ä 72980
off iz 72956
tra ding</w> 72953
inf o</w> 72950
ver stän 72927
ver hin 72909
Ber uf 72909
progr ams</w> 72908
gri ff</w> 72906
Ein zel 72903
neh mer</w> 72903
a der</w> 72854
ü b 72848
A I 72835
every one</w> 72832
ri es</w> 72808
ich t 72789
at te</w> 72747
s om 72715
ill ed</w> 72621
fre i</w> 72612
fr agen</w> 72597
th an 72587
le bt</w> 72579
li gen</w> 72520
b illi 72516
zie h 72484
B ag 72482
C .</w> 72449
happ ened</w> 72442
bo ten</w> 72424
en cour 72406
tic s</w> 72374
con trib 72367
so zi 72363
T at 72354
polit ische</w> 72340
immedi ately</w> 72331
hö ch 72321
mit ted</w> 72317
L ig 72301
Gol d 72292
Sol daten</w> 72285
D or 72282
t op 72277
ge funden</w> 72269
m ist 72260
inst itu 72258
S E 72246
ha ps</w> 72233
ministeri um</w> 72222
Aut o 72218
te ams</w> 72207
oh n</w> 72203
s le 72201
re ve 72174
Mex ico</w> 72146
H and</w> 72127
unter stütz 72125
em ed</w> 72099
f an</w> 72080
ark o 72059
di ge</w> 72055
pre t 72054
pol itik</w> 72046
be tri 72029
reich e</w> 72028
ill er</w> 72025
Ko sten</w> 71973
E s 71957
St ar 71957
Ber icht</w> 71894
4 1</w> 71890
stän dig</w> 71890
ch - 71877
sol ution</w> 71868
k es</w> 71844
le in</w> 71843
I T 71838
M om 71832
figh ting</w> 71822
hei m 71806
Willi ams</w> 71804
al ty</w> 71797
consum ers</w> 71796
0. 000</w> 71778
Sicher heits 71756
k enn 71728
Cor por 71721
st ag 71717
or ies</w> 71699
dri ve</w> 71687
I hr</w> 71541
ff er</w> 71536
z one</w> 71525
kti onen</w> 71513
St at 71487
Fran c 71480
so gen 71464
st ance</w> 71449
I S 71423
sch ütz 71406
sa ch 71404
IN G 71397
R en 71390
dür fen</w> 71384
To chter</w> 71327
par ts</w> 71321
am b 71307
fig ures</w> 71302
re ason</w> 71301
Konkur ren 71274
vi c</w> 71261
4 9</w> 71229
ow ned</w> 71191
gu n</w> 71183
re form</w> 71157
v e- 71135
consi der 71127
M ach 71122
ent ed</w> 71110
K ampf</w> 71098
B ul 71035
bor der</w> 71017
te m</w> 70995
f ru 70982
S eine</w> 70968
er inn 70964
qu ite</w> 70954
Palest in 70950
fr on 70937
I hre</w> 70925
mag az 70924
deta ils</w> 70923
off ered</w> 70919
häl t 70919
R ett 70914
im e</w> 70900
N et</w> 70898
No .</w> 70887
inf lu 70876
ir gend 70874
at er 70859
Fußball - 70848
k amen</w> 70801
völ k 70790
c ans</w> 70762
fl ation</w> 70710
Fran k</w> 70708
hus band</w> 70701
gen e</w> 70691
t au 70685
dat um</w> 70683
Som mer</w> 70662
ad ed</w> 70629
4 3</w> 70597
hous ing</w> 70584
ma il</w> 70582
gen de</w> 70575
Sco t 70556
ha f 70553
em e</w> 70549
g one</w> 70519
com plain 70517
stu di 70436
on te</w> 70429
eff ect</w> 70423
To d</w> 70403
m ar</w> 70401
üs sel 70375
in k 70373
aus zu 70372
ges am 70361
gram me</w> 70319
di ger</w> 70303
Commit tee</w> 70219
Beg inn</w> 70193
B ahn</w> 70133
un ion</w> 70103
manufac tur 70103
sich ts 70085
is es</w> 70070
Unter stütz 70041
is s 70011
K ör 70003
er y</w> 70001
A ir</w> 69974
9 9</w> 69956
T op 69950
ge führt</w> 69932
nach dem</w> 69888
.com .</w> 69881
Fir st</w> 69855
follow ed</w> 69838
schw ier 69831
pl us</w> 69800
ac tions</w> 69796
s we 69790
d ollar</w> 69790
4 6</w> 69769
her en</w> 69742
loo ked</w> 69741
M s.</w> 69730
l ad 69716
sch uss</w> 69613
it self</w> 69611
bre ak 69605
ger t</w> 69585
mess age</w> 69561
Ges am 69550
n on 69511
plat z</w> 69510
legis l 69484
Jo se 69479
anti - 69477
sear ch</w> 69471
spiel t</w> 69450
B lu 69435
di plom 69414
abo ve</w> 69406
om s</w> 69392
S ing 69358
mo d 69320
chang ed</w> 69294
b ran 69291
me ter</w> 69283
r asch 69281
belie ved</w> 69259
Australi a</w> 69245
A .</w> 69243
Com mission</w> 69242
Bun dest 69240
mit tag</w> 69220
d ad</w> 69219
Ch anc 69185
Ministerprä sident</w> 69169
li ance</w> 69161
Bei m</w> 69157
bei de</w> 69154
sec tor</w> 69133
b at 69121
commit tee</w> 69097
Erschein ungs 69095
S ein</w> 69088
Ser vice</w> 69064
num bers</w> 69063
sour ce</w> 69063
li z 69030
lei cht</w> 69009
fr agt</w> 68998
Kon trol 68978
Gener al 68964
adver t 68905
Pri me</w> 68873
clos ed</w> 68869
op ened</w> 68868
Wett bewer 68859
Fe deral</w> 68850
tz dem</w> 68845
Q a 68844
Min ute</w> 68843
P lan 68817
wal tschaft</w> 68783
B ir 68773
Fri ed 68742
tic al</w> 68739
bo y</w> 68730
an ge</w> 68670
F äl 68665
re ag 68663
W asser</w> 68651
Instit ute</w> 68645
wor l 68634
te ile</w> 68620
p u 68582
b lu 68582
tre ffen</w> 68549
buil t</w> 68542
S arko 68487
un ivers 68486
provi ded</w> 68455
d u</w> 68412
P f 68382
mis sed</w> 68362
M ein 68337
do or</w> 68307
ne u</w> 68302
y a</w> 68275
mo ving</w> 68255
Fac eb 68240
elec tri 68226
schie den</w> 68217
Li ber 68198
P ati 68182
B ab 68182
Mr d.</w> 68167
H on 68164
To tal</w> 68161
re ached</w> 68149
en jo 68135
ris ks</w> 68110
con vic 68102
issu ed</w> 68097
i ans</w> 68087
ch s 68080
Resear ch</w> 68072
Stad t 68052
Fr agen</w> 68049
M ül 68020
w es 67993
r an</w> 67981
st ens</w> 67948
gr ü 67928
R ed</w> 67921
b n</w> 67912
candid ate</w> 67909
p il 67865
ü ge</w> 67860
läu ft</w> 67858
dru gs</w> 67855
ges prochen</w> 67849
5 2</w> 67836
Kan did 67819
Holl y 67814
BI L 67779
consi dered</w> 67775
Com mun 67716
I T</w> 67696
consu mer</w> 67693
plac ed</w> 67685
diti on 67678
j em 67677
el ing</w> 67675
pf lich 67638
Angel a</w> 67584
wir tschaft</w> 67564
kl eine</w> 67561
tit le</w> 67561
z te</w> 67491
4 0 67454
to ur 67436
gesch ä 67434
län der</w> 67425
meas ures</w> 67420
ow s</w> 67399
plann ed</w> 67397
pub lished</w> 67394
ev ent 67383
tri bu 67370
gro ß</w> 67341
st ran 67330
is n</w> 67311
di sche</w> 67310
air s</w> 67258
ris ing</w> 67255
r aum</w> 67252
us sion</w> 67251
Un ter</w> 67251
schn it 67235
el - 67233
stra ight</w> 67207
A ri 67194
benef its</w> 67185
zun eh 67179
um p</w> 67173
t ary</w> 67170
wich tig 67123
li ber 67118
Off ice</w> 67118
stei gen</w> 67083
N ic 67071
w ahl</w> 67070
zweit e</w> 67056
re turned</w> 67036
c ars</w> 67032
trä ge</w> 67007
tri p</w> 66989
europä ischen</w> 66986
ri c</w> 66951
min ute</w> 66942
mortg age</w> 66934
dise ase</w> 66913
ra y</w> 66877
ko sten</w> 66876
mob ile</w> 66876
jun ge</w> 66862
Än derung</w> 66860
zus ätz 66858
part ner</w> 66855
hol t</w> 66848
Ge werk 66846
exp enses</w> 66835
tak t</w> 66827
ge k 66825
O b</w> 66823
inn t</w> 66818
pas sen 66800
Erscheinungs datum</w> 66773
Pr in 66769
vor sitz 66749
ligen ce</w> 66739
si li 66724
R a 66723
caus ed</w> 66680
Ho w</w> 66662
zum indest</w> 66662
h ib 66660
Ü ber</w> 66634
Fern seh 66621
s h</w> 66612
ent sprech 66592
ung er</w> 66589
Zahl en</w> 66578
H ill 66576
Kon junk 66571
lau b 66551
r ati 66547
jün g 66546
def ense</w> 66529
claim ed</w> 66528
W ieder 66511
Wach st 66509
re pe 66461
redu ce</w> 66458
Ph il 66448
al ige</w> 66439
gan ze</w> 66404
wr ong</w> 66356
ik o</w> 66350
For m</w> 66349
ec tion</w> 66323
P ark 66298
po or</w> 66259
An gst</w> 66253
S ci 66243
n a 66213
ein zu 66186
de fe 66182
W ar</w> 66173
K ra 66157
ver öffent 66146
amerik anischen</w> 66144
ar m</w> 66106
Ges ellschaft</w> 66099
Mo st</w> 66064
k in 66060
happ y</w> 66057
Secur ity</w> 66046
An ti 66028
Regier ung 66019
kün digt</w> 66015
d nis</w> 66013
l ab 66000
an e</w> 65998
müs sten</w> 65977
Dem ok 65948
Ver tre 65938
ra ise</w> 65936
appro ach</w> 65912
h ielt</w> 65910
in stead</w> 65910
Unter such 65905
Ma ß 65886
ih res</w> 65853
we ile</w> 65840
j ing</w> 65832
am i</w> 65821
re sidents</w> 65815
fe et</w> 65799
tw eit</w> 65798
sci enti 65797
sh ar 65790
st ro 65786
ch er 65776
I h 65774
l aufen</w> 65756
and - 65733
maj ority</w> 65721
add ress</w> 65717
Ver gleich</w> 65703
Sep t</w> 65691
S um 65663
iel d</w> 65654
W EL 65620
strateg y</w> 65600
re gel 65530
S ituation</w> 65528
st elle</w> 65523
me an</w> 65521
Di rec 65520
A D 65469
h of</w> 65449
an ese</w> 65447
y ond</w> 65443
re view</w> 65442
wor ds</w> 65441
fa ir</w> 65427
ge plan 65409
schedul ed</w> 65405
min al</w> 65391
ach es</w> 65377
gh out</w> 65373
thre at 65360
desig ned</w> 65355
Al so</w> 65347
B ü 65340
tow ard</w> 65338
sp i 65326
k new</w> 65300
P il 65268
sch ung</w> 65233
Frü h 65231
ch in 65213
con dition</w> 65206
in ation</w> 65204
g in</w> 65167
tr ack</w> 65153
Res er 65150
AS H 65126
h inter 65094
Li by 65064
Ab end</w> 65052
St an 65040
c ents</w> 65038
per sön 65020
P op 65019
Ver antwor 65018
fer enz</w> 65018
ne un</w> 65001
c lin 64990
rest au 64972
s weise</w> 64948
simp ly</w> 64895
commer cial</w> 64892
on ed</w> 64872
sch ö 64869
kom ple 64851
Re gion</w> 64847
atten tion</w> 64822
se its</w> 64806
re ad</w> 64792
lie f</w> 64778
To m</w> 64767
G lob 64742
Ab geord 64697
cre ated</w> 64697
war t</w> 64693
Wochen ende</w> 64686
Ö ff 64683
m and 64679
t un 64676
dro p</w> 64646
Scot land</w> 64641
off ers</w> 64610
n ieder 64562
ho tel</w> 64514
Er d 64508
M äd 64501
Poli zei 64487
Mi ke</w> 64487
M oh 64483
H ig 64460
o o</w> 64422
w ell 64411
Gesprä ch</w> 64405
Al though</w> 64400
vo c 64397
Haupt stadt</w> 64395
en cy</w> 64379
5 3</w> 64375
R et 64362
kill ing</w> 64354
F er 64341
Medi en</w> 64312
5 1</w> 64290
Kop f</w> 64286
s elling</w> 64278
K er 64249
repor ters</w> 64242
nah m</w> 64241
go es</w> 64217
own ers</w> 64216
el se</w> 64195
Bür ger</w> 64195
p ment</w> 64194
V al 64192
Mehr heit</w> 64174
B oo 64150
K ind</w> 64138
impro ve</w> 64123
spee ch</w> 64120
ri eben</w> 64083
ING TON</w> 64069
Akti en</w> 64054
al tern 64045
Sarko zy</w> 64031
10 - 64030
mov ie</w> 64023
p ap 63943
ber ger</w> 63931
comple te</w> 63918
K ing</w> 63909
forder te</w> 63907
5 4</w> 63861
Bei jing</w> 63857
ther ap 63833
mö chte</w> 63829
b are</w> 63826
klär ung</w> 63815
mark s</w> 63794
zw öl 63755
I ran 63749
Wolf gang</w> 63747
P ra 63745
prä sen 63730
cut s</w> 63727
L aut</w> 63716
Stu die</w> 63628
ag s</w> 63615
x ed</w> 63614
inde pendent</w> 63600
über zeu 63587
1 2. 63581
ar gu 63573
L at 63570
ho hen</w> 63570
N etz 63560
P et 63548
dro pped</w> 63530
elec tions</w> 63530
i v 63527
Ch ief</w> 63505
ha ft</w> 63503
lä tz 63496
he u 63474
p unk 63472
St ro 63440
WEL T</w> 63435
eas y</w> 63428
bet onte</w> 63427
L es 63424
an k 63421
m ind</w> 63413
com men 63339
clim ate</w> 63338
st ore</w> 63320
Ver brau 63308
im mer 63298
i val</w> 63291
Sicher heit</w> 63234
lie b</w> 63227
f ör 63221
eben so</w> 63220
stra ße</w> 63213
R est 63208
po st 63169
H än 63166
ward- looking</w> 63158
weiter hin</w> 63143
gi g</w> 63114
success ful</w> 63104
Israel i</w> 63017
F rom</w> 63016
Z wei</w> 63005
p oll 62996
sa fe</w> 62995
L E 62969
er reicht</w> 62963
N utz 62952
tim s</w> 62944
fil ed</w> 62927
Stre it</w> 62921
hund reds</w> 62910
le ger</w> 62907
Acc ording</w> 62900
U p 62885
st ark 62863
confir med</w> 62857
W ASH 62853
conc lu 62845
gemein sam</w> 62837
war ned</w> 62814
c ast 62806
ay ed</w> 62794
ati v</w> 62793
D r 62765
Me dien 62753
WASH INGTON</w> 62748
0 8</w> 62728
Re d 62718
per form 62710
s er</w> 62672
he aring</w> 62641
ag ers</w> 62627
lo an</w> 62622
gew innen</w> 62613
5 6</w> 62600
deb ate</w> 62596
in tegr 62587
Behör den</w> 62571
ler weile</w> 62565
gu ten</w> 62562
h am 62534
M P 62533
genu g</w> 62529
Ar ab 62504
Man agement</w> 62494
t ac 62491
oh l</w> 62483
ur ies</w> 62481
ab zu 62464
ens ure</w> 62459
man n 62447
m är 62431
ex pl 62427
o d 62421
Nachrich ten 62389
par ties</w> 62372
gres si 62369
T or</w> 62364
völ lig</w> 62333
J .</w> 62332
H om 62326
fass ungs 62325
k ids</w> 62311
cul ture</w> 62305
ar ies</w> 62301
CS U</w> 62295
os sen</w> 62292
Pre is 62286
sa ve</w> 62253
basi s</w> 62252
äl fte</w> 62251
tur ning</w> 62203
M ehr</w> 62179
bes u 62175
Bu ch</w> 62133
get ö 62132
cla im</w> 62122
Tre as 62113
publi c 62088
f and</w> 62087
N um 62055
a be 62044
ge gangen</w> 62035
St rat 62022
C A 62005
u fen</w> 61976
C lub</w> 61973
5 8</w> 61955
Ken ne 61954
w ollten</w> 61927
gu il 61921
el s 61895
t our</w> 61893
ö tz 61893
em erg 61853
Sen .</w> 61834
e hr 61788
pre is</w> 61765
res c 61754
provi des</w> 61733
v ill 61727
k ept</w> 61717
ent de 61713
1 50</w> 61710
compet ition</w> 61708
star ting</w> 61707
Jo urnal 61706
chall enge</w> 61700
Ger man</w> 61698
add af 61694
il en</w> 61685
d t</w> 61641
gir l</w> 61638
N as 61632
c ally</w> 61614
con struction</w> 61614
off en</w> 61612
p ush 61594
n ö 61589
dec lined</w> 61573
exper ts</w> 61570
struc ture</w> 61568
so ftware</w> 61565
be hör 61564
g art</w> 61559
Or t</w> 61538
geb aut</w> 61532
tra ff 61531
ra p 61524
activ ities</w> 61522
thre at</w> 61502
l ungs 61492
natur al</w> 61475
foot ball</w> 61465
dah er</w> 61454
cri me</w> 61443
wich tig</w> 61441
a im 61436
S ub 61433
see king</w> 61433
bar en</w> 61422
Staatsan waltschaft</w> 61410
z in 61365
der ship</w> 61358
let ter</w> 61344
wor t</w> 61337
Re gi 61329
igh ts</w> 61316
sch ule</w> 61314
y an</w> 61290
G A 61289
d ritten</w> 61287
R ah 61285
p rise</w> 61263
st ab 61262
s low 61258
A g 61245
s mo 61221
ch ner</w> 61214
5 9</w> 61210
tig keit</w> 61191
ag u 61186
Ar my</w> 61174
G addaf 61165
ck y</w> 61155
sch affen</w> 61154
ri eb 61134
V f 61123
sp or 61116
dire kt</w> 61114
A ff 61112
D et 61109
all - 61098
ap par 61095
C olle 61089
s am 61067
consu l 61028
ber eit</w> 61019
b id</w> 60999
milli ons</w> 60997
wi d 60965
ac king</w> 60964
län gst</w> 60941
emplo yment</w> 60939
5 7</w> 60931
fi k 60913
Republi cans</w> 60910
Vir gin 60892
Man chester</w> 60891
wel le</w> 60869
under stand</w> 60866
est ic</w> 60848
gu ar 60841
ph y</w> 60784
t atsächlich</w> 60779
z ul 60765
Aut os</w> 60754
estim ated</w> 60745
R ad 60724
w äh 60723
ac tive</w> 60710
Dis k 60709
L eh 60687
civi li 60687
su ed 60655
prote ct</w> 60655
fäl lt</w> 60629
li ament</w> 60622
abil ities</w> 60621
tiv ely</w> 60613
T ha 60612
equ ity</w> 60612
Bundes k 60598
H I 60582
P ho 60569
Bo ston</w> 60568
we der</w> 60528
sued deutsch 60520
F rie 60517
at ur</w> 60490
inci dent</w> 60485
H er</w> 60481
D aten</w> 60457
relation ship</w> 60457
B A</w> 60446
al er</w> 60441
reli gi 60403
s ü 60386
C le 60384
tel s</w> 60378
disp l 60378
i um</w> 60377
dec is 60337
Ver ein 60327
ici de</w> 60325
ban k 60325
k ran 60309
pass ed</w> 60293
9 5</w> 60263
Dan iel</w> 60258
Dist ri 60231
S au 60212
su chen</w> 60205
p et 60202
ut ors</w> 60194
pop ulation</w> 60166
all ed</w> 60163
S ince</w> 60157
Th en</w> 60141
o .</w> 60119
O st 60110
t aus 60096
ad ding</w> 60070
ord on</w> 60049
exc lu 60049
op tim 60036
emer gency</w> 60032
zahl t</w> 60028
sueddeutsch e.de</w> 59994
D rit 59989
ath s</w> 59989
b on 59983
G ast 59982
Rech ts 59973
web site</w> 59958
vic tims</w> 59947
hand s</w> 59943
throu ghout</w> 59935
Inter view</w> 59933
le aving</w> 59932
K ü 59925
sen s 59914
l ern</w> 59908
Er n 59908
Aut ob 59905
Op en</w> 59904
G est 59902
itä ten</w> 59896
Poli z 59856
Letz te</w> 59833
son st</w> 59814
M ah 59812
versu cht</w> 59812
R an 59808
Ch el 59808
Sch ule</w> 59799
Ges etz 59786
Am ts 59783
gew al 59773
di ent</w> 59758
Re por 59752
ak es</w> 59746
inj ured</w> 59742
Al le</w> 59689
an ten</w> 59661
sha re 59661
W asser 59641
y ards</w> 59638
kti ons 59633
Ber e 59614
mo un 59603
b auen</w> 59591
fa vor 59524
op tion</w> 59518
F le 59505
st ly</w> 59466
d ged</w> 59463
B ay</w> 59453
o t 59451
dr än 59448
Ver l 59446
hop es</w> 59446
Ö l 59388
ger e 59378
us ers</w> 59372
chn ung</w> 59357
A mt</w> 59352
M ed 59352
ei st 59344
tax es</w> 59334
wel tweit</w> 59326
den k 59303
ri d</w> 59294
Ver kehr 59294
si ze</w> 59279
gen s</w> 59240
V iz 59212
br ingt</w> 59190
ach ten</w> 59176
as p 59159
und ation</w> 59147
ac ted</w> 59131
s age</w> 59111
N .</w> 59099
App le</w> 59089
deter min 59083
Stutt gart</w> 59070
CD U- 59069
fig ure</w> 59045
h ang</w> 59042
no on</w> 59025
geb lich</w> 59024
Stu di 59010
laun ched</w> 58988
benef it</w> 58982
laun ch</w> 58974
Chr is</w> 58954
recei ve</w> 58948
per f 58941
ex am 58940
intro duc 58937
bew us 58935
br and</w> 58931
be yond</w> 58930
o ts</w> 58914
wi es</w> 58904
Christ op 58881
mur der</w> 58873
Prä sidenten</w> 58870
Sch we 58861
c ard</w> 58839
limit ed</w> 58827
D ay</w> 58823
le gt</w> 58801
sen ce</w> 58793
ad o</w> 58790
En ergy</w> 58790
S ur 58788
requi red</w> 58782
pres sion</w> 58772
C ur 58766
Ver trag</w> 58759
L auf 58738
Re is 58734
ex tra</w> 58724
L ar 58715
pri mary</w> 58698
Stim men</w> 58696
m ers</w> 58692
Fol ge</w> 58691
bloo d</w> 58689
6 00</w> 58686
s ession</w> 58650
mo del</w> 58646
so fort</w> 58645
ali zed</w> 58640
B M 58638
r i</w> 58631
wor st</w> 58613
8 00</w> 58562
z ing</w> 58555
over all</w> 58552
ho st</w> 58551
bie ten</w> 58543
P en 58535
te sts</w> 58532
schlä ge</w> 58528
on to</w> 58522
aff t</w> 58515
Mis s 58482
coll ap 58482
Re de</w> 58480
V ie 58463
Feu er 58461
kl ag 58460
necess ary</w> 58454
beg in</w> 58416
stim men</w> 58411
l ers</w> 58399
0 9</w> 58395
1 ,000</w> 58388
g no 58359
Se k 58351
v ince</w> 58334
hel fen</w> 58325
celeb r 58323
K no 58306
lich keiten</w> 58293
Z weit 58251
tig ten</w> 58247
Itali en</w> 58236
mit tel</w> 58230
B all 58212
ar my</w> 58193
environ ment</w> 58180
belie ves</w> 58172
ä r</w> 58157
W ahr 58141
öh n 58124
zeit ung</w> 58118
t ough</w> 58112
for ward-looking</w> 58077
eff ici 58059
boo ks</w> 58059
al one</w> 58057
se emed</w> 58052
off ering</w> 58039
K raft</w> 58034
par k</w> 58031
er a</w> 58024
dar unter</w> 58020
is on 58017
r on 58004
Ro yal</w> 58003
Da zu</w> 57999
m es 57995
sch re 57992
consi der</w> 57986
Wi der 57984
hol ding</w> 57949
Sch ritt</w> 57944
b lieb</w> 57911
M and 57908
Tra in 57902
h ood</w> 57900
proj ects</w> 57897
Win d 57893
wel che</w> 57875
im mig 57870
sch ied</w> 57841
dri ving</w> 57813
Virgin ia</w> 57808
iti onen</w> 57806
gr und 57803
O s 57784
tig ung</w> 57783
zei gte</w> 57776
hör en</w> 57771
pa ir</w> 57770
gl ing</w> 57755
R at 57716
D em</w> 57707
effec tive</w> 57695
fr au 57692
Georgi a</w> 57667
zeu g</w> 57663
w agen</w> 57659
stu dent</w> 57658
St ur 57616
sa che</w> 57587
ho se</w> 57572
urn al</w> 57572
sp end</w> 57569
accoun t</w> 57559
Ho tel</w> 57558
al ist</w> 57539
and ed</w> 57534
Hill ary</w> 57500
un be 57494
Zeit en</w> 57473
Schul den 57471
Mitglie der</w> 57467
confi dence</w> 57452
Just ice</w> 57439
n ern</w> 57418
f it</w> 57414
bre it 57408
sel f- 57386
ach e</w> 57383
Engl ish</w> 57374
C amp 57354
b on</w> 57339
Unterstütz ung</w> 57332
H älfte</w> 57325
Bundest ag 57309
prac tice</w> 57298
0 4</w> 57292
o ur 57270
se em</w> 57265
om en</w> 57260
k rat 57252
Re al</w> 57249
W ert</w> 57243
S w 57234
tru e</w> 57231
Ser vices</w> 57230
spokes woman</w> 57229
in en</w> 57213
zie ht</w> 57213
sich erung</w> 57203
Be it 57199
h nach 57195
lu s</w> 57146
sol le</w> 57145
cho ice</w> 57141
sa v 57140
chin es 57139
fin ale</w> 57131
lei hen</w> 57129
gi c</w> 57097
Des halb</w> 57095
st es</w> 57093
amer a</w> 57067
internation alen</w> 57061
ä t</w> 57048
dig lich</w> 57041
suppor ters</w> 56998
gew äh 56995
- based</w> 56972
att orney</w> 56966
Proz ess</w> 56955
mis sing</w> 56953
k or 56952
el e</w> 56944
analy sts</w> 56932
B I</w> 56868
Ver anstal 56865
writ ten</w> 56861
S eiten</w> 56859
P un 56852
kon trol 56842
Ste ve</w> 56841
af ri 56838
G ordon</w> 56831
pret ty</w> 56822
CE O</w> 56810
Lab our</w> 56799
SO UR 56797
cent ury</w> 56749
K lin 56722
Be am 56721
an zu 56692
t ations</w> 56688
Rich tung</w> 56686
gre ater</w> 56677
Tel ef 56633
teil en</w> 56627
S ir</w> 56624
Vor stand 56605
Le e</w> 56605
happ en</w> 56601
W ür 56598
beg inning</w> 56591
V is 56568
mob ili 56547
fun ding</w> 56543
f und 56509
zwöl f</w> 56505
SOUR CE</w> 56494
est ate</w> 56479
Dur ing</w> 56467
fun ktion 56463
b um</w> 56460
S itz 56444
Sch ie 56430
mus sten</w> 56429
equi pment</w> 56419
avo id</w> 56412
sol utions</w> 56377
. 0 56352
plan e</w> 56341
wi re- 56337
Gef ahr</w> 56336
C al 56318
W .</w> 56313
M ain 56271
conc ern</w> 56263
sub ject</w> 56254
fin ished</w> 56249
dec ades</w> 56239
kündig te</w> 56236
li gh 56233
m ü 56220
ent schieden</w> 56215
neu es</w> 56201
Ch il 56192
bel ow</w> 56192
ger ung</w> 56188
f ro 56174
Men schen 56164
ho li 56158
M asch 56154
el f</w> 56153
Lei st 56150
Faceb ook</w> 56140
Op position</w> 56138
fi g</w> 56133
W eil</w> 56129
Mi o.</w> 56125
ander er</w> 56123
fl u</w> 56097
Öster reich</w> 56080
Be völk 56064
crit ic 56046
E - 56032
t an</w> 56025
sur pris 56009
we gung</w> 56000
strat e 55993
stri ke</w> 55988
ut h</w> 55970
W et 55958
Bundeslig a</w> 55953
d wide</w> 55939
Kl ein 55907
ie f 55874
Mäd chen</w> 55874
Besch äf 55870
St ell 55859
sc ene</w> 55858
los ing</w> 55857
candid ates</w> 55855
Geschä ft</w> 55852
inj ury</w> 55830
c raft</w> 55825
wis sen 55823
nor mal</w> 55804
se kre 55798
ö p 55793
ern s</w> 55778
f onds</w> 55769
cont act</w> 55737
ähr t</w> 55736
Kar ri 55719
si t</w> 55712
Spitz en 55711
Carol ina</w> 55693
N Y 55692
PRNews wire- 55686
ck er 55684
Fe der 55676
stre et</w> 55658
ei g 55653
Univers ität</w> 55650
Oc t.</w> 55618
we gs</w> 55610
p al 55609
loo ks</w> 55608
c tions</w> 55604
Ver teidig 55596
Ange bot</w> 55591
trä gt</w> 55576
lo sen</w> 55569
brau chen</w> 55569
ch tet</w> 55565
St rei 55556
las h 55555
respon sible</w> 55555
organiz ation</w> 55553
Treas ury</w> 55547
p aper</w> 55540
g un 55540
Pro gramm</w> 55522
setz te</w> 55518
a .m.</w> 55513
ho he</w> 55504
C - 55478
d äch 55476
be ha 55471
Bet rieb 55468
t ür 55460
Pl ay 55451
amp f 55442
crit ical</w> 55430
n am 55425
je de</w> 55418
i ken</w> 55411
st in 55406
ich tet</w> 55401
Jah res 55399
Inter net 55363
gel d</w> 55355
Kolle gen</w> 55342
appe ar</w> 55323
y n</w> 55295
bis her 55293
j ungen</w> 55284
ag no 55274
zeu ge</w> 55239
tal king</w> 55233
Un i 55228
ac ci 55206
8 5</w> 55192
gl ück 55175
en ze</w> 55128
ei m 55121
V ill 55116
sk y</w> 55114
woh ner</w> 55099
Kom mission</w> 55087
activ ity</w> 55080
c le</w> 55047
meas ure</w> 55047
West ern</w> 55039
iel l</w> 55025
gre en</w> 55025
k ü 55018
Ur teil</w> 55016
ow ner</w> 55000
wat ch</w> 55000
d rü 54978
er reichen</w> 54976
T est 54971
legisl ation</w> 54956
o dy</w> 54939
Milit är 54935
ro b 54925
extre m 54895
weap ons</w> 54872
Mor gan</w> 54871
NE W</w> 54870
gest ie 54865
vehic le</w> 54863
mis sion 54857
Lig a</w> 54848
fre e 54845
previ ously</w> 54844
identi fied</w> 54842
gener ation</w> 54837
tw en 54832
ant age</w> 54803
W - 54801
foo t</w> 54789
Fo re 54785
fahr er</w> 54783
di sk 54761
ke i</w> 54754
tar get</w> 54748
besch äf 54740
g old</w> 54725
dom estic</w> 54715
tr auen</w> 54699
Griechen land</w> 54692
getö tet</w> 54657
st yle</w> 54655
fir st- 54646
fäl le</w> 54638
I s</w> 54636
Prem ier</w> 54636
end lich</w> 54618
wor k 54611
fli ght</w> 54604
Köl n</w> 54603
dam age</w> 54591
S E</w> 54573
ver se</w> 54573
frü her</w> 54550
ür gen</w> 54546
ri g 54539
ger in</w> 54533
be isp 54528
in nov 54503
F ed</w> 54492
ex plain 54474
C ent 54470
comp uter</w> 54470
B ud 54456
iti k 54454
rie f 54433
plann ing</w> 54433
H ause</w> 54428
Auf sichts 54425
geh end</w> 54420
H ein 54419
d lichen</w> 54393
st ood</w> 54384
lea dership</w> 54358
win ner</w> 54349
dig keit</w> 54316
Ban k 54313
il legal</w> 54311
w oun 54309
P ut 54304
guil ty</w> 54304
Jo e</w> 54301
-------- -------- 54301
Re cht</w> 54300
B üh 54280
gel y</w> 54277
Prä sident 54273
p t</w> 54267
J ud 54245
st ep 54241
e ten</w> 54219
provi ding</w> 54213
Dies er</w> 54176
e b</w> 54173
Akti en 54172
gest ern</w> 54171
Bo th</w> 54161
deli ver 54151
sch ön 54137
bre chen</w> 54111
eu ro 54109
er he 54094
dec line</w> 54087
attemp t</w> 54086
S onder 54080
law yer</w> 54079
Er fahr 54035
D .de</w> 54032
tain ment</w> 54015
tur ns</w> 54010
Quar tal</w> 53987
tur al</w> 53950
concern ed</w> 53944
fis cal</w> 53907
B a 53894
de ad 53872
S ohn</w> 53861
l ack</w> 53854
Vorsitz ende</w> 53843
N AT 53841
ti erte</w> 53837
form s</w> 53791
Th ree</w> 53786
d ing 53762
9 - 53762
deu tet</w> 53762
West er 53747
fi f 53746
wh om</w> 53745
Bus iness</w> 53737
pop ul 53708
lat t</w> 53703
fahr t</w> 53677
W ähr 53652
n y</w> 53650
sus pen 53643
Corpor ation</w> 53631
p p</w> 53628
y ard</w> 53623
p ak 53589
per haps</w> 53564
v o</w> 53562
B om 53559
c iti 53548
3 6 53536
vehic les</w> 53521
utz t</w> 53516
t ation</w> 53510
rup tion</w> 53506
high est</w> 53491
Com mer 53473
suff ered</w> 53464
mas sive</w> 53456
5 .</w> 53448
w ish</w> 53445
o ber 53438
h an 53433
H anno 53429
pre pa 53423
Wei hnach 53420
schein lich</w> 53414
T our</w> 53413
Bo ard</w> 53407
resear chers</w> 53401
minist erin</w> 53384
jo ined</w> 53378
dan ach</w> 53373
fer red</w> 53370
o x 53367
sol ven 53358
Afri can</w> 53344
fac es</w> 53342
zu frie 53333
te xt</w> 53331
dien st</w> 53327
s end</w> 53318
bo x</w> 53315
ge he</w> 53307
unter schrift</w> 53303
ing ing</w> 53300
res sed</w> 53300
neu er</w> 53298
H eute</w> 53296
Y e 53295
de ep 53271
il ities</w> 53269
corpor ate</w> 53253
wor d</w> 53240
i as</w> 53222
coun t</w> 53218
Mo tor 53217
s un 53199
gesch lagen</w> 53199
f än 53197
plac es</w> 53165
st ic</w> 53160
spo ke</w> 53142
Syst em</w> 53128
S . 53111
C all</w> 53073
Can ada</w> 53069
Bild unterschrift</w> 53068
la ws</w> 53066
V ic 53062
ev in</w> 53062
west ern</w> 53059
contrib uted</w> 53048
wa iting</w> 53030
glei chen</w> 53028
sub si 53020
certain ly</w> 53017
stand ards</w> 53008
schwer en</w> 53001
ru le</w> 52997
ho l</w> 52995
ow er</w> 52966
Au th 52958
M ul 52950
te u 52950
pp e</w> 52940
dou ble</w> 52918
des ign</w> 52906
il er</w> 52897
mark eting</w> 52896
r t</w> 52888
Qu e 52888
end or 52864
suggest ed</w> 52861
M au 52858
b lick</w> 52857
pro gress</w> 52845
Bra z 52843
unser er</w> 52830
pre vent</w> 52827
batt le</w> 52822
Afgh an</w> 52812
coun cil</w> 52798
hol en</w> 52780
Ver b 52763
Rek ord 52747
r ying</w> 52717
el a</w> 52716
st ant</w> 52704
do g</w> 52700
k y</w> 52699
For d</w> 52699
Sy ri 52697
m in</w> 52687
gel ö 52646
Ge walt</w> 52644
konz ern</w> 52642
Musi k</w> 52639
Proje kt</w> 52639
tu red</w> 52626
ban king</w> 52617
Sp ra 52607
pp er</w> 52588
jo urnal 52554
del eg 52532
sch ließen</w> 52528
rech nen</w> 52518
me dic 52510
de partment</w> 52508
z ir 52503
verk auft</w> 52502
Y ah 52461
6 0 52453
milit ants</w> 52443
C ath 52421
sp orts</w> 52421
ge m</w> 52406
do w</w> 52405
Holly wood</w> 52404
wei ght</w> 52401
Asi a</w> 52396
A no 52385
A M</w> 52381
ell ed</w> 52379
A l</w> 52366
nor m 52353
pro posed</w> 52352
ver ein 52343
G M 52335
St art</w> 52324
d ungs 52323
dro h 52316
own s</w> 52311
z ep 52296
G et 52292
reco very</w> 52267
r is</w> 52264
üs se</w> 52264
sign s</w> 52258
tem por 52235
re al 52218
C ub 52196
F A 52191
Nov .</w> 52186
K ünst 52180
c .</w> 52169
Tre ffen</w> 52160
fe ar</w> 52158
kra ft 52141
nie mand</w> 52129
W en 52075
3 7 52073
wei s</w> 52072
C el 52070
re sources</w> 52064
sig keit</w> 52062
T un 52057
M ac 52051
C am 52038
Ge gner</w> 52037
secre tary</w> 52030
mak er</w> 52018
C it 52015
g lied</w> 51972
T y 51964
Gesam t 51962
sur vey</w> 51944
D E 51904
M s</w> 51894
Chel sea</w> 51894
olog ical</w> 51886
g ain</w> 51877
z ation</w> 51876
Geb äu 51872
commit ted</w> 51862
some times</w> 51846
ges ellschaft</w> 51813
su st 51805
appe al</w> 51770
R und 51769
rul ing</w> 51763
am ent 51750
Bl ack 51750
st ands</w> 51745
D ub 51742
st am 51737
On line</w> 51735
Oh io</w> 51731
ü bri 51730
ad urch</w> 51722
3 8 51709
L ösung</w> 51708
lan gu 51696
c ouldn</w> 51692
ex change</w> 51676
r ent</w> 51668
St äd 51661
ver tei 51645
Olymp ic</w> 51644
re stri 51641
Bet eilig 51633
contro l 51631
ru m 51624
i ble</w> 51602
Öff ent 51602
ent fer 51599
Spitz e</w> 51593
ig an</w> 51590
ve ter 51585
ck ets</w> 51576
Spiel e</w> 51569
bil d</w> 51561
ih eit</w> 51551
gra du 51536
Sach e</w> 51528
is er</w> 51526
ge wor 51525
Mo d 51517
ven ue</w> 51511
onal d</w> 51509
Rich ter</w> 51501
ill en</w> 51497
Aut om 51495
car ried</w> 51476
Gre en</w> 51474
ist e</w> 51471
nie dri 51470
bet ei 51451
re ment</w> 51447
wal k</w> 51445
beisp iel 51439
beha vi 51429
re commen 51417
gi en</w> 51416
199 9</w> 51414
it es</w> 51403
einz el 51403
ast rop 51393
To day</w> 51386
hin gegen</w> 51372
hel ping</w> 51345
c s</w> 51314
k et 51306
and al</w> 51305
al d</w> 51298
ess ed</w> 51293
5 ,000</w> 51291
polit ics</w> 51277
is co</w> 51271
dra w</w> 51261
Cor p.</w> 51257
ä s 51255
develop ed</w> 51254
war um</w> 51251
after noon</w> 51248
us ually</w> 51242
Willi am</w> 51215
ann e</w> 51200
sp ruch</w> 51172
e ful</w> 51169
K ris 51163
u el</w> 51158
em is 51155
m ein</w> 51153
ge plant</w> 51152
W ales</w> 51134
sy mp 51134
For scher</w> 51098
wen ige</w> 51088
pre ci 51080
S T 51079
fin ance</w> 51064
doc tors</w> 51055
hunder t</w> 51052
f em 51042
Mu seum</w> 51039
H ou 51038
mög lichen</w> 51031
4 .</w> 51030
t ent</w> 51006
Sch o 51005
inner halb</w> 50998
Cap ital</w> 50995
g ment</w> 50982
besonder e</w> 50969
ta ins</w> 50965
k er 50964
Zentr al 50961
Ano ther</w> 50954
vers or 50949
K al 50931
hä u 50929
un ding</w> 50912
go als</w> 50904
radi o</w> 50903
ge zogen</w> 50901
wa it</w> 50884
Ver gan 50876
Pl an</w> 50876
neigh bor 50873
Re vol 50870
no te</w> 50862
A M 50859
ep h 50856
tra vel 50853
Bil der</w> 50851
arri ved</w> 50847
call ing</w> 50825
gehör en</w> 50804
itä ts 50783
psy ch 50775
B asi 50772
fol gt</w> 50768
Gesund heits 50744
unter nehmen</w> 50734
h ur 50732
AF P</w> 50729
verb and</w> 50702
h ou 50696
v .</w> 50688
A ct</w> 50683
N av 50675
P u 50655
long- term</w> 50651
f s 50639
ab les</w> 50632
Z war</w> 50608
N atur 50605
Gä ste</w> 50587
f lä 50584
Be wer 50584
Hig h</w> 50578
fac tors</w> 50567
um st 50564
ail s</w> 50556
ver lassen</w> 50542
Sch ließ 50537
pho togra 50531
w illi 50526
Pub lik 50520
xim ately</w> 50518
nor th</w> 50517
ten en</w> 50502
C I 50490
ch em 50489
G ip 50488
ne e</w> 50488
sch utz 50475
r aten</w> 50470
demo cr 50459
er zählt</w> 50452
stim ul 50435
O pel</w> 50427
colle ge</w> 50424
lie fer 50417
A ch 50416
las se</w> 50408
st ars</w> 50405
C entr 50391
s ort</w> 50390
gew onnen</w> 50384
B und</w> 50370
Champ ions</w> 50368
arre st</w> 50333
mei er</w> 50322
fort un 50316
Schü ler</w> 50311
no wle 50304
T hose</w> 50290
stär ker</w> 50258
L L 50220
enti re</w> 50220
sch utz</w> 50204
In iti 50175
st ol 50164
s onen</w> 50160
vir tu 50140
Ge füh 50132
origin al</w> 50130
av es</w> 50128
pro gramme</w> 50122
Um welt 50121
const itu 50118
den ied</w> 50114
e es</w> 50111
zo g</w> 50102
be vor</w> 50099
a dem 50095
back ed</w> 50088
R E 50064
wur f</w> 50060
tra ditional</w> 50057
führ te</w> 50055
F ün 50024
R ent 50007
ck ing</w> 50005
Famili en 49970
Finanz krise</w> 49968
den e</w> 49963
re j 49960
val u 49953
itali en 49949
bil dung</w> 49948
aw are</w> 49929
Ex change</w> 49911
E conom 49894
ma xim 49893
OR K</w> 49886
stell ten</w> 49882
h aus 49849
th y</w> 49848
ange kündigt</w> 49848
On lin 49836
Ver fü 49818
ver si 49815
Punk ten</w> 49811
s in 49810
Z ei 49805
w äl 49804
or ial</w> 49785
da ily</w> 49776
schrei bt</w> 49776
mar ri 49756
fol gen</w> 49746
z ig</w> 49724
Y ORK</w> 49706
supp ly</w> 49688
N eben</w> 49686
govern or</w> 49686
P enn 49677
ic a</w> 49665
au ßer 49650
S icht</w> 49648
un it</w> 49644
vor bei</w> 49632
Geh eim 49630
S har 49628
War um</w> 49628
continu es</w> 49621
S af 49616
pro mp 49615
quar ters</w> 49607
ak tion</w> 49602
ver dien 49592
g al</w> 49577
ack nowle 49577
ko re 49576
- F 49565
ar i</w> 49562
polit ici 49561
sel y</w> 49538
ei gh 49531
P ac 49520
Inter esse</w> 49512
am id</w> 49509
W M</w> 49507
Au gen</w> 49486
Indi an</w> 49486
el ten</w> 49484
8 0 49480
Distri ct</w> 49467
sa h</w> 49466
develop ing</w> 49464
il and</w> 49458
ß er</w> 49448
w ann</w> 49446
se ite</w> 49446
f tigen</w> 49428
se as 49428
crow d</w> 49411
k tur 49407
appro ved</w> 49402
unter schie 49399
st ür 49397
A . 49395
an cy</w> 49379
Chanc en</w> 49366
Kenne dy</w> 49349
j en 49344
le diglich</w> 49341
de ep</w> 49296
individu al</w> 49291
al ition</w> 49288
see ing</w> 49288
Ges etz</w> 49286
t to</w> 49279
he ar</w> 49254
iz e</w> 49247
W inter 49244
Pak ist 49243
entschei den</w> 49225
p on 49224
reven ues</w> 49220
Ju li 49215
wach sen 49211
öff net</w> 49209
B ig</w> 49203
Ad res 49200
um p 49188
D ort 49173
R unde</w> 49157
P ir 49156
Inter nation 49146
ehem alige</w> 49144
U. N.</w> 49130
it er</w> 49126
amm lung</w> 49123
n ar 49078
poli cies</w> 49064
K li 49050
us ual</w> 49046
be kommt</w> 49042
lo g 49038
J ürgen</w> 49037
recor ds</w> 49036
H igh 49025
o v 49020
mitt lerweile</w> 49010
Bu ch 49006
Olymp i 48982
bal ance</w> 48981
P län 48965
bie tet</w> 48943
tw ice</w> 48939
Lu x 48938
9 0 48937
Ar ch 48931
I tal 48920
f ine</w> 48914
com ments</w> 48902
ig es</w> 48881
y l 48879
kur z 48851
Ho sp 48838
groß er</w> 48823
Alex ander</w> 48820
ob wohl</w> 48817
schrei ben</w> 48813
T enn 48780
z a</w> 48772
ä he</w> 48768
to urn 48761
ser ving</w> 48760
c ities</w> 48755
ch mal</w> 48736
7 00</w> 48729
en det</w> 48707
civi l</w> 48701
Feh ler</w> 48688
b es</w> 48687
ist ischen</w> 48684
sch e 48681
iti ons</w> 48679
ste he</w> 48677
ul ts</w> 48674
M .</w> 48667
re p 48608
den d</w> 48602
Fol gen</w> 48602
en or 48600
Bevölk erung</w> 48599
spe ak</w> 48572
fo li 48565
Bag h 48562
or dered</w> 48533
vol un 48523
ten berg</w> 48522
Z e 48499
Im mobili 48498
w ind</w> 48487
ra in</w> 48486
rema ined</w> 48480
bro ke</w> 48477
ac tor</w> 48475
ger y</w> 48470
le ague</w> 48463
an o</w> 48432
fin ally</w> 48431
sto res</w> 48416
S he 48414
je dem</w> 48395
appe ars</w> 48395
is sen</w> 48382
Ein en</w> 48372
fre u 48360
w u 48359
ad y</w> 48344
gel ten</w> 48339
bra chte</w> 48339
Pol it 48335
an gesichts</w> 48333
s outh</w> 48323
B ad 48315
Parlam ent</w> 48299
Nach bar 48295
b ought</w> 48285
appro ximately</w> 48285
S us 48282
exist ing</w> 48256
war ten</w> 48252
f res 48244
dar um</w> 48234
mei ster 48227
exp ense</w> 48219
A C 48215
Kl aus</w> 48213
k ungen</w> 48200
F ör 48186
Kin dern</w> 48183
cri minal</w> 48182
Pal in</w> 48166
l ess 48149
frü heren</w> 48149
shoo ting</w> 48149
b s 48129
intel ligence</w> 48126
Char les</w> 48110
f ash 48107
spe ed</w> 48106
Rett ungs 48102
dec ade</w> 48099
dri ver</w> 48098
power ful</w> 48098
Fir ma</w> 48082
be stimm 48079
min im 48078
sh e 48077
Verhand lungen</w> 48074
fac ing</w> 48072
g ruppe</w> 48067
Tro tz</w> 48066
olo gies</w> 48059
N a 48058
äh ler</w> 48054
je we 48040
cr ash</w> 48038
L O 48027
t ter</w> 48017
Fil m 48003
T im</w> 48002
o f- 47995
vol um 47983
ci a</w> 47962
inj uries</w> 47955
eng ine 47952
con tribu 47946
Tr au 47934
Prof essor</w> 47934
direc t</w> 47923
Off en 47918
no ted</w> 47911
lo y 47902
- Chef</w> 47892
Koal iti 47871
put y</w> 47826
bl ing</w> 47808
th a</w> 47795
disc uss</w> 47794
prepa red</w> 47782
Co ach</w> 47770
Yah oo</w> 47768
4 6 47741
mor gen</w> 47741
Secur ities</w> 47733
G leich 47687
M acht</w> 47668
Le w 47658
re land</w> 47656
op h 47655
jo in</w> 47634
Wal ter</w> 47629
Nach fol 47628
K evin</w> 47627
Z eu 47619
T urn 47603
h its</w> 47602
St unde</w> 47599
ra ising</w> 47595
al ter</w> 47587
m ut</w> 47584
al o 47582
Off ic 47580
ol der</w> 47570
Ital y</w> 47554
and ing</w> 47553
so c 47551
m ad 47548
w elt</w> 47540
re in 47540
audi ence</w> 47538
Brü s 47529
f loo 47495
gh tly</w> 47494
agen cies</w> 47486
Da für</w> 47484
Da x</w> 47482
re l</w> 47477
Des pite</w> 47458
le ment</w> 47443
berich ten</w> 47442
Deutsch lands</w> 47437
W ort</w> 47430
worl dwide</w> 47428
w ouldn</w> 47424
S how</w> 47416
Ele k 47416
con nec 47412
l ag 47408
foc used</w> 47407
Al ter</w> 47404
ass ung</w> 47393
We ch 47378
ans wer</w> 47378
de aths</w> 47372
Lu ft 47362
si des</w> 47360
stim mt</w> 47343
K anzlerin</w> 47338
Ver fahren</w> 47335
cro s 47333
j ähr 47330
Tran s 47322
K ath 47304
sou thern</w> 47304
fir ms</w> 47302
näch ste</w> 47285
ück e</w> 47283
oo d 47280
lätz e</w> 47275
w ün 47249
tä r</w> 47236
au ff 47233
w ise</w> 47229
Che f 47213
T om 47211
An leger</w> 47209
su icide</w> 47193
Pau l 47189
expec tations</w> 47179
ser i 47178
ig keiten</w> 47172
f tige</w> 47163
mäß ig</w> 47158
No t 47157
gn is</w> 47142
ion ship</w> 47139
f iel</w> 47138
well - 47133
ati vely</w> 47118
continu ing</w> 47117
ens ation</w> 47106
D etro 47104
k aufen</w> 47079
st one</w> 47037
vo ted</w> 47015
tür k 47014
alle ged</w> 47009
prote ction</w> 47008
R ennen</w> 46990
Sch u 46986
gesch rieben</w> 46983
r am 46979
P i 46978
brit ann 46969
au l 46965
auf zu 46965
stru ck</w> 46958
el ess</w> 46930
Pre ise</w> 46927
pre me</w> 46926
Th eir</w> 46926
ötz lich</w> 46925
z iert</w> 46903
stopp ed</w> 46901
var ious</w> 46899
Verfü gung</w> 46895
Ma j 46882
to m</w> 46879
In c.</w> 46849
quar ter 46842
Sch mid 46831
ein ander 46829
ac ting</w> 46829
frü here</w> 46829
appe ar 46823
cont ent</w> 46816
Fuß ball</w> 46809
ger ne</w> 46803
hin aus</w> 46801
Palestin ian</w> 46801
ti onen</w> 46798
sch ar 46788
c ell</w> 46779
ha ven</w> 46775
A sh 46771
wer ke</w> 46767
Sen ator</w> 46756
Kul tur 46744
produc ed</w> 46709
sy l 46706
S in 46692
l ten</w> 46670
J ust</w> 46650
ch urch</w> 46650
sex u 46643
O li 46642
ter e</w> 46637
Groß britann 46631
7 0 46629
gr enz 46628
sol chen</w> 46618
C ra 46612
I reland</w> 46608
ar ms</w> 46605
mit teilte</w> 46580
in i</w> 46571
bur gh</w> 46570
Jap anese</w> 46565
00 ,000</w> 46550
cau ght</w> 46549
Ins gesamt</w> 46546
J am 46544
l es 46535
B en</w> 46528
Centr al</w> 46525
ad el 46512
kt ur</w> 46498
ep tion</w> 46497
hal te</w> 46484
re spec 46479
pie ce</w> 46475
con ne 46457
g ath 46452
jewe ils</w> 46448
Jahr zeh 46446
fi red</w> 46430
Ver hält 46423
dan ger 46422
un ch</w> 46402
devel op</w> 46402
partic ular</w> 46391
wen igen</w> 46390
Fore ign</w> 46373
m und</w> 46356
We ise</w> 46356
opp ing</w> 46339
je des</w> 46332
B ut 46325
con f 46325
rel ations</w> 46324
lo h 46318
T ay 46297
adv antage</w> 46297
To k 46281
stän de</w> 46277
g ül 46275
t sp 46274
verhin dern</w> 46264
pre cher</w> 46236
e ing</w> 46220
ref used</w> 46215
C a 46210
Al i</w> 46204
b ut 46195
st ur 46185
organis ation</w> 46181
gen au 46143
stran ten</w> 46132
Mo der 46128
comple ted</w> 46080
heav y</w> 46059
ver wal 46055
ar tic 46046
na he</w> 46046
se ts</w> 46041
i Ph 46038
Au gen 46038
guar an 46032
R ol 46026
alle y</w> 46016
Ver wal 46003
Ver ein</w> 45995
R oh 45988
schl agen</w> 45971
ic kt</w> 45970
minist ers</w> 45947
D A 45946
sc ale</w> 45934
gew öhn 45934
de cre 45928
ad mitted</w> 45927
th inking</w> 45922
T on 45914
Andre as</w> 45913
direc tly</w> 45912
Mad rid</w> 45901
pay ments</w> 45890
einz ige</w> 45886
äm lich</w> 45880
S and 45878
W a 45872
Hanno ver</w> 45869
yn am 45865
K ern 45863
at trac 45860
dr in 45858
K ol 45856
Colle ge</w> 45849
be t</w> 45843
K oh 45839
de te 45839
P lus</w> 45834
-J ährigen</w> 45827
P le 45826
sel bst 45825
ar med</w> 45824
dou b 45824
ier ungs 45820
leg te</w> 45803
Deb atte</w> 45802
champ ion</w> 45800
N ein</w> 45799
Dur ch</w> 45798
Vor wür 45795
flo or</w> 45795
olog ie</w> 45788
k ir 45783
acqu is 45782
län ger</w> 45776
n ations</w> 45771
Me dic 45763
ver fahren</w> 45741
wir kt</w> 45740
Bagh dad</w> 45735
con ven 45726
te en 45723
2 3 45707
ar ding</w> 45707
we ather</w> 45707
nut zen</w> 45692
be obach 45651
ör t</w> 45645
prof essor</w> 45634
spar tei</w> 45630
typ e</w> 45622
er ie</w> 45614
fail ure</w> 45614
traff ic</w> 45611
it able</w> 45607
G as 45597
it ems</w> 45590
l auf</w> 45589
Sa ison 45586
produ ce</w> 45585
fi re 45582
ess ing</w> 45581
amerik anische</w> 45574
cli ents</w> 45567
Arbeit sp 45564
. html</w> 45558
is se</w> 45550
6 7</w> 45535
respon sibility</w> 45534
Mon at</w> 45508
pack age</w> 45507
Bunde stag</w> 45503
gesp ielt</w> 45499
spo t</w> 45488
Glob al</w> 45470
keep ing</w> 45466
increas ing</w> 45460
Sp ec 45458
ev ening</w> 45449
re den</w> 45416
Detro it</w> 45410
sekre tär</w> 45403
Part ner</w> 45401
ie gel</w> 45392
fac ed</w> 45384
Nieder lage</w> 45378
ser ves</w> 45365
mid dle</w> 45329
en g</w> 45326
ik er</w> 45315
be ein 45313
Mün chner</w> 45301
den noch</w> 45276
di a</w> 45275
Ber g 45271
Span ien</w> 45263
Ber l 45259
sh own</w> 45244
P S</w> 45241
9 .</w> 45209
high ly</w> 45202
vi es</w> 45196
ac ity</w> 45191
O der</w> 45188
B la 45184
jo int</w> 45180
Poliz isten</w> 45175
Kre u 45172
Bürger meister</w> 45167
wahr scheinlich</w> 45161
Me an 45140
and a</w> 45128
F a 45127
pre - 45115
kl ein 45113
Ide e</w> 45078
vel op 45074
rech ts 45024
G old</w> 45017
kenn t 45014
ver fü 45006
t ner</w> 44998
w ahl 44998
ehem aligen</w> 44996
Mom ent</w> 44996
H ome</w> 44990
quest ion 44986
W M- 44963
Betrieb s 44961
Andre w</w> 44958
car ry</w> 44944
Demon stranten</w> 44942
n ames</w> 44932
be für 44930
Vol k 44929
Z us 44918
frist ig</w> 44911
sci ence</w> 44910
wi der 44901
geb ro 44899
u d</w> 44865
put ting</w> 44862
tre ated</w> 44861
N ie 44852
Bo den</w> 44852
lin ks</w> 44847
D ou 44846
am ing</w> 44846
C lar 44844
D res 44836
schn itt</w> 44832
step s</w> 44819
I ts</w> 44818
den ten</w> 44814
ti ally</w> 44810
spe k 44807
Medi a</w> 44803
sust ain 44798
H ow 44793
li f 44793
h an</w> 44787
C amer 44783
Tür kei</w> 44760
erwar ten</w> 44759
a war 44754
y st 44749
Aus land</w> 44740
man aged</w> 44734
K as 44732
An n 44715
be au 44707
ing s 44699
po sted</w> 44696
ex tra 44696
me ist</w> 44696
w all</w> 44692
appro pri 44677
Un der</w> 44675
ab in 44664
sor gen</w> 44664
beispiel sweise</w> 44663
I st</w> 44662
dig ung</w> 44656
tra in</w> 44642
sp ür 44640
reg ular</w> 44640
k ap 44639
Vergan genheit</w> 44637
itz er</w> 44629
6 6</w> 44628
tri fft</w> 44627
bab y</w> 44624
schaft ler</w> 44624
spiel e</w> 44623
Dat en 44618
En ter 44615
increas ingly</w> 44611
K auf 44606
professi onal</w> 44603
s a</w> 44596
2 50</w> 44589
Mül ler</w> 44588
rech te</w> 44586
En d 44578
S - 44568
anti cip 44564
Zusch auer</w> 44556
stand ard</w> 44553
Mög lichkeit</w> 44550
distri ct</w> 44537
los sen 44535
Partei en</w> 44535
9 6</w> 44533
ay ing</w> 44526
er c 44524
C as 44523
sur ro 44490
show ing</w> 44490
stat us</w> 44489
durch aus</w> 44486
ist ic</w> 44483
ak ers</w> 44479
Ro ber 44477
gel assen</w> 44450
Franc isco</w> 44440
ri val</w> 44433
il ing</w> 44419
m lich</w> 44398
b la 44393
Lew is</w> 44390
geschä ft</w> 44376
L am 44373
Kön ig 44372
im ag 44369
as su 44368
gen ie 44368
um ped</w> 44364
ma g</w> 44356
ten s</w> 44347
lar gely</w> 44341
wer te</w> 44319
sch rieb</w> 44309
BS T</w> 44307
Islam ic</w> 44303
An hän 44301
c ore</w> 44259
te dly</w> 44259
aktu ellen</w> 44257
Fl ü 44256
ol as</w> 44254
Inde x</w> 44245
an on 44243
no twen 44241
we is 44237
Sta di 44235
ch erin</w> 44230
k at 44228
20 - 44226
B all</w> 44210
un certain 44203
P ort 44186
gestie gen</w> 44183
Kir che</w> 44171
öffent lichen</w> 44164
pati ent</w> 44152
pre c 44151
Kun st 44125
ich ts 44121
t ment</w> 44120
ge halten</w> 44117
Konjunk tur 44105
sho p</w> 44103
Stra f 44102
pay ing</w> 44101
lear n</w> 44098
. or 44093
gi ves</w> 44088
A G</w> 44086
de g 44084
bro ther</w> 44081
den falls</w> 44071
Gaz a</w> 44064
Ber eich</w> 44062
N ik 44058
n ämlich</w> 44049
K im</w> 44034
op tions</w> 44019
bis schen</w> 44000
g ran 43989
Fr au 43986
Bre men</w> 43982
pas st</w> 43982
gir ls</w> 43977
O ri 43954
purch ase</w> 43949
E hr 43939
w us 43937
Fre und 43933
ou d</w> 43931
us con 43926
H ill</w> 43923
Hoff nung</w> 43920
cle arly</w> 43917
R aum</w> 43912
PRNews wire</w> 43904
Öffent lichkeit</w> 43889
K el 43887
Li ver 43881
St ück</w> 43874
in flation</w> 43867
c lassi 43866
demo krat 43865
fif th</w> 43861
estab l 43853
um s 43848
ap s</w> 43841
is o 43837
Bör sen 43822
Berl uscon 43817
de plo 43811
S we 43810
R us 43810
tow ards</w> 43809
7 2</w> 43796
pres ents</w> 43795
up on</w> 43784
Nor thern</w> 43783
g as 43781
b ad 43779
decis ions</w> 43764
0 5</w> 43746
fre qu 43746
Ar gent 43743
r ö 43735
Sp ain</w> 43724
aff ected</w> 43715
bor ro 43713
read ing</w> 43706
Gl ück</w> 43706
D on</w> 43688
Karri ere</w> 43680
dest ro 43673
l am</w> 43672
Ham as</w> 43667
be coming</w> 43661
gre at 43652
An teil</w> 43650
H ans 43647
ob vi 43641
propos al</w> 43641
it als</w> 43621
ä stin 43598
Por tu 43595
sch ir 43571
ul l</w> 43540
Mo sk 43521
Th er 43516
Li fe</w> 43516
att le</w> 43503
secon d- 43497
in qu 43486
kno ws</w> 43478
1 3. 43477
docum ents</w> 43468
cover age</w> 43450
event ually</w> 43436
Mean while</w> 43427
fol low</w> 43425
E ff 43423
analy st</w> 43419
Par tie</w> 43408
Milli on 43393
regi onal</w> 43379
v acc 43372
share holders</w> 43368
Con ference</w> 43358
ef s</w> 43355
J a</w> 43347
Krie g</w> 43331
se at</w> 43323
d liche</w> 43317
see k</w> 43314
S z 43313
be ste</w> 43312
g ingen</w> 43311
6 4</w> 43289
Stro m 43285
erfolgre ich 43283
vie wed</w> 43280
199 8</w> 43274
W ill</w> 43269
al ts 43262
D opp 43261
We gen</w> 43255
ic ks</w> 43253
ob j 43250
li sten</w> 43237
Sco tt</w> 43230
differ ence</w> 43211
ges ell 43205
ut s</w> 43186
k id 43163
me tho 43161
kon ferenz</w> 43150
er ziel 43146
vo ice</w> 43142
r ag 43140
T est</w> 43133
Gewin n</w> 43133
Schwei zer</w> 43126
eff ects</w> 43101
sur gery</w> 43098
c ra 43097
mov ement</w> 43093
amm ed</w> 43084
sch au 43079
Per sonen</w> 43077
li ved</w> 43053
ne ar 43047
Schal ke</w> 43045
Ar me 43038
Jo b</w> 43030
c amp</w> 43016
it ting</w> 43016
z ahl</w> 43015
o ta</w> 42969
spre ad</w> 42964
custom er</w> 42963
po unds</w> 42962
tain ing</w> 42933
Ad minist 42917
verk ehr</w> 42915
Bere its</w> 42913
cent re</w> 42889
g a</w> 42888
b a</w> 42886
li eben</w> 42882
leit er</w> 42877
c u 42872
H S 42852
gr and 42852
tar ge 42841
rech t 42839
com par 42835
Bra sili 42826
ge zeigt</w> 42817
proc e 42812
m einer</w> 42805
ra g</w> 42797
bu ying</w> 42796
m m 42794
ren e 42792
A th 42791
ak s</w> 42785
gel t</w> 42759
Vertre ter</w> 42758
Ro ck</w> 42747
la h</w> 42745
d ents</w> 42744
wor se</w> 42740
vo tes</w> 42734
Lin k 42708
p ick</w> 42706
D D 42704
fa ir 42697
k el 42689
T äter</w> 42689
hol ds</w> 42684
resp ect</w> 42684
part ner 42674
L im 42671
T ony</w> 42661
ap e</w> 42660
me ant</w> 42651
we ist</w> 42645
St ill</w> 42644
beg innt</w> 42637
bri dge</w> 42633
Ex ecu 42631
E v 42621
set ting</w> 42609
Schl ag 42588
Di re 42586
re si 42583
4 8 42578
pri mar 42562
ex ac 42558
mo stly</w> 42547
marri age</w> 42542
re vol 42536
t ö 42535
Te am 42530
gelö st</w> 42530
reta il</w> 42524
nis sen</w> 42520
Me dical</w> 42506
Gr and</w> 42497
f ang 42496
l or</w> 42495
Y et</w> 42491
her aus 42482
gan zen</w> 42478
har t</w> 42465
F un 42463
t v 42460
h i</w> 42458
dig ital</w> 42454
Is land</w> 42454
b ahn</w> 42445
mo del 42443
com man 42437
advert ising</w> 42428
j ury</w> 42400
bek ann 42398
Wester welle</w> 42387
at or 42386
Verk auf</w> 42369
low - 42366
Gre en 42358
N ähe</w> 42353
FD P- 42337
te sten</w> 42321
bo t 42312
mehr eren</w> 42310
sen ator</w> 42302
fall ing</w> 42276
N ür 42273
gu ard</w> 42270
m ir 42263
N H 42263
fri end 42257
D üssel 42254
prof iti 42254
ash ed</w> 42230
St ru 42226
Kap ital 42221
V ar 42214
pro gramm</w> 42204
Her steller</w> 42197
sch lim 42196
ou ts</w> 42194
D un 42191
gri ffen</w> 42176
K urs 42171
Großbritann ien</w> 42170
ad d</w> 42169
F err 42156
d ol 42145
Spiel en</w> 42139
N AS 42136
R ein 42133
O sc 42128
poli s</w> 42120
Geb ur 42117
as king</w> 42110
Ari z 42110
c ting</w> 42104
secon ds</w> 42093
A gency</w> 42087
accoun ts</w> 42086
sch i 42085
pol l</w> 42085
sw ahl</w> 42083
li ert</w> 42063
wär en</w> 42060
ch oo 42055
tourn ament</w> 42044
Fir men</w> 42039
es cap 42030
L a</w> 42028
Ver letz 42025
ed a</w> 42021
H all</w> 42017
6 2</w> 42015
op in 41999
chec k</w> 41998
Ver einig 41988
e di 41984
m einen</w> 41980
Ge gen</w> 41977
Mich igan</w> 41976
zufrie den</w> 41961
fac ility</w> 41958
g lichen</w> 41933
stark en</w> 41926
0 1</w> 41925
air port</w> 41911
sp rä 41906
m assi 41900
bo ys</w> 41897
it ar 41888
L aw 41875
rema ining</w> 41875
Invest oren</w> 41869
writ ing</w> 41863
R hein 41856
Musi k 41845
0 2</w> 41843
U kra 41816
t um 41790
be gan 41777
we ak 41764
itz e</w> 41764
er fül 41762
- up</w> 41759
ve au</w> 41759
nor thern</w> 41757
schle cht</w> 41753
d ner</w> 41751
Finanz minister</w> 41750
D . 41740
H op 41730
Akti e</w> 41730
tro tzdem</w> 41725
Sel bst</w> 41723
FT D.de</w> 41723
Ste fan</w> 41720
ow a</w> 41717
krä fte</w> 41717
W ien</w> 41701
A N</w> 41694
dec la 41689
langu age</w> 41673
er er</w> 41657
o is</w> 41650
sc ore</w> 41647
m as</w> 41631
mo dern</w> 41630
uns er</w> 41617
D op 41615
D all 41612
hel ps</w> 41602
7 1</w> 41592
di agno 41587
separ ate</w> 41585
ear ned</w> 41562
commit ment</w> 41557
ü hr 41556
iel le</w> 41555
war nt</w> 41553
boo st</w> 41552
dis covered</w> 41549
U N</w> 41543
opportun ities</w> 41536
for dern</w> 41531
war ning</w> 41525
it a</w> 41519
alle g 41517
z ü 41512
Rom an</w> 41509
gro w</w> 41497
fe u 41494
schließ end</w> 41494
convic ted</w> 41486
0 7</w> 41480
sch we 41477
ad op 41471
mo sp 41468
Australi an</w> 41468
Organis ation</w> 41461
gewäh lt</w> 41459
F al 41458
w on 41456
Ar ti 41439
mut lich</w> 41433
J im</w> 41428
For sch 41426
verantwor tlich</w> 41424
stre ets</w> 41413
S oc 41405
n i 41397
Zusammen arbeit</w> 41383
w illing</w> 41379
s inn 41376
announ cement</w> 41375
Sicher heit 41374
stor m</w> 41359
pro vince</w> 41358
ic es</w> 41356
auth or</w> 41349
pl ays</w> 41343
6 8</w> 41341
d d 41340
Liver pool</w> 41333
brit ischen</w> 41298
mer k 41295
cur ren 41284
law yers</w> 41283
über rasch 41282
danger ous</w> 41278
de ck 41277
ver letz 41261
Jer sey</w> 41259
rei fen</w> 41251
Itali an</w> 41250
prof its</w> 41243
air craft</w> 41240
sch au</w> 41236
ver trag</w> 41234
c a 41232
I mp 41227
Su preme</w> 41212
ul tim 41211
neg ative</w> 41210
ko stet</w> 41209
pre ise</w> 41195
sch eme</w> 41194
kon kre 41189
ex erc 41188
n or</w> 41177
simp le</w> 41176
it te</w> 41174
fe eling</w> 41169
ec k</w> 41156
er o 41154
E Z 41150
Lu ft</w> 41148
sex ual</w> 41146
comple x</w> 41136
D N 41135
ist ische</w> 41120
J on 41100
auth or 41095
deli ver</w> 41089
p ush</w> 41075
Tex t</w> 41071
M ens 41063
Die go</w> 41049
I C 41048
er ster</w> 41047
Brüs sel</w> 41043
erhe b 41040
in su 41039
Da ily</w> 41038
sp ann 41031
ha fen</w> 41028
Bec k 41013
Re gel 41011
t ely</w> 41004
ph ones</w> 40994
L ord</w> 40990
V e 40981
bom b</w> 40976
Gew inn 40975
Her r 40972
lei st 40965
ordin ary</w> 40964
Neu es</w> 40951
Musli m</w> 40938
ach ers</w> 40933
Geschäfts führer</w> 40923
mer t</w> 40921
ver lan 40910
P sy 40895
Z eh 40895
West en</w> 40892
sätz e</w> 40891
commun ities</w> 40887
V iel 40846
soc iety</w> 40831
it ts 40829
R ud 40821
ex pressed</w> 40818
C r 40810
environ mental</w> 40809
St elle</w> 40800
for men</w> 40797
Bar cel 40796
four - 40791
Ariz ona</w> 40788
Chr ys 40765
f ying</w> 40758
stär k 40754
S ant 40732
on ents</w> 40727
il ton</w> 40716
terror ism</w> 40715
Gesprä che</w> 40711
pro min 40706
ad just 40706
Num mer</w> 40706
V oll 40698
7 .</w> 40684
tr ust</w> 40673
T ier 40672
6 3</w> 40662
den de</w> 40660
L ang 40659
im ple 40657
Adres se</w> 40657
än dern</w> 40654
ord nung</w> 40654
lin ge</w> 40633
Vor stand</w> 40625
S i 40620
Um satz</w> 40618
Her bst</w> 40612
bo dies</w> 40607
Fo undation</w> 40607
Patri ck</w> 40602
pic ture</w> 40591
cl ass 40582
Lou is</w> 40577
fic ation</w> 40573
at z 40571
be steht</w> 40564
ic ken</w> 40560
Col umb 40552
dar in</w> 40548
b ann 40547
ein er 40542
speci fic</w> 40539
reve aled</w> 40514
d opp 40504
t äu 40503
D on 40499
is land</w> 40498
scienti sts</w> 40497
ähri ger</w> 40496
ple ase</w> 40492
jem and</w> 40491
fac ilities</w> 40490
hous es</w> 40488
V ene 40484
re publi 40483
magaz ine</w> 40483
pan el</w> 40473
lit er 40469
near by</w> 40461
mö gen</w> 40458
reas ons</w> 40453
Pati enten</w> 40450
sch m 40446
pre sence</w> 40445
10 , 40438
gew ann</w> 40423
sm aller</w> 40416
li ghts</w> 40415
Büh ne</w> 40405
pur su 40398
6 9</w> 40392
mar ried</w> 40389
li gt</w> 40384
feat ures</w> 40384
h urt</w> 40377
it ation</w> 40342
el ected</w> 40328
fe es</w> 40326
G ei 40322
Ste p 40312
Ant wort</w> 40308
bo ur 40304
To des 40302
at ure</w> 40295
7 7</w> 40285
geb iet</w> 40283
th in</w> 40282
allow ing</w> 40276
dou bt</w> 40267
it e 40262
just ice</w> 40261
-- -</w> 40255
on er</w> 40247
de - 40243
sho ts</w> 40237
secur ities</w> 40231
Ver bin 40220
Sim on</w> 40212
enn ung</w> 40210
Instit ut</w> 40206
th west</w> 40200
Mag az 40192
D inge</w> 40190
sch lu 40188
ag ues</w> 40183
Besu ch</w> 40183
so und</w> 40176
P rü 40174
ans as</w> 40171
scre en</w> 40168
elec tron 40164
entwick elt</w> 40160
reduc ed</w> 40156
ö ster 40144
applic ations</w> 40143
K ein</w> 40142
Pub lic</w> 40106
ger ufen</w> 40094
negoti ations</w> 40089
l s 40085
ur ged</w> 40078
is s</w> 40075
pre par 40068
sch were</w> 40066
j ur 40062
Can adi 40059
Hosp ital</w> 40052
Hand els 40050
har m 40048
Jo urnal</w> 40044
Pun kt</w> 40035
sec ure</w> 40033
ath le 40030
law makers</w> 40029
lin ked</w> 40022
ey es</w> 40022
stre t 40016
neh in</w> 40006
hab t</w> 40004
S eb 39992
sitz t</w> 39982
H ur 39977
französ ischen</w> 39972
ack er</w> 39971
cre w</w> 39968
campa ig 39967
M E 39963
fres h</w> 39946
ten de</w> 39942
ver ab 39932
O ut 39924
li eb 39922
figh ters</w> 39920
rä fte</w> 39919
rich ten</w> 39915
Qu ali 39911
Parlam ent 39911
i ellen</w> 39909
O ver</w> 39904
Mer ce 39900
astrop he</w> 39886
z erst 39885
her aus</w> 39875
p ain</w> 39844
ad voc 39826
st ets</w> 39822
Verantwor tung</w> 39814
S ab 39811
To yo 39811
Nachrichten agentur</w> 39810
Kur z 39795
z iger</w> 39794
Schmid t</w> 39787
St atist 39783
D A</w> 39782
con servative</w> 39779
6 .</w> 39767
De velop 39764
k einer</w> 39760
versu chen</w> 39754
spr ing</w> 39753
industri al</w> 39741
1 1 39740
professi on 39730
Wi es 39726
cap acity</w> 39721
Nür n 39695
b ay 39693
ig ung</w> 39691
n esses</w> 39684
zie hung</w> 39679
mo tor 39674
t y 39670
er mittel 39667
7 8 39662
ie ten</w> 39659
Arbeits lo 39658
Y an 39656
Iran ian</w> 39655
disk u 39653
fi ve- 39648
ein st</w> 39641
fin ding</w> 39635
Z um 39634
con ver 39633
distri bu 39632
Ar sen 39631
institu tions</w> 39625
mon g</w> 39624
or ders</w> 39621
sc en 39615
mi um</w> 39614
promis e</w> 39608
Gut tenberg</w> 39608
as ing</w> 39604
wech sel</w> 39602
writ er</w> 39597
Maß nahmen</w> 39594
syl van 39589
s ons</w> 39583
D .</w> 39582
Lei stung</w> 39577
deg ree</w> 39570
k eit 39568
Mid dle</w> 39564
pub l 39561
Y ou 39556
rel ess</w> 39551
6 1</w> 39539
Re form</w> 39534
inter essi 39528
Camer on</w> 39527
ü ter</w> 39518
Cali f</w> 39516
Ver lu 39507
Inform ation</w> 39505
N u 39500
vor zu 39492
Bl ack</w> 39484
rul ed</w> 39471
Sch wer 39462
Ermitt lungen</w> 39461
Sh i 39455
Ä gyp 39454
re ality</w> 39448
is se 39436
s ought</w> 39412
Hinter grund</w> 39409
T wit 39398
Besu cher</w> 39398
pl ötzlich</w> 39388
est s</w> 39384
beh aup 39380
li ge</w> 39367
ent y</w> 39366
Fran z</w> 39359
Radi o</w> 39359
Stra ßen 39343
dem nach</w> 39339
k ehr</w> 39337
w ins</w> 39335
n es 39332
T ore</w> 39328
ö ße</w> 39327
In solven 39325
he ar 39309
altern ative</w> 39309
coun ter 39304
pul led</w> 39300
exp ensive</w> 39294
spr ün 39294
tra f</w> 39292
B ow 39290
communic ations</w> 39284
requ est</w> 39280
coun ts</w> 39272
hän gt</w> 39267
so zial 39266
challeng es</w> 39255
fel low</w> 39247
Sar ah</w> 39247
ber icht</w> 39244
d ach 39243
ge fallen</w> 39218
be trei 39215
Penn sylvan 39204
Mei ster</w> 39187
sto ß</w> 39182
bel ast 39170
L oh 39168
frau d</w> 39168
mid - 39161
f en 39141
stu dies</w> 39137
St ellen</w> 39133
def ic 39132
ü r</w> 39129
e ase</w> 39126
troub le</w> 39126
inn ings</w> 39118
holi day</w> 39109
actu al</w> 39099
mein t</w> 39094
Auf gabe</w> 39084
Bran che</w> 39083
mög liche</w> 39072
pre h 39062
A ra 39044
ge troffen</w> 39041
prin cip 39041
weit en</w> 39014
N etz</w> 39012
fli ct</w> 39012
blo ck</w> 39009
di vision</w> 39003
C lau 39001
perf ect</w> 39000
om b 38998
se it 38995
ar ran 38990
stei gt</w> 38986
ab use</w> 38985
T aus 38983
fam ous</w> 38981
resc ue</w> 38971
Tages zeitung</w> 38969
interest s</w> 38961
Stu denten</w> 38953
fan gen</w> 38953
disc uss 38948
T at</w> 38937
Fern sehen</w> 38914
Ele c 38902
erk ennen</w> 38885
Onlin e- 38882
1 1.</w> 38878
zeu gen</w> 38875
Execu tive</w> 38863
Aug .</w> 38854
w under 38848
adel ph 38841
be grün 38839
g ünst 38830
Reser ve</w> 38828
tra dition 38825
ir y</w> 38815
f at 38813
Put in</w> 38808
S ex 38802
car rying</w> 38790
D al 38782
lie ber</w> 38781
E ing 38779
si onen</w> 38777
Z er 38773
Han del</w> 38769
b ü 38758
Phil adelph 38744
S ud 38740
sum mit</w> 38739
gesch ichte</w> 38734
d am</w> 38733
St ür 38731
ho ben</w> 38731
le ts</w> 38724
Wh y</w> 38723
be deutet</w> 38720
ic op 38718
Ergeb nisse</w> 38717
Mur ray</w> 38713
Außen minister</w> 38708
spe aking</w> 38703
T em 38700
Den noch</w> 38696
re bo 38689
alis mus</w> 38673
H ist 38671
gi ant</w> 38669
loc ated</w> 38658
Journal isten</w> 38657
r ally</w> 38646
Bec k</w> 38641
Pos ition</w> 38638
ter rit 38635
Re port</w> 38632
stan ces</w> 38624
199 7</w> 38612
bin ation</w> 38609
gre w</w> 38604
acc ept</w> 38598
Mon t 38591
Vi elleicht</w> 38589
St ud 38587
Barcel ona</w> 38585
Chrys ler</w> 38568
ing ham</w> 38561
requ ire</w> 38560
an gel 38557
ti m</w> 38555
Re ise</w> 38554
Pr ince</w> 38553
ver pflich 38549
k auf 38548
associ ated</w> 38545
decla red</w> 38542
a ß</w> 38534
tr at</w> 38518
S C</w> 38500
F ig 38496
v als</w> 38495
R oll 38495
Person al 38490
St amm 38484
stimul us</w> 38484
Stein meier</w> 38475
p age</w> 38474
bed ingt</w> 38470
Fir st 38455
ent ri 38451
re y</w> 38450
fu hr</w> 38450
T M</w> 38446
on lin 38443
199 5</w> 38439
religi ous</w> 38433
ter en</w> 38419
ra f</w> 38418
D r</w> 38417
Verteidig ungs 38413
Pro duc 38410
B A 38404
sp er 38404
Ham ilton</w> 38396
j ahr 38387
w en</w> 38387
hand eln</w> 38386
brit ische</w> 38381
Mein ung</w> 38371
un employment</w> 38369
sitz en</w> 38360
or - 38351
B ad</w> 38350
Ro ck 38345
bed ing 38340
Her r</w> 38327
determin ed</w> 38325
welt .de</w> 38324
dan ken</w> 38319
Mei ster 38318
ac ken</w> 38314
invest ments</w> 38313
Mens ch</w> 38313
Gef än 38307
Mar ia</w> 38306
erfolgre ich</w> 38302
Ko ch</w> 38296
Bei de</w> 38288
si x 38286
A mong</w> 38285
grei fen</w> 38281
Publik um</w> 38278
spre cher</w> 38269
K am 38267
allow s</w> 38264
fl uss</w> 38256
occ up 38248
Stand ard</w> 38245
k ürz 38233
L eu 38225
tag s 38225
Be zir 38222
emis sions</w> 38220
lo ts</w> 38213
glau bt</w> 38213
execu tives</w> 38210
G O 38203
promis ed</w> 38197
an gen</w> 38190
s anc 38187
Pe king</w> 38187
adv ice</w> 38187
li s</w> 38186
str ation</w> 38184
G ir 38182
Schwei z</w> 38182
G D 38172
ag on</w> 38169
ast ian</w> 38163
S A</w> 38161
Tim e</w> 38161
www. welt.de</w> 38154
j ap 38147
l ying</w> 38132
el son</w> 38122
ac com 38119
lei sten</w> 38109
Dre i</w> 38109
foli o</w> 38108
Sek unden</w> 38107
sch aff 38094
d ent 38080
ag ree</w> 38079
au ßerdem</w> 38071
Al tern 38069
e an</w> 38065
je denfalls</w> 38057
ter y</w> 38050
ff enen</w> 38046
Pennsylvan ia</w> 38034
Har ry</w> 38025
be st 38023
ho t</w> 38017
2 2 38014
ein gel 37998
d rei 37996
ell o</w> 37996
Kranken haus</w> 37994
Rei he</w> 37989
H us 37976
tel eph 37971
pen dence</w> 37971
Step hen</w> 37968
kämp fen</w> 37956
sur ve 37942
wat ching</w> 37934
or ie</w> 37929
H im 37925
E ben 37921
Ah mad 37920
t isch</w> 37919
Z ur</w> 37914
Dies es</w> 37913
v ac 37910
t n 37904
bestä tigte</w> 37902
rei ben</w> 37900
Philadelph ia</w> 37900
im age</w> 37899
repor ting</w> 37899
NAT O</w> 37895
govern ments</w> 37889
y en</w> 37887
E very 37882
ar a</w> 37878
H essen</w> 37876
pp en</w> 37867
Dav is</w> 37859
Re b 37858
health y</w> 37858
em en</w> 37849
th r 37838
ist isch</w> 37838
estim ates</w> 37838
impro ved</w> 37831
Dien st 37828
W aff 37824
hö ri 37815
H under 37813
F und</w> 37787
- An 37782
Kore an</w> 37782
Drit tel</w> 37778
con flict</w> 37776
ten e</w> 37776
w ig 37774
Bri an</w> 37771
I M 37769
5 8 37759
ger aten</w> 37759
E he 37750
Woh nung</w> 37748
estab lished</w> 37741
rech net</w> 37739
Rah men</w> 37739
e- mail</w> 37737
itu de</w> 37737
D V 37734
ol itik</w> 37732
nat ure</w> 37705
feh lt</w> 37704
tempor ary</w> 37701
re sol 37693
Lie be</w> 37686
deci de</w> 37686
kom mun 37677
le i</w> 37664
ed y</w> 37659
Bör se</w> 37659
Pol itik 37652
cer em 37651
steh enden</w> 37648
E t 37645
sta at</w> 37638
J ung 37634
individu als</w> 37629
b ru 37622
D S</w> 37616
ey e</w> 37599
bestä tigt</w> 37593
Su che</w> 37586
Bundesk anzlerin</w> 37577
fu n</w> 37572
li t</w> 37564
Br un 37561
industri e</w> 37561
R yan</w> 37560
comp ensation</w> 37555
Schließ lich</w> 37534
Cha ir 37533
Z un 37528
Mi ami</w> 37524
N ations</w> 37523
fre und 37514
Stra ßen</w> 37514
a sion</w> 37511
nö tig</w> 37509
Unterneh men 37503
F . 37496
bi o 37496
W ag 37484
terror ist</w> 37484
cut ting</w> 37483
z eiten</w> 37481
ol a</w> 37480
en for 37465
test ing</w> 37464
E astern</w> 37451
per cent 37451
Auf tritt</w> 37447
Amerik aner</w> 37447
is ra 37442
R ights</w> 37424
zei chen</w> 37416
Inter ne 37415
we aring</w> 37412
i z</w> 37409
Fahr er</w> 37407
7 3</w> 37386
Fin ale</w> 37384
Pro vin 37377
Re z 37369
entfer nt</w> 37369
fe ars</w> 37360
frei en</w> 37360
1 000</w> 37357
ali a</w> 37354
Är zte</w> 37344
In stead</w> 37343
jüng sten</w> 37342
Z wis 37335
ei ch 37318
ander es</w> 37318
GA AP</w> 37309
I .</w> 37308
exac tly</w> 37301
de als</w> 37298
gu id 37298
c ts</w> 37297
Berluscon i</w> 37296
O sten</w> 37294
ver län 37284
comple tely</w> 37280
qu id 37279
w an</w> 37266
an den</w> 37265
p ir 37260
3 9 37259
gebro chen</w> 37257
Verkehr s 37253
sa d 37230
20 13</w> 37228
Ver sicher 37217
sib ly</w> 37217
oc cur 37215
Joh ann 37212
ho fft</w> 37210
exp ects</w> 37209
Bo b</w> 37207
Ph illi 37206
Plän e</w> 37204
- P 37201
ar ily</w> 37180
Def ense</w> 37178
Go tt 37177
M em 37176
Wachst um</w> 37174
ful l- 37159
dis h</w> 37154
Sco tt 37149
Nachfol ger</w> 37144
d rück 37138
n al</w> 37126
head s</w> 37114
verb in 37111
BIL D</w> 37110
Yo ung</w> 37104
Tay lor</w> 37103
T emp 37102
G abri 37101
em an</w> 37095
star ke</w> 37091
K lim 37090
v inc 37088
br auch</w> 37088
Tit el 37087
über nehmen</w> 37083
itä n</w> 37083
off s</w> 37080
n i</w> 37079
Ri es 37062
circ um 37059
den den</w> 37058
passi ert</w> 37050
oh nehin</w> 37035
et ings</w> 37032
ap art 37029
pl ants</w> 37027
car bon</w> 37022
ti er 37021
A BC</w> 37018
Her z 37016
Her aus 37015
s amen</w> 37011
st ent</w> 37011
ra d</w> 37003
t elling</w> 37002
N ich 36993
In come</w> 36991
Dall as</w> 36980
gra de</w> 36974
Ges icht</w> 36965
Kop f 36965
gen eh 36958
Z in 36948
Off ici 36941
ab gel 36939
mein te</w> 36934
mon d</w> 36932
C ru 36925
ver stär 36913
G ates</w> 36905
ad en 36905
k ill</w> 36901
Vorwür fe</w> 36901
G a 36883
us en</w> 36872
Go d</w> 36868
der te</w> 36865
glau ben</w> 36865
ob lig 36864
ges etz</w> 36853
po und</w> 36849
C o</w> 36827
ag ent</w> 36822
re member</w> 36821
Po st 36821
Le verk 36821
zahl reiche</w> 36819
prote sts</w> 36818
fin ish</w> 36816
Er war 36813
gres sive</w> 36809
GM T</w> 36807
inst it 36803
initi al</w> 36803
sav ings</w> 36797
v ul 36795
schätz ung</w> 36779
Nach frage</w> 36775
gu y</w> 36774
alis m</w> 36772
f ris 36768
St ars</w> 36762
zäh len</w> 36762
Direc tor</w> 36761
schö n</w> 36757
iPh one</w> 36757
P la 36747
Sch um 36747
rou gh</w> 36738
Mit tel</w> 36718
behör de</w> 36705
t ischen</w> 36700
E gyp 36694
br inging</w> 36694
L yn 36692
Ro d 36691
ter s 36689
deutsch er</w> 36682
strug gling</w> 36680
A gent 36677
7 4</w> 36670
Administ ration</w> 36663
Strat eg 36662
T ai 36656
Al t 36656
B ang 36646
beg onnen</w> 36646
Zwei fel</w> 36644
isra el 36633
bür ger 36631
gain s</w> 36625
lö sen</w> 36624
k raft</w> 36623
Ale x</w> 36622
pro ve</w> 36621
I owa</w> 36620
auth ority</w> 36608
star ts</w> 36606
sogen annten</w> 36590
inten si 36589
pre m 36588
hum an 36575
o vic</w> 36563
part ners</w> 36555
C i 36552
lar ger</w> 36547
amer as</w> 36547
M eh 36545
Pub lished</w> 36539
bra in</w> 36536
W un 36533
m än 36532
Nat ürlich</w> 36527
bank rup 36522
A li 36504
First Call</w> 36498
A C</w> 36496
verur teilt</w> 36493
Zeit punkt</w> 36484
tion ed</w> 36476
f ast 36473
K ün 36462
G ul 36458
F ur 36448
s au 36444
Europä ischen</w> 36433
B and</w> 36425
Zwis chen 36421
Kontrol le</w> 36412
Feb .</w> 36407
tem per 36405
conduc t</w> 36405
ri es 36400
Olymp ics</w> 36399
Fre und</w> 36397
sat is 36393
P A</w> 36391
wich tige</w> 36391
Kun st</w> 36390
b a 36380
entde ckt</w> 36368
at isch</w> 36354
dri ven</w> 36353
7 6</w> 36345
m äch 36342
d ited</w> 36337
el ine</w> 36331
bro ken</w> 36327
müs ste</w> 36324
W rit 36310
Democ rat</w> 36303
K enn 36301
zeich nete</w> 36299
m bo 36290
ur al</w> 36280
al- Qa 36271
m on</w> 36268
ungsp ro 36263
vic tim</w> 36260
Bec ause</w> 36255
ik a</w> 36241
R ü 36223
un abhän 36219
Mor gen</w> 36219
Kul tur</w> 36219
Win ter</w> 36212
head ed</w> 36186
Gebäu de</w> 36184
Por sche</w> 36183
Il lin 36179
el im 36178
univers ity</w> 36177
F R- 36176
L t 36164
al em</w> 36154
Pac i 36147
Z im 36141
Sto ck</w> 36140
ve z</w> 36131
extrem ely</w> 36131
B .</w> 36122
es ch 36119
al ties</w> 36111
stell ungen</w> 36109
igh t 36109
bun des 36108
n d</w> 36104
Minist ry</w> 36101
C BS</w> 36100
For ce</w> 36099
Asi an</w> 36080
influ ence</w> 36080
Er st 36079
Ih nen</w> 36072
pri or</w> 36065
kritis iert</w> 36064
present ed</w> 36058
J obs</w> 36055
uni que</w> 36046
6 8 36039
al co 36039
k am 36038
Kom ment 36036
defe at</w> 36029
sli ghtly</w> 36026
To p</w> 36014
ir ing</w> 36003
Ne ue</w> 35988
ti ef</w> 35987
Fo x</w> 35969
bur y</w> 35963
bot tom</w> 35958
sto ck 35953
cul tural</w> 35952
re bel 35951
Energ ie</w> 35950
exp an 35940
offic es</w> 35924
hol e</w> 35922
be troffen</w> 35914
T - 35906
incre ases</w> 35906
kehr t</w> 35898
CS U- 35890
sie g</w> 35890
essi ons</w> 35888
f are</w> 35883
re mo 35879
ri t</w> 35879
sch ä 35872
weit e</w> 35867
sent ence</w> 35857
Chair man</w> 35857
Scott ish</w> 35852
passen gers</w> 35850
zurück ge 35845
fle x 35843
f tung</w> 35840
f ish</w> 35833
organiz ations</w> 35832
Gaddaf i</w> 35825
per man 35818
fin ancing</w> 35812
dür ften</w> 35812
PRNewswire- FirstCall</w> 35806
interest ed</w> 35799
Schl uss</w> 35794
M illion</w> 35793
Te ams</w> 35786
Paci fic</w> 35782
do zen</w> 35779
inten ded</w> 35767
K ro 35757
ed ge</w> 35757
pre gn 35755
ut ing</w> 35745
f low</w> 35738
wichtig sten</w> 35737
ge habt</w> 35734
appro val</w> 35732
alleg ations</w> 35732
stei ger</w> 35731
zu gleich</w> 35726
appar ently</w> 35714
W it 35706
auf s</w> 35705
Dort mund</w> 35705
u k</w> 35704
r on</w> 35701
br ut 35699
d adurch</w> 35695
Konkurren z</w> 35689
rich tung</w> 35685
fem ale</w> 35683
Milliar den 35682
Akti v 35677
internation ale</w> 35670
Atlan ta</w> 35668
z ielt</w> 35663
me d 35650
cle an</w> 35625
li st 35619
woun ded</w> 35619
fas st</w> 35618
restau rant</w> 35613
ti er</w> 35612
-- --</w> 35609
er ne</w> 35606
u cht</w> 35603
susp ect</w> 35600
z iti 35598
gewor fen</w> 35589
2 1 35580
f ährt</w> 35576
st ake</w> 35575
St är 35564
M ir 35559
hel icop 35558
ro oms</w> 35555
el ed</w> 35552
un likely</w> 35547
car ri 35547
Flug hafen</w> 35546
F ak 35537
verän dert</w> 35537
ak zep 35535
J ur 35534
hin zu</w> 35531
aus län 35526
ten den</w> 35517
doc tor</w> 35517
- to- 35514
steu er</w> 35512
sh el 35496
susp ected</w> 35493
ri can 35490
ec tions</w> 35490
t ant</w> 35488
Hou ston</w> 35480
star tet</w> 35462
ab gesch 35453
R as 35452
D omin 35451
entw ickl 35444
Liby en</w> 35443
si ght</w> 35440
Ro ad</w> 35434
c us</w> 35418
Vide o</w> 35411
my self</w> 35408
ma d</w> 35404
stra h 35404
T H 35385
H as 35384
cre ating</w> 35371
si g</w> 35368
Mob il 35367
onlin e.de</w> 35365
wir ken</w> 35363
or gt</w> 35357
C ast 35352
n- tv 35345
out standing</w> 35341
Bay ern 35340
B ou 35336
rej ected</w> 35333
7 8</w> 35329
ou l</w> 35326
teleph one</w> 35324
R und</w> 35322
w ä 35319
K eine</w> 35311
erinn ert</w> 35309
eas ily</w> 35308
Hen ry</w> 35308
sy n 35305
aim ed</w> 35304
Lin ie</w> 35298
tou ch 35289
appropri ate</w> 35279
G - 35278
Demok rati 35271
St and</w> 35265
bo tt 35245
th e- 35237
critic ism</w> 35235
s la 35226
pro test</w> 35224
fest genommen</w> 35223
geplan ten</w> 35220
x es</w> 35218
ein ger 35215
j ail</w> 35210
Yan ke 35200
4 9 35195
W ie 35192
charac ter</w> 35192
Be deut 35190
fil ms</w> 35190
S ign 35189
ig ation</w> 35187
ast s</w> 35179
immedi ate</w> 35174
lo ad</w> 35172
comb ined</w> 35169
möglich erweise</w> 35166
compet itive</w> 35157
umst rit 35157
au ßen</w> 35155
kl agt</w> 35154
äu fer</w> 35141
al u 35140
Kre is 35137
prü fen</w> 35137
Pakist ani</w> 35136
ex hib 35130
gan gs 35126
sch auen</w> 35125
l esen</w> 35122
Ur lau 35122
Al len</w> 35119
Illin ois</w> 35116
L og 35110
s low</w> 35105
et tel</w> 35103
ol er 35084
tur ing</w> 35079
su d 35078
Mar ke</w> 35077
Kran k 35075
ge fordert</w> 35073
Nach dem</w> 35067
low ing</w> 35063
Sch ön 35062
w ander 35045
win d 35035
MP s</w> 35033
L is 35030
n-tv .de</w> 35030
gi gen</w> 35029
be tra 35024
Frie den 35021
mann schaft</w> 35020
g rie 35005
Toyo ta</w> 35003
prosec utors</w> 34992
acci dent</w> 34987
mar t</w> 34981
trag s 34979
co alition</w> 34975
G las 34963
stra fe</w> 34962
i or 34951
Sp ace</w> 34949
wid ely</w> 34938
ban ken</w> 34920
Be obach 34916
forec ast</w> 34915
sel ten</w> 34909
Ser ie</w> 34908
pen alty</w> 34903
ti erten</w> 34899
t tem 34896
No ten 34894
subsi di 34893
in son</w> 34892
a ward</w> 34869
R af 34869
Schul en</w> 34866
w onder 34857
Oh ne</w> 34850
iel ten</w> 34849
gener ally</w> 34847
Ma il</w> 34846
20 .</w> 34845
J enn 34836
ub le</w> 34833
pen ding</w> 34832
re ck 34824
al a</w> 34819
pe ac 34817
S her 34813
K urs</w> 34812
Con su 34780
F BI</w> 34772
ell a</w> 34753
ow ed</w> 34753
par liament</w> 34747
St ri 34742
r are</w> 34731
ff s</w> 34717
Fre unde</w> 34709
physi cal</w> 34706
P ic 34693
arti cle 34692
buil dings</w> 34690
H amp 34688
cri mes</w> 34681
mo tiv 34679
Die ter</w> 34674
u l</w> 34669
l eng 34664
Er klärung</w> 34663
glau be</w> 34661
politici ans</w> 34659
b rief 34658
kl ei 34658
stä d 34651
. .</w> 34648
N er 34640
sug gest</w> 34638
c tive</w> 34637
bereit et</w> 34636
threat ened</w> 34634
id ent 34621
scri p 34617
N ad 34611
al lies</w> 34609
rec ru 34605
may be</w> 34605
L - 34594
F en 34582
mark t 34578
Dopp el 34577
BM W</w> 34576
hop ing</w> 34572
G or 34571
Famili en</w> 34570
confi dent</w> 34569
percent age</w> 34561
Brand en 34557
prü ft</w> 34550
ak ed</w> 34546
Dan ach</w> 34536
Ban ken 34534
vorsitz ende</w> 34534
her vor 34530
S ter 34525
Mus har 34520
Schau spiel 34507
V eg 34504
adv anced</w> 34502
positi ons</w> 34501
deli very</w> 34494
auf hin</w> 34487
form ed</w> 34485
ho p</w> 34479
spiel te</w> 34479
des ign 34466
G ames</w> 34458
colle agues</w> 34458
b ein 34451
com fort 34450
spr ung</w> 34442
ac tors</w> 34439
Rück tritt</w> 34439
streng th</w> 34437
R and 34426
conduc ted</w> 34421
c nt</w> 34420
ber n</w> 34417
Se e</w> 34412
D onald</w> 34399
ro ll</w> 34395
Det ails</w> 34391
Tab ellen 34387
auf grund</w> 34383
M iller</w> 34381
län dern</w> 34379
chang ing</w> 34378
rich ter</w> 34371
FR- online.de</w> 34353
per fe 34342
Pol en</w> 34331
betei ligt</w> 34321
om a</w> 34320
stec kt</w> 34315
ti ed</w> 34307
am in</w> 34303
n annte</w> 34298
bo y 34284
consider ing</w> 34264
M ie 34259
g ä 34255
pos sibility</w> 34250
Bes onders</w> 34249
basi c</w> 34244
3 5 34243
Je der</w> 34242
ver mutlich</w> 34241
mar gin</w> 34234
se as</w> 34210
introduc ed</w> 34202
B au</w> 34201
al bum</w> 34200
Tar if 34200
if y</w> 34197
k m</w> 34196
G il 34196
russ ischen</w> 34196
offen sive</w> 34187
Arme e</w> 34175
su res</w> 34161
Lu f 34160
rä ger</w> 34154
sch eit 34149
n ungs 34146
Ch em 34137
An griff</w> 34136
8 8 34128
inf ra 34121
we ar</w> 34116
In tegr 34115
Al les</w> 34113
des er 34107
ges sen</w> 34102
se es</w> 34091
Stim mung</w> 34088
ge tr 34082
vor aus 34079
sever e</w> 34070
sto cks</w> 34068
ic an</w> 34067
R al 34064
15 . 34054
ber eich</w> 34053
Canadi an</w> 34052
Haf t</w> 34042
ell es</w> 34036
ah nen</w> 34030
unter wegs</w> 34030
f ly</w> 34026
secre t</w> 34015
Im mer</w> 34012
ti e 34011
ed ly</w> 34005
di ert</w> 34004
ber u 34004
M etro 34001
vis itors</w> 34000
vill age</w> 34000
fash ion</w> 33998
Be fore</w> 33993
em br 33990
Col or 33989
se ats</w> 33985
m - 33983
Welt meister</w> 33973
g lo 33971
bie ter</w> 33966
L ok 33965
pic ked</w> 33959
2 ,000</w> 33954
clos ing</w> 33954
öster reich 33953
las h</w> 33952
D ow</w> 33940
wor ried</w> 33939
tor en</w> 33934
li sted</w> 33928
de puty</w> 33927
an ger</w> 33923
ang ers</w> 33913
k il 33912
C D</w> 33911
r unde</w> 33897
Be ding 33896
don es 33894
1 20</w> 33891
no tes</w> 33889
ver age</w> 33885
Konz ern 33884
ro ck</w> 33883
Wahl kampf</w> 33880
Comp uter</w> 33879
y o</w> 33866
ter te</w> 33866
recor ded</w> 33862
d ance</w> 33854
kom me</w> 33853
positi on 33853
L icht</w> 33850
Wh it 33842
gen annt</w> 33840
7 9</w> 33839
Arsen al</w> 33829
Al as 33828
suppor ted</w> 33827
citi zens</w> 33827
dru ck 33821
Mat th 33819
manufactur ing</w> 33810
stor ies</w> 33808
lear ned</w> 33800
poll s</w> 33796
Gre at</w> 33793
Par te 33792
Gr enze</w> 33792
sw it 33783
po the 33782
Ver trauen</w> 33778
ter ri 33769
gr at 33766
ler nen</w> 33761
bewus st</w> 33759
au ern</w> 33746
ästin ens 33742
P fle 33738
gem el 33729
Be wegung</w> 33728
Jud ge</w> 33719
is ierung</w> 33714
er s 33712
Konz ept</w> 33707
al og 33705
at ten</w> 33697
punk te</w> 33694
se m 33687
prof ile</w> 33682
th in 33674
hal f- 33665
mu seum</w> 33661
ein st 33656
Sch utz</w> 33655
L ag 33654
iz ation</w> 33653
Li ke</w> 33643
pay ment</w> 33637
On ly</w> 33636
de p 33631
gesam te</w> 33629
Con t 33623
le u 33622
loc ation</w> 33622
un ten</w> 33601
Braz il</w> 33600
199 6</w> 33598
be tre 33596
gressi onal</w> 33593
Jah re 33580
erhö h 33580
e ast</w> 33577
grie ch 33560
ent täu 33558
Wer k</w> 33554
g am 33548
M es 33544
contr acts</w> 33542
re presents</w> 33541
Schw ein 33540
vo ting</w> 33536
Nas da 33531
ag ents</w> 33528
cor rec 33525
Ris iko</w> 33523
iz i 33522
D I 33521
ent ered</w> 33516
S än 33515
bo te</w> 33513
er reich 33508
The ater</w> 33507
N ah 33503
wal ked</w> 33503
Sch ri 33502
analy sis</w> 33496
sow ohl</w> 33493
kan did 33486
Men ge</w> 33477
Disk ussion</w> 33477
T ru 33475
ätz e</w> 33475
Ch urch</w> 33471
Bro o 33467
Zusammen hang</w> 33462
tra in 33459
Kre is</w> 33455
Ber at 33450
co ast</w> 33444
Que en</w> 33439
M ik 33438
bisher igen</w> 33437
mes sag 33436
big ger</w> 33433
an geblich</w> 33432
H ir 33419
tax pay 33408
Gefüh l</w> 33407
europä ische</w> 33401
ish ment</w> 33399
ei m</w> 33396
B ol 33393
abin et</w> 33377
Al - 33373
An sicht</w> 33370
rel atively</w> 33366
Gra d</w> 33365
anon ym 33363
sen de</w> 33362
ra id</w> 33355
fl ü 33351
Mit glied</w> 33346
D ir 33345
un able</w> 33340
en erg 33335
1 2, 33334
Ein ige</w> 33324
Mushar raf</w> 33319
20 . 33318
H ere</w> 33316
bere ch 33302
mom ent 33287
ti ces</w> 33272
Pe ter 33271
collap se</w> 33263
L ev 33245
k ennt</w> 33244
Cath o 33239
writ e</w> 33237
I ris 33236
a c</w> 33214
and es</w> 33206
J ack</w> 33199
stre am</w> 33198
Z E 33195
tag s</w> 33189
Man hat 33188
0 6</w> 33184
Ge gent 33177
Wissen schaftler</w> 33175
h ier 33171
st atist 33157
Span ish</w> 33155
Rest au 33155
Au ff 33154
sen der</w> 33152
ati v 33134
Christ mas</w> 33129
me etings</w> 33124
w and</w> 33118
deter mine</w> 33110
Ye ar</w> 33101
voll er</w> 33096
end gül 33088
Kon sequ 33086
vir us</w> 33075
disap pe 33067
Offic er</w> 33066
te sted</w> 33063
appear ance</w> 33059
Vor jahr</w> 33052
vol le</w> 33046
sh ir 33041
un ge 33035
er lau 33031
Au stri 33029
häu fig</w> 33024
civili ans</w> 33023
z ieren</w> 33015
D au 33006
kno wle 32994
m ate</w> 32993
re quest 32993
00 - 32993
artic le</w> 32993
0 3</w> 32990
began n</w> 32984
equi val 32981
dra wn</w> 32974
g ay</w> 32972
bre aking</w> 32968
eh o 32967
Kandid aten</w> 32958
14 . 32954
d ite</w> 32948
am as</w> 32942
investig ators</w> 32935
al tet</w> 32934
strate gic</w> 32930
L ü 32912
Um frage</w> 32909
ge dly</w> 32894
fin als</w> 32887
ck en 32882
Bro ad 32867
conne ction</w> 32867
ther e 32864
H it 32861
ur ing</w> 32860
lo ck</w> 32857
er e 32837
a ders</w> 32832
ther wise</w> 32829
fli cht</w> 32825
Ch an 32822
cat eg 32822
Bo ch 32818
mis s</w> 32813
re u 32804
Eig ent 32797
lu bs</w> 32793
How ard</w> 32792
suggest s</w> 32783
schl ag 32781
suff ering</w> 32779
con ten 32778
Ara b</w> 32776
Up dated</w> 32774
an ci 32770
Fo tos</w> 32770
Pro gno 32763
at ers</w> 32761
bet eilig 32759
se mi 32755
Dub ai</w> 32755
Mr s</w> 32754
eb ack</w> 32753
sport ation</w> 32745
Mat eri 32742
der - 32739
T sch 32732
D ut 32729
main tain</w> 32721
n ungen</w> 32720
eb all</w> 32719
eth n 32719
Heraus forder 32718
Bo tschaft</w> 32717
li mit</w> 32715
Schie ds 32712
in spec 32709
V W</w> 32708
Ver fassungs 32701
wer fen</w> 32694
ei ster 32678
-S ie 32674
ati cally</w> 32669
kti ve</w> 32669
app ed</w> 32667
abe th</w> 32656
Color ado</w> 32656
Bl ut 32646
hal tung</w> 32642
anim als</w> 32641
Comp u 32638
fe wer</w> 32633
im ages</w> 32630
bet ont</w> 32630
Mor gen 32628
lin k</w> 32626
N BC</w> 32622
Mo tors</w> 32616
feh len</w> 32615
f t- 32614
Is lam</w> 32614
Be k 32613
st itu 32603
p ace</w> 32590
st off</w> 32590
on z 32586
ade my</w> 32581
Lö w</w> 32575
b ess 32574
1 1, 32571
Le g 32571
ges per 32569
Bild ungs 32568
isch - 32566
Produ ktion</w> 32554
el and</w> 32548
t cy</w> 32544
gu ys</w> 32544
Al li 32525
Tra ining</w> 32513
ver dient</w> 32508
Stein br 32501
sec tion</w> 32490
Vor gän 32481
K i 32461
sur prise</w> 32460
R ak 32459
au to</w> 32456
ig er 32455
Ukra ine</w> 32455
fan den</w> 32453
re lief</w> 32448
verli eren</w> 32445
alo g</w> 32443
I W 32440
te x 32437
Bedeut ung</w> 32437
plat form</w> 32430
Leit er</w> 32430
ut ely</w> 32426
dic t</w> 32426
Ed wards</w> 32425
mut maß 32422
Europ as</w> 32415
Ein druck</w> 32413
M ig 32411
Qu o 32409
w ick 32408
t ut</w> 32405
un ken</w> 32402
199 0</w> 32399
du le</w> 32379
Akti on 32379
f ers</w> 32367
Pas sag 32367
E R</w> 32366
sh ut 32336
volun te 32325
n ommen</w> 32322
initi ative</w> 32320
zie mlich</w> 32318
si x- 32315
o red</w> 32314
möglich st</w> 32311
überzeu gt</w> 32311
ch ron 32307
An ton 32298
clos er</w> 32298
s inger</w> 32294
F is 32291
com mission</w> 32291
eng l 32290
Som mer 32290
H ann 32284
un its</w> 32284
H ay 32281
ber üh 32280
verl or</w> 32275
Bet ro 32272
Syst ems</w> 32252
L aden</w> 32247
ass ault</w> 32236
Mosk au</w> 32229
Nasda q</w> 32226
N ick</w> 32221
Weihnach ts 32208
car ds</w> 32205
colle ction</w> 32197
m outh</w> 32194
le g</w> 32193
Gip fel</w> 32182
we alth</w> 32175
L I 32173
Twit ter</w> 32172
su s</w> 32169
durch schnit 32168
An dy</w> 32162
u si 32161
Quali fik 32159
gleich zeitig</w> 32156
y es</w> 32134
seri ously</w> 32134
Soc iety</w> 32134
ern t</w> 32130
P ass 32125
Blu e</w> 32123
Wettbewer b</w> 32120
deliver ed</w> 32117
coun ty</w> 32112
defic it</w> 32112
an te</w> 32105
un klar</w> 32099
oper ate</w> 32099
chn ungen</w> 32098
u tion 32091
öffent lich</w> 32085
h asn</w> 32084
experi enced</w> 32081
st ück</w> 32079
w ill 32070
alle gedly</w> 32068
cover ing</w> 32068
bir th</w> 32064
B O 32061
ran g</w> 32049
f illed</w> 32040
signific antly</w> 32035
lu x 32031
R ö 32028
ne tz 32025
k in</w> 32024
no t 32018
F A</w> 32013
R um 32011
Gr enz 31998
P ause</w> 31991
l an</w> 31986
Nic olas</w> 31983
ol it 31975
Se ver 31972
Go v.</w> 31965
c ells</w> 31954
con vers 31953
Se x</w> 31951
progr amm 31940
k ör 31930
ner v 31926
Manhat tan</w> 31907
Gr enzen</w> 31905
Ser b 31897
sit ting</w> 31892
Wer t 31884
Mod ell</w> 31876
Lin ke</w> 31867
crit ics</w> 31859
it ely</w> 31854
Mög lichkeiten</w> 31845
Zentr um</w> 31844
es - 31843
reg ime</w> 31836
immer hin</w> 31835
Fre iheit</w> 31830
wh at 31825
ein gesch 31816
sa d</w> 31809
b ahn 31807
viol ent</w> 31805
erklär en</w> 31795
de v 31789
verk aufen</w> 31785
Tr ust</w> 31781
n in 31765
frü hen</w> 31765
F ast</w> 31760
P ent 31758
reti red</w> 31748
G ün 31737
Jose f</w> 31735
ben ö 31733
blo ck 31727
ho ffen</w> 31721
l ending</w> 31717
Ange klag 31707
Veg as</w> 31706
M un 31703
sta aten</w> 31703
Anhän ger</w> 31703
Amerik a</w> 31700
T as 31693
hö her</w> 31693
un less</w> 31691
französ ische</w> 31686
s hr 31681
fra u</w> 31681
Col omb 31679
mp tion</w> 31677
B ün 31669
f ts</w> 31658
Auf trag</w> 31656
kre is</w> 31651
konz entri 31633
se where</w> 31628
e asi 31620
A ktion</w> 31616
gesch eit 31600
Stim me</w> 31598
Air lines</w> 31589
Z .</w> 31587
ha ir</w> 31587
uli ert</w> 31587
ück en</w> 31586
Arti kel</w> 31582
fin dings</w> 31581
hand ed</w> 31581
yo unger</w> 31577
multi ple</w> 31575
l ay 31564
Reg isse 31564
Mas sen 31563
schütz en</w> 31548
Verl ust</w> 31545
Wh o</w> 31542
Oli ver</w> 31541
v ierten</w> 31535
Vene zu 31533
Develop ment</w> 31533
al tung</w> 31523
Ko so 31523
mark ed</w> 31519
Vor aus 31504
get an</w> 31497
be ck</w> 31494
c e- 31492
wir ft</w> 31481
leit et</w> 31475
R end 31474
Wech sel</w> 31469
tre at</w> 31465
con serv 31462
R enn 31460
se he</w> 31456
Or d 31454
ast ic</w> 31449
Währ ungs 31449
J ord 31448
dri vers</w> 31446
ab and 31442
spo t 31439
curren cy</w> 31429
att acked</w> 31427
sh ut</w> 31424
aff ect</w> 31421
ähn lich</w> 31415
Kra ft 31410
A T</w> 31401
C ash</w> 31394
V ice</w> 31393
S ony</w> 31389
t oll</w> 31388
ken nen</w> 31383
argu ed</w> 31380
coun ter</w> 31379
T V- 31375
Wolf sburg</w> 31375
General sekretär</w> 31372
Über nahme</w> 31371
push ed</w> 31371
L en 31361
dre w</w> 31350
insi sted</w> 31331
C ou 31330
Fäl len</w> 31327
Tur key</w> 31317
K lei 31315
comp lic 31312
n ennt</w> 31308
S por 31305
ple ased</w> 31305
fo under</w> 31281
lauf enden</w> 31278
I R 31266
so - 31257
occur red</w> 31256
Ab dul 31248
Führ ungs 31245
sätz lich</w> 31242
Sou thern</w> 31241
invol ving</w> 31230
com preh 31227
low s</w> 31226
bek annte</w> 31225
Rück kehr</w> 31221
il leg 31210
h n 31207
P el 31207
t ons</w> 31197
R em 31196
C y 31192
Zim bab 31186
Zu vor</w> 31182
opin ion</w> 31170
b ark 31162
R ang</w> 31160
bu ch</w> 31157
ha i</w> 31153
sett lement</w> 31151
be auf 31144
Me tern</w> 31139
E ric</w> 31133
h em 31131
de vices</w> 31131
Mo sco 31106
Wor ten</w> 31104
Se con 31103
Lei p 31101
In dones 31097
ver kün 31094
Sch ei 31094
o es</w> 31091
199 4</w> 31081
W oods</w> 31078
the ast</w> 31076
K .</w> 31071
achie ve</w> 31066
fa vo 31057
Ab u</w> 31051
p ip 31043
V alley</w> 31043
friend ly</w> 31038
in stru 31037
x is</w> 31026
. at</w> 31020
tri eben</w> 31019
N az 31006
s ong</w> 31000
F ein 30998
li eren</w> 30992
ail ed</w> 30992
überrasch end</w> 30990
primar ily</w> 30987
unser en</w> 30985
Jose ph</w> 30985
elim in 30983
W erk 30977
ge - 30976
in spi 30968
Ver s 30968
la di 30965
exc ept</w> 30965
demo kr 30965
V an</w> 30964
sp on 30960
Lt d</w> 30960
geb ung</w> 30957
C oll 30955
Erd be 30923
ei en</w> 30914
groß es</w> 30908
L or 30903
Steu ern</w> 30894
exper t</w> 30889
Di plom 30880
man chmal</w> 30874
g oods</w> 30870
public ly</w> 30868
Er kennt 30862
aff ord</w> 30861
B est</w> 30850
sp rü 30850
u tive</w> 30845
l ass</w> 30844
sat ell 30843
Sp aß</w> 30839
dire ktor</w> 30837
Wi ener</w> 30829
port folio</w> 30819
op pos 30818
neigh b 30817
T A</w> 30816
m ass</w> 30813
ut or</w> 30809
m ale</w> 30808
her self</w> 30804
ti s</w> 30797
Schä uble</w> 30796
c in 30794
ein gesetzt</w> 30794
clo sely</w> 30789
su m</w> 30782
Heim at</w> 30776
T ö 30775
M ast 30775
re ments</w> 30774
Ira k</w> 30772
qu ick</w> 30770
Zei chen</w> 30761
Es sen</w> 30760
Sing ap 30757
D ig 30745
W agen</w> 30733
democr acy</w> 30730
L iste</w> 30706
acquis ition</w> 30705
ver mu 30696
ar ab 30694
bel e 30692
knowle dge</w> 30690
DF B- 30684
C er 30682
down turn</w> 30679
Gener ation</w> 30671
at ri 30661
provi der</w> 30658
än dert</w> 30651
th ly</w> 30649
et ary</w> 30644
19 .</w> 30638
st ations</w> 30633
Sch rö 30627
d ritte</w> 30625
H SV</w> 30625
15 .</w> 30622
clu bs</w> 30615
re ig 30610
mach ten</w> 30604
mittel n</w> 30601
ra d 30600
le c 30594
er ous</w> 30586
g g 30585
war nte</w> 30571
bek am</w> 30559
Jo ach 30549
unterstütz t</w> 30549
st un 30547
re moved</w> 30546
on going</w> 30541
ti ons 30537
happ ens</w> 30537
Min nes 30536
f ein 30535
ö sen</w> 30535
Vorstand s 30532
9 8</w> 30526
m asch 30525
jähr lich</w> 30524
ver stehen</w> 30521
miss ile</w> 30518
r ated</w> 30516
kritis ierte</w> 30516
k olle 30515
n av 30510
di l 30505
W all 30503
dr ama</w> 30500
A v 30497
Al an</w> 30497
F ood</w> 30495
pos sibly</w> 30495
On ce</w> 30492
er ischen</w> 30489
www. n-tv.de</w> 30489
Er de</w> 30485
Eig en 30483
be ge 30480
i fied</w> 30479
on ers</w> 30475
ger en</w> 30472
Mis s</w> 30469
L as</w> 30465
p i 30463
t ten 30461
att end</w> 30457
y land</w> 30450
Au st 30449
Bad en- 30447
D om 30446
te achers</w> 30438
k as</w> 30432
hei mer</w> 30428
Ear lier</w> 30426
sch wei 30418
id o</w> 30416
H ong</w> 30409
law suit</w> 30409
tou ch</w> 30405
F our</w> 30403
W ich 30397
we d 30396
N eben 30394
wen den</w> 30394
R O 30388
Br and</w> 30385
de dic 30379
feat ure</w> 30373
st abil 30372
wa i 30369
enter tainment</w> 30366
Mob ile</w> 30364
Mosco w</w> 30355
F ut 30354
z in</w> 30353
mem ber 30347
b acks</w> 30339
gro wn</w> 30327
ac ed</w> 30323
propos als</w> 30319
b ills</w> 30318
verschie denen</w> 30312
Kris en 30312
Spre cherin</w> 30303
An th 30296
m end</w> 30294
As si 30293
Techn ology</w> 30285
sp ons 30281
EZ B</w> 30277
h ome 30276
ag ne</w> 30274
an gesch 30273
il ers</w> 30271
famili ar</w> 30271
we ak</w> 30270
Wil son</w> 30265
gh ly</w> 30259
Bundes wehr</w> 30259
cap tain</w> 30252
Ste ph 30245
explain ed</w> 30237
leb ens 30236
N F 30233
emerg ed</w> 30233
Al lein</w> 30229
Su per</w> 30228
ill a</w> 30226
Beruf ung</w> 30225
pro spec 30222
at ischen</w> 30220
F ei 30216
frü h</w> 30213
Wer der</w> 30211
D o</w> 30206
r ating</w> 30205
ge dacht</w> 30204
may or</w> 30202
P E 30197
ho st 30196
tar gets</w> 30185
Düssel dorf</w> 30183
ter ing</w> 30180
clin ical</w> 30177
B h 30174
Bi o 30164
S em 30162
veröffent lich 30162
S qu 30161
Min dest 30161
R ap 30156
Ar n 30155
re put 30149
S inn</w> 30148
disc los 30142
R ice</w> 30141
N P 30131
dar k</w> 30130
accep ted</w> 30126
17 . 30119
enfor cement</w> 30113
A K 30111
In tel 30109
verz ichten</w> 30107
ge fragt</w> 30106
komple tt</w> 30103
gesam ten</w> 30101
Nor den</w> 30096
teil weise</w> 30089
J ac 30084
exp and</w> 30075
Bil dung</w> 30057
Ar g 30049
pro ved</w> 30045
30 .</w> 30045
Lit er 30041
K amp 30040
circum stances</w> 30040
Iris h</w> 30038
mean ing</w> 30036
Koaliti ons 30036
inter net</w> 30018
Joach im</w> 30018
win ter</w> 30010
Ri ver</w> 30007
or row</w> 30005
Re geln</w> 30004
Qu elle</w> 30003
R ain 29998
ver besser 29994
dien st 29994
si ster</w> 29991
supp lies</w> 29991
thir d- 29978
polit isch</w> 29974
identi fy</w> 29969
beg inn</w> 29952
stra iner</w> 29950
ad ults</w> 29949
sch te</w> 29947
D ah 29941
T iere</w> 29936
wen det</w> 29933
t ab 29930
is iert</w> 29925
j ok 29919
distribu tion</w> 29916
vor stellen</w> 29910
9 3</w> 29904
ph ic</w> 29898
nah me 29895
fäl len</w> 29885
it im 29884
gemein samen</w> 29880
anz en</w> 29879
gemel det</w> 29877
applic ation</w> 29876
schn eller</w> 29875
Lehr er</w> 29873
alis iert</w> 29870
broad cast</w> 29857
Hum an</w> 29856
UN - 29848
sc oring</w> 29844
i ded</w> 29840
Schul den</w> 29830
F rit 29822
control led</w> 29821
ö se</w> 29820
adv ance</w> 29810
.or g</w> 29806
zentr um</w> 29802
por tion</w> 29799
hö here</w> 29793
C H 29786
de vice</w> 29786
is lam 29776
bankrup tcy</w> 29776
con sequ 29772
ide as</w> 29763
Pro test 29762
ro ut 29760
vis ions</w> 29760
tri g 29756
cerem ony</w> 29755
Minnes ota</w> 29752
lä ub 29749
Teil nehmer</w> 29746
Schl uss 29743
air line</w> 29742
A ma 29735
po t</w> 29735
exten ded</w> 29734
T isch</w> 29733
var iety</w> 29733
Bis her</w> 29732
Stadi on</w> 29731
re min 29728
Re cht 29727
Qu ad 29720
9 2</w> 29719
k as 29716
ic ker</w> 29715
besch lossen</w> 29712
Schau spieler</w> 29710
leit en</w> 29707
pro ud</w> 29705
direc tion</w> 29697
Re public</w> 29693
com ment 29692
Kreu z 29689
o ch 29687
Kap itän</w> 29681
Gold man</w> 29680
fli ghts</w> 29678
Rau m 29678
Seb astian</w> 29678
Demokrati e</w> 29671
12 - 29665
quo te</w> 29663
wel come</w> 29662
Ger ä 29653
In sel</w> 29652
W es 29647
S ul 29642
4 5 29640
L y 29630
Ma x</w> 29625
suspen ded</w> 29618
d ut 29616
Mark us</w> 29613
Sch a 29611
dr hein 29610
Gebur t 29606
Künst ler</w> 29605
Musi c</w> 29602
it ag 29601
comb at</w> 29600
ph ase</w> 29598
AR D</w> 29596
alis ierung</w> 29590
Alas ka</w> 29587
hop ed</w> 29583
pit ch</w> 29572
w are</w> 29570
Prote ste</w> 29559
alis ed</w> 29553
app ing</w> 29546
f ill</w> 29544
be an 29543
19 . 29543
ali ze</w> 29543
vor her</w> 29542
dan k</w> 29542
be grü 29539
six th</w> 29538
comfort able</w> 29538
cru de</w> 29535
2 1. 29533
Ein schätzung</w> 29532
kur s</w> 29529
fest ival</w> 29528
tu rel 29527
W ell</w> 29507
stu ff</w> 29505
exper im 29505
16 . 29502
Invest or</w> 29491
Chil dren</w> 29488
me chan 29479
Vier tel 29479
men sch 29478
infra structure</w> 29477
oo t 29476
Immobili en 29476
b rief</w> 29475
ti cket</w> 29472
k an</w> 29469
F unk 29468
schul en</w> 29468
re plac 29467
jud ges</w> 29467
produc er</w> 29463
Ab schluss</w> 29462
B illi 29457
di an</w> 29455
Feder er</w> 29454
Kör per</w> 29452
wirk ungen</w> 29449
Ermitt ler</w> 29448
wat ched</w> 29446
St abil 29445
al t 29440
rei b 29434
199 2</w> 29428
auf genommen</w> 29415
v es 29409
Ru he</w> 29409
al ists</w> 29407
la den</w> 29400
s mann</w> 29397
bur n</w> 29397
A S</w> 29391
ur er</w> 29386
le ads</w> 29386
Sonn en 29384
K ämp 29382
ver sich 29379
E u 29378
A L 29376
Un fall</w> 29376
arg um 29365
S ollte</w> 29358
ev alu 29358
po ver 29354
pic tures</w> 29351
Kli ma 29349
Kör per 29345
ed - 29344
e genheit</w> 29342
stän dige</w> 29338
ac t 29330
Offici als</w> 29325
3 0- 29321
bu yers</w> 29315
W o</w> 29312
chines ischen</w> 29307
S wis 29298
it ten</w> 29284
pro je 29276
Co .</w> 29274
end ung</w> 29274
cor ruption</w> 29272
chan ces</w> 29269
S un</w> 29268
Bundeslig a- 29267
sk ills</w> 29266
ter in</w> 29261
staat lichen</w> 29261
regist ered</w> 29254
Kon takt</w> 29252
3 ,000</w> 29251
Hor st</w> 29251
18 . 29250
Ger ade</w> 29247
ay a</w> 29241
re isen</w> 29236
über ras 29233
Techn ik</w> 29233
it ter</w> 29223
proper ties</w> 29217
offiz iell</w> 29216
Bay er</w> 29205
Hän dler</w> 29201
Sto ck 29200
mb ly</w> 29199
Kab in 29197
crit ici 29193
initi ally</w> 29193
Industri e</w> 29189
Initi ative</w> 29188
b ow 29186
choo se</w> 29185
writ ers</w> 29180
maß nahmen</w> 29179
p son</w> 29167
net t</w> 29165
2 2. 29153
Kar ls 29152
apart ment</w> 29148
Ear th</w> 29145
do gs</w> 29142
e ds</w> 29140
führ ten</w> 29132
For derungen</w> 29131
E l</w> 29128
T am 29122
zi gen</w> 29114
O r</w> 29112
D rei 29108
Analy sten</w> 29099
drhein - 29099
Sch nei 29084
stec ken</w> 29081
a bet 29079
en des</w> 29079
def ence</w> 29074
K ong</w> 29072
fl at</w> 29072
beg innen</w> 29070
bess ere</w> 29067
D F</w> 29063
indic ated</w> 29063
Re gel</w> 29062
w - 29057
j ene</w> 29052
Lin ken</w> 29052
Erfahr ung</w> 29046
F onds</w> 29042
ec ting</w> 29039
Part ner 29039
sh opping</w> 29032
hau sen</w> 29023
sel s</w> 29022
K y 29020
fal sch</w> 29020
wal king</w> 29017
Elek tro 29010
kti v</w> 29009
Sal z 29007
blu e</w> 29004
J ungen</w> 29001
cust ody</w> 29000
electri city</w> 29000
verein bar 28998
Be zieh 28991
l agen 28989
Man uel</w> 28986
10 ,000</w> 28985
te - 28981
An walt</w> 28977
O ver 28967
co very</w> 28961
Invest ment 28958
se ch 28955
sha red</w> 28955
K ub 28954
heav ily</w> 28942
co de</w> 28927
Fre u 28927
sogen annte</w> 28923
Leverk usen</w> 28922
respon d</w> 28920
Mach t 28918
G ib 28914
geplan te</w> 28914
Beam ten</w> 28911
Leh man</w> 28910
Mar io</w> 28907
beschäf tigt</w> 28907
strug g 28905
18 .</w> 28904
Fäl le</w> 28903
P ier 28898
ko sten 28894
comman der</w> 28894
Just iz 28893
li fe 28891
R io</w> 28884
Haush alts 28884
sen ding</w> 28883
For derung</w> 28883
b auer</w> 28882
ü p 28881
ro ads</w> 28878
S imp 28868
sh oul 28868
ym n 28856
easi er</w> 28834
Europä ische</w> 28827
M ain</w> 28825
Yanke es</w> 28824
health care</w> 28823
un bedingt</w> 28820
be tro 28816
Kur z</w> 28810
B . 28809
staat liche</w> 28803
Ein fluss</w> 28802
reduc tion</w> 28800
em bar 28798
genau so</w> 28793
partner ship</w> 28790
aus schuss</w> 28789
geb or 28786
um en</w> 28785
shi ft</w> 28783
ow ski</w> 28782
to t 28782
assi stant</w> 28779
ministeri ums</w> 28777
p m</w> 28772
E ri 28772
Nürn berg</w> 28772
K lo 28768
14 , 28761
ein f 28753
mat ches</w> 28752
M ary</w> 28748
T ruppen</w> 28747
Z iel 28743
Mo tor</w> 28742
rou te</w> 28738
under standing</w> 28736
H un 28734
pro p 28734
hör t</w> 28731
tä glich</w> 28730
histor ic</w> 28730
e at</w> 28725
J an</w> 28723
Qu alität</w> 28721
G anz</w> 28716
p assen</w> 28713
ep ing</w> 28711
R .</w> 28708
an did 28708
wil d</w> 28698
vi l</w> 28692
gest or 28690
acc ur 28688
acknowle dged</w> 28687
ap poin 28686
Wür ttem 28683
B at 28682
G as</w> 28668
Mo del 28666
Te ile</w> 28666
o therwise</w> 28663
D utz 28659
Rel ig 28656
v ements</w> 28655
199 1</w> 28654
net works</w> 28648
reg arding</w> 28634
Verhält nis</w> 28627
Produ kte</w> 28625
h ielten</w> 28621
ent re 28615
priv aten</w> 28608
g ige</w> 28604
T ä 28601
regul atory</w> 28601
dut y</w> 28595
Basi s</w> 28590
isch em</w> 28589
herr scht</w> 28584
Se eho 28575
W ur 28567
erhö ht</w> 28564
et ed</w> 28562
z ut 28540
den s</w> 28540
F ür 28538
wal d</w> 28535
gel ang</w> 28523
k ä 28520
198 9</w> 28502
st y</w> 28499
krie g</w> 28499
ko m</w> 28497
wer t 28496
exerc ise</w> 28495
D ra 28486
M ol 28483
Telef on 28477
k al</w> 28475
suppor ting</w> 28473
v ast</w> 28472
ü hren</w> 28471
N ex 28466
steu er 28461
rebel s</w> 28450
Ro ger</w> 28447
ge be 28444
K ie 28443
st it 28442
Fest ival</w> 28442
po st- 28440
tr act</w> 28438
alco hol</w> 28434
tr end</w> 28427
öh ne</w> 28423
mär kte</w> 28419
com mission 28418
fre m 28417
sor gt</w> 28414
Ein tra 28411
Tre ffer</w> 28411
verk auf 28403
po wers</w> 28398
n ice</w> 28394
st a</w> 28394
per c 28394
ri gh 28391
bes itz 28381
no - 28380
reti rement</w> 28380
Stür mer</w> 28378
con sec 28373
jah res 28361
Hei mat 28355
geb lieben</w> 28354
T S 28347
Dam als</w> 28346
kid n 28345
13 .</w> 28340
fli kt</w> 28339
a o</w> 28335
W ul 28331
er seits</w> 28327
t ask</w> 28324
f red</w> 28323
re turning</w> 28323
tig es</w> 28317
m ons</w> 28311
Ander son</w> 28311
Re fer 28310
ver mei 28309
vul ner 28304
vis ited</w> 28300
st ress</w> 28298
mo ves</w> 28290
it er 28279
bar rel</w> 28278
el ek 28277
val ues</w> 28273
sch är 28272
S t</w> 28270
Haf t 28253
hä user</w> 28251
For mer</w> 28248
model s</w> 28246
i ff</w> 28243
15 - 28221
N ow 28219
er neu 28216
B ord</w> 28205
ri vals</w> 28204
Ver sor 28204
diffic ul 28200
Frau en 28200
Ver dacht</w> 28198
Jan .</w> 28196
J ason</w> 28195
il fe</w> 28192
ges ich 28191
L oc 28188
Them en</w> 28188
contro versi 28184
te acher</w> 28183
free dom</w> 28177
materi als</w> 28175
Be ach</w> 28170
sk ep 28166
Hä user</w> 28163
inn ers</w> 28161
Christop h</w> 28161
b te</w> 28160
beau ti 28158
atten ded</w> 28154
kün st 28148
re fu 28130
las sen 28128
rech ten</w> 28127
em y</w> 28124
Der zeit</w> 28115
Interne t- 28114
fi x 28113
P itts 28108
Tha iland</w> 28104
Fried rich</w> 28097
Ar ena</w> 28082
Ver z 28076
Mas sach 28072
it i</w> 28065
li ste</w> 28064
T V 28063
short ly</w> 28059
Min us</w> 28058
Feu er</w> 28057
8 8</w> 28056
le ans</w> 28055
Aus stellung</w> 28054
op posed</w> 28050
short - 28047
Sau di</w> 28041
euro s</w> 28039
con cent 28036
Sicherheit sk 28035
Sor gen</w> 28033
Konkurren ten</w> 28032
J eff 28024
e ding</w> 28023
w ähr 28021
quo ted</w> 28021
H ub 28018
susp ects</w> 28017
C li 28016
fün f 28015
for - 28008
hosp itals</w> 27994
Weit ere</w> 27990
sent enced</w> 27989
set ts</w> 27987
Per son</w> 27979
do zens</w> 27975
Net work</w> 27974
j ad</w> 27973
2 1.</w> 27972
at edly</w> 27972
z ün 27963
ver gleich 27962
H .</w> 27961
M ess 27955
ä ger</w> 27955
NE T</w> 27955
ab e</w> 27952
gen der</w> 27950
ch ain</w> 27946
be we 27945
Vereinig ten</w> 27942
n one</w> 27941
republi k</w> 27926
at oren</w> 27924
ge füh 27924
le ute</w> 27922
wieder um</w> 27919
Ab b 27918
S ome 27912
displ ay</w> 27912
Massach u 27902
Su ch</w> 27896
10 .</w> 27876
sh ore</w> 27871
rupp en 27869
bl amed</w> 27868
9 7</w> 27865
war f</w> 27864
lear ning</w> 27862
dies mal</w> 27860
wich tigen</w> 27855
gen utzt</w> 27854
arch it 27851
k op 27848
ussi ons</w> 27847
a x 27837
man agers</w> 27835
man age</w> 27832
Jugend liche</w> 27831
i ons 27830
sh aring</w> 27824
Mu gabe</w> 27820
mat ters</w> 27813
wer en</w> 27810
Vf L</w> 27805
m ile</w> 27804
ge tragen</w> 27804
wor ry</w> 27798
I P 27797
wach sen</w> 27796
dan ger</w> 27794
invest or</w> 27793
14 .</w> 27792
gain ed</w> 27788
T an 27784
hou se 27784
expan sion</w> 27777
e ed</w> 27775
dro ve</w> 27772
ap pointed</w> 27770
enjo y</w> 27770
n ennen</w> 27769
ru he</w> 27769
m einem</w> 27762
Wir k 27762
Dien st</w> 27759
M ali 27758
C ho 27757
ef ul 27754
zwei fel 27754
Da im 27752
Anth ony</w> 27747
st ün 27745
NAS A</w> 27743
H ans</w> 27740
Regierung schef</w> 27740
Ägyp ten</w> 27739
An trag</w> 27738
J ör 27734
M S</w> 27733
de al 27733
kl ass 27732
occ asi 27730
Rom ney</w> 27725
studi o</w> 27723
m ie 27719
NY SE</w> 27718
S lo 27716
il e 27716
ac eu 27713
E duc 27709
at e 27709
Gemein de</w> 27707
L A</w> 27704
iti gen</w> 27701
veröffent licht</w> 27701
Ze al 27695
ev ol 27692
GO P</w> 27690
r ative</w> 27687
Re al 27687
O ld</w> 27686
ti ckets</w> 27684
fo unded</w> 27683
9 1</w> 27677
au ßer</w> 27677
funktion iert</w> 27675
9 4</w> 27674
St rom</w> 27669
Inst itu 27667
mo vies</w> 27665
techn ologies</w> 27662
anim al</w> 27660
reas on 27660
end a</w> 27656
O x 27651
O il</w> 27647
c old</w> 27646
Portu gal</w> 27646
Ä u 27639
Besch l 27638
Früh jahr</w> 27638
Jer us 27637
unterstütz en</w> 27637
zeh n 27634
ur sprün 27630
Ver such</w> 27628
ste te</w> 27625
Steinbr ück</w> 27618
W ähler</w> 27616
Bh ut 27611
Beding ungen</w> 27609
regel mäßig</w> 27605
to t</w> 27604
por tra 27593
inter nal</w> 27592
Cit ig 27592
vers ammlung</w> 27590
National spieler</w> 27587
ung st 27585
A b</w> 27581
tra iner</w> 27576
wa chen</w> 27574
17 .</w> 27567
poten tially</w> 27564
re place</w> 27547
T en 27546
ig are 27545
h ess 27538
re au</w> 27533
9 00</w> 27531
Grün e</w> 27526
fe e</w> 27521
verlan gt</w> 27519
Indi en</w> 27513
nomin ation</w> 27512
wei gh 27509
bo at</w> 27502
har d 27501
Unterneh mens</w> 27501
entwick eln</w> 27492
cont est</w> 27491
ter ror</w> 27488
Feh l 27487
Massachu setts</w> 27484
0 3. 27481
e astern</w> 27479
zentr ale</w> 27479
sup posed</w> 27473
Wir tschaf 27465
absol utely</w> 27464
pro - 27462
Thom pson</w> 27457
ger ing</w> 27447
Je wish</w> 27447
C level 27443
spra che</w> 27442
Bar bar 27433
us - 27431
sich ten</w> 27424
recei ving</w> 27419
Moh ammed</w> 27418
targe ted</w> 27417
DN A</w> 27417
cal cul 27414
Baden- Württem 27413
in dem</w> 27412
Y our</w> 27411
Bis lang</w> 27411
ac le</w> 27408
hand le</w> 27406
cru cial</w> 27406
schlä gt</w> 27403
Revol ution</w> 27403
mach e</w> 27396
ri ver</w> 27395
Mil itä 27395
he at</w> 27394
Stan ley</w> 27393
ge grün 27390
olog ist</w> 27388
squ ad</w> 27388
ay ne</w> 27385
territ ory</w> 27385
as set</w> 27376
prote sters</w> 27373
gel te</w> 27371
Lou is 27370
fäh igkeit</w> 27367
estim ate</w> 27366
er hielt</w> 27364
d ges</w> 27362
schlä gen</w> 27362
Al p 27360
Bor ussi 27356
T ief 27354
F I 27351
Bel ast 27348
gra ph</w> 27340
sub stan 27338
Gu ant 27336
j ähriger</w> 27331
E BI 27329
Hil fs 27327
ch ung</w> 27323
neighbor hood</w> 27322
mit glie 27321
h o</w> 27318
a than</w> 27318
am e 27318
bli eben</w> 27317
L ud 27312
1 3, 27308
Hin weise</w> 27305
L B</w> 27302
sp ac 27300
P ower</w> 27296
verstän dlich</w> 27293
ong ly</w> 27291
pul l</w> 27282
199 0s</w> 27278
Kel ly</w> 27275
ph il 27273
Wor te</w> 27265
b ol 27262
emerg ing</w> 27262
Beteilig ung</w> 27262
D S 27254
hr er</w> 27254
vertre ter</w> 27254
ag gressive</w> 27249
Ch am 27247
zuneh men</w> 27238
f lik 27236
yo ur 27230
Bla ir</w> 27230
messag es</w> 27227
For t 27225
prac tices</w> 27223
3 4 27215
B rief</w> 27215
Fra ktion 27212
L .</w> 27208
Stu dien 27208
Fir men 27206
M ein</w> 27205
ung sh 27205
Verwal tungs 27204
te ure</w> 27201
Pent agon</w> 27200
im a</w> 27197
sh ops</w> 27193
Pho en 27193
Oper ating</w> 27188
Vier tel</w> 27187
fass ung</w> 27185
Dok um 27180
s th 27166
c and 27163
D u</w> 27162
ass ess 27162
Proz ent 27159
consec utive</w> 27158
ing u 27155
zeu g 27154
therap y</w> 27143
Christop her</w> 27142
Ni veau</w> 27141
sich t 27140
c ell 27135
Ver än 27135
trans fer</w> 27135
ver gessen</w> 27134
sch u 27132
what ever</w> 27130
s lo 27124
t ells</w> 27121
Gewerk schaft</w> 27119
Att orney</w> 27116
m icro 27109
tal ent</w> 27104
Tro tzdem</w> 27104
Bu ff 27102
Untersuch ung</w> 27102
2 4. 27101
ro man 27101
Pitts burgh</w> 27098
wich tiger</w> 27092
Welt meister 27092
geb il 27084
be dro 27082
be endet</w> 27081
Wider stand</w> 27075
g alt</w> 27074
pro b 27066
Sch aden</w> 27066
Bo eing</w> 27065
pro be</w> 27062
keit s 27062
g utes</w> 27061
de part 27060
dra w 27054
ig t</w> 27053
F O 27051
F lo 27049
K auf</w> 27048
deleg ates</w> 27048
Wat ch</w> 27043
ge arbeitet</w> 27032
great est</w> 27031
ep iso 27018
Or leans</w> 27017
Spe kul 27013
man aging</w> 27009
dra ft</w> 27006
E th 27004
Vic tor 27003
ivers ary</w> 27001
immig ration</w> 27000
Car los</w> 26999
exc ell 26999
milit är 26992
refle ct</w> 26986
Gul f</w> 26981
th row</w> 26976
stat e- 26976
Ser ies</w> 26976
1. 5</w> 26973
in y</w> 26968
n utz 26965
compreh ensive</w> 26964
fa ith</w> 26959
s at</w> 26952
sor gte</w> 26947
wa ste</w> 26946
cor ner</w> 26944
st able</w> 26943
Z . 26938
lab or</w> 26938
Agent ur</w> 26937
reput ation</w> 26937
anz ler</w> 26935
Ver band</w> 26934
Zin sen</w> 26933
Über rasch 26926
tr uth</w> 26924
fäh ig</w> 26922
Spra che</w> 26919
m ates</w> 26909
ern st</w> 26902
kämp ft</w> 26901
mon it 26894
Ar m 26890
uncertain ties</w> 26890
imple ment 26889
n es</w> 26886
expl ain</w> 26886
gefähr lich</w> 26885
co ff 26882
kl age</w> 26881
Clevel and</w> 26881
at ures</w> 26878
R ie 26876
head quarters</w> 26876
Andre a</w> 26869
v ard</w> 26867
ru b 26860
po p</w> 26858
thre w</w> 26858
p ath</w> 26854
Ein er</w> 26852
ange boten</w> 26848
re turns</w> 26842
T el</w> 26833
ne ys</w> 26833
Vol k</w> 26833
ge gn 26831
L loy 26830
Z ur 26827
Minist eri 26825
pl enty</w> 26822
Jahr hunder 26822
repor tedly</w> 26817
Un s 26815
wer ed</w> 26814
i us</w> 26813
gesper rt</w> 26811
Co ast</w> 26810
J ose</w> 26809
Öster reich 26804
F - 26797
Merce des</w> 26792
schle ch 26788
größ er</w> 26785
12 .</w> 26775
assi stance</w> 26774
ein halb</w> 26764
insur g 26764
J es 26761
En er 26760
Ob wohl</w> 26760
jo ur 26756
perform ed</w> 26754
rican e</w> 26754
Internation alen</w> 26747
An spruch</w> 26744
I A 26742
war m</w> 26739
Nutz er</w> 26739
be zeichnet</w> 26737
K rimin 26733
bas sad 26730
employe e</w> 26723
Gabri el</w> 26723
ass y</w> 26718
L ong</w> 26708
Lit er</w> 26706
im mun 26704
ing er 26702
shar p</w> 26702
sch rau 26698
il - 26696
U. S. 26694
C ent</w> 26681
ver fassungs 26679
vent ure</w> 26676
über all</w> 26674
Nach mittag</w> 26671
An gesichts</w> 26665
ent gegen</w> 26652
Re gen 26652
8 2</w> 26644
b ail 26642
Ad am</w> 26638
Nach wu 26634
Fre itag 26634
repe atedly</w> 26634
be comes</w> 26632
Se attle</w> 26626
shar p 26620
de but</w> 26619
Mat t</w> 26616
ic king</w> 26612
h l</w> 26611
P .</w> 26611
M P</w> 26611
C at 26605
fac tor</w> 26605
spec ies</w> 26602
ist er</w> 26601
W omen</w> 26596
Vor bereit 26592
Atlan tic</w> 26590
ges ucht</w> 26588
wir tschafts 26579
fl ying</w> 26578
sp ect</w> 26577
Tur k 26576
lo ved</w> 26574
Gefän gnis</w> 26573
vis iting</w> 26571
techn ical</w> 26571
Nieder sach 26571
Seeho fer</w> 26566
y e</w> 26561
er lebt</w> 26560
ac u 26558
th es</w> 26557
ger ed</w> 26556
Sp ann 26555
E .</w> 26538
w oo 26538
be de 26536
demokr aten</w> 26530
Ph ase</w> 26526
re t</w> 26524
klär t</w> 26519
V en 26516
er hält</w> 26516
sch il 26515
r d</w> 26513
S ow 26509
gh ten 26506
al liance</w> 26500
Mo un 26496
Bro thers</w> 26495
civili an</w> 26489
i ve</w> 26486
as i</w> 26482
le aves</w> 26479
Columb ia</w> 26477
sk in</w> 26473
Spe zial 26471
con vinc 26470
gro unds</w> 26467
advis er</w> 26463
1, 0 26461
Ris iken</w> 26460
N ame</w> 26457
we b</w> 26455
Ch i 26444
ang hai</w> 26443
coll abor 26442
disp ute</w> 26440
pen sion</w> 26439
Tu be</w> 26438
Fra ktion</w> 26435
effici ent</w> 26434
Or ts 26431
K ate</w> 26430
Entschei dungen</w> 26425
Verbrau cher</w> 26419
S ales</w> 26418
pp en 26418
rich tige</w> 26416
B E 26413
son gs</w> 26412
Bunde strainer</w> 26412
reich end</w> 26410
Sci ence</w> 26410
fre ut</w> 26403
T onnen</w> 26401
mär kten</w> 26400
on ent</w> 26393
Ein satz 26388
squ are</w> 26386
ro up</w> 26385
caus ing</w> 26384
Sat z</w> 26383
strug gle</w> 26381
Mar t 26379
Sü den</w> 26377
afri ka</w> 26377
Wer ner</w> 26375
t ische</w> 26374
com bination</w> 26368
199 3</w> 26364
F erg 26361
Krie gs 26360
100 ,000</w> 26360
G ame</w> 26354
journal ists</w> 26354
West f 26352
dr inking</w> 26351
bre m 26348
encour age</w> 26339
ru mp 26336
rich tet</w> 26336
St ation</w> 26327
N BA</w> 26326
Wirtschafts krise</w> 26324
photogra ph 26323
an gr 26321
F ro 26318
Bet rieb</w> 26310
cat ch</w> 26308
af gh 26304
star b</w> 26302
emo tional</w> 26300
h et 26297
Wil d 26290
gew ach 26289
Con tin 26288
lang sam</w> 26283
re placed</w> 26280
Repor ting</w> 26280
respon ded</w> 26266
ti ous</w> 26265
vie wers</w> 26264
Ar chi 26263
Citig roup</w> 26262
ver hand 26261
pr int</w> 26258
US- Präsident</w> 26257
co ol</w> 26250
far m</w> 26247
w ine</w> 26246
er fahren</w> 26241
entwickl ung</w> 26229
Flü cht 26228
op er</w> 26227
bro ad</w> 26221
veter an</w> 26213
E very</w> 26212
rele v 26207
dah in</w> 26204
Re p.</w> 26203
far mers</w> 26198
reduc ing</w> 26195
No k 26194
F ul 26189
Commun ic 26188
Vor schlag</w> 26185
b ungen</w> 26184
L et</w> 26182
Mar ine</w> 26179
al-Qa ida</w> 26177
En viron 26173
inter ess 26171
IN G</w> 26170
weiter er</w> 26169
v ens</w> 26167
CI A</w> 26159
dre ht</w> 26153
ver däch 26151
vor erst</w> 26151
t oler 26148
So ftware</w> 26145
russ ische</w> 26144
F ab 26139
2 3. 26137
on ey</w> 26133
Woh l 26126
K ansas</w> 26124
k lu 26117
ermittel t</w> 26117
main ly</w> 26116
champ ionship</w> 26115
Wahl en</w> 26112
Phoen ix</w> 26112
per form</w> 26104
effec tively</w> 26099
re ise</w> 26096
Her tha</w> 26096
do ors</w> 26095
Beh and 26095
v in</w> 26094
Unternehmen s 26093
Län der 26091
Regi onal 26091
Ro sen 26089
Eng agement</w> 26086
fran ch 26084
tri eb</w> 26079
er innen</w> 26078
Del eg 26078
ar io</w> 26076
mortg ages</w> 26076
wor ker</w> 26069
n ord 26067
E ver 26067
j ub 26064
inqu iry</w> 26064
präsen tiert</w> 26060
Z one</w> 26058
Zeal and</w> 26056
Pap ier</w> 26053
lei stung</w> 26043
R T 26040
Swis s</w> 26038
o v</w> 26033
il lu 26032
wer ten</w> 26032
0 9. 26030
dil uted</w> 26021
con tained</w> 26017
requi rements</w> 26016
Jugend lichen</w> 26014
r ing 26012
stän digen</w> 26012
P C</w> 26011
kore a</w> 26010
fail ing</w> 26007
Phili pp</w> 26005
Tele kom</w> 26001
Erwar tungen</w> 25999
setz ungen</w> 25998
An ders</w> 25995
hil ft</w> 25994
a side</w> 25989
fin de</w> 25989
tag abend</w> 25980
Mar yland</w> 25979
B V 25977
pass ing</w> 25977
amoun ts</w> 25974
Zu stimmung</w> 25970
Kar l- 25966
over seas</w> 25966
Bü ro 25966
sta un 25962
flu g</w> 25961
gemein same</w> 25959
des per 25955
h all</w> 25945
A sk 25943
techn i 25928
pho tos</w> 25923
Quad rat 25907
pil ot</w> 25904
f assen</w> 25901
F ischer</w> 25897
Sp iegel</w> 25889
fe els</w> 25884
c amera</w> 25880
ver mis 25880
h ang 25878
L ake</w> 25877
Verlu ste</w> 25874
Par liament</w> 25871
surpris ed</w> 25871
T au 25868
S ig 25866
Blo om 25866
inn en 25861
Borussi a</w> 25852
sel ben</w> 25845
te en</w> 25839
ins besondere</w> 25839
I an</w> 25838
Koso vo</w> 25837
z immer</w> 25834
off - 25827
V om</w> 25825
positi v</w> 25824
Catho lic</w> 25822
Sever al</w> 25815
Mich elle</w> 25814
NF L</w> 25806
Sant a</w> 25805
tom orrow</w> 25803
impro vement</w> 25803
li abilities</w> 25801
k it 25796
Sch utz 25796
Abb as</w> 25795
eng ag 25791
cer ti 25787
wi g</w> 25786
öffent lich 25781
ent ry</w> 25779
char ity</w> 25778
Ro s 25774
leit ung</w> 25768
Z i 25761
ges prä 25761
E qu 25760
00 .000</w> 25760
D im 25759
fer n 25759
e uro</w> 25756
W ein 25752
1, 5</w> 25750
person nel</w> 25749
Sch ick 25747
M ak 25746
stän den</w> 25742
Kar l</w> 25741
Zentral bank</w> 25738
controversi al</w> 25738
Aus einander 25736
ro g 25735
sozi alen</w> 25735
ri de</w> 25728
inde pendence</w> 25728
disa ster</w> 25727
hr an</w> 25726
el sewhere</w> 25720
discuss ed</w> 25711
ier enden</w> 25709
wirtschaf tlichen</w> 25707
z ai</w> 25702
arbeit s 25698
Fr on 25697
So cial</w> 25692
Indi ana</w> 25688
g ig 25683
f la 25680
15 , 25678
Zusch auern</w> 25675
spe zi 25674
urs es</w> 25673
Tr end</w> 25673
zurück zu 25673
br ü 25663
cli ent</w> 25660
vacc ine</w> 25658
bran che</w> 25657
Beschäf tigten</w> 25653
Grün de</w> 25651
16 .</w> 25650
W right</w> 25642
every body</w> 25639
siden cy</w> 25637
sit z</w> 25634
app e</w> 25621
ret ten</w> 25618
Geschä fte</w> 25617
Main z</w> 25616
sanc tions</w> 25612
Ak tu 25608
Prem ier 25607
re d 25605
ör ung</w> 25603
National mannschaft</w> 25596
k üh 25592
Strateg ie</w> 25592
def end 25591
ur g 25589
8 4</w> 25588
R est</w> 25586
8 1</w> 25585
im possible</w> 25578
Th an 25578
ür zt</w> 25572
s amm 25571
l i</w> 25567
ver sicherung</w> 25566
te es</w> 25566
so- called</w> 25566
the ater</w> 25564
b are 25562
Ar e</w> 25561
G reg 25559
U p</w> 25556
innov ative</w> 25554
Jerus alem</w> 25550
qu ake</w> 25549
gri ffe</w> 25549
d d</w> 25547
schwar z- 25542
Jon athan</w> 25537
italien ischen</w> 25536
te ste</w> 25531
Hol z 25530
b onds</w> 25529
Ro m</w> 25527
m ten</w> 25525
gar anti 25525
sicher heit</w> 25525
er öffnet</w> 25522
ap preci 25522
stell vertre 25521
äum e</w> 25519
os oph 25518
ran ked</w> 25512
ch est 25498
mis sions</w> 25496
be darf</w> 25493
art ist</w> 25492
Ama z 25492
perman ent</w> 25491
aktu elle</w> 25487
bek annten</w> 25484
ver anstal 25483
d ay 25480
kl ingt</w> 25480
Secon d</w> 25476
ro l</w> 25474
u se 25471
weiter es</w> 25471
St aff</w> 25470
C ow 25469
er läu 25469
re present</w> 25461
am or 25461
R ou 25456
nation wide</w> 25456
bar ri 25455
pe te</w> 25454
größ ere</w> 25454
De ut 25452
he ading</w> 25448
sü d 25447
Tai wan</w> 25443
Aut or</w> 25439
er ungs 25437
F an 25425
Ministerprä sidenten</w> 25422
Um gang</w> 25421
G ran 25412
Gu ar 25412
Sy mp 25408
cour ts</w> 25404
ack le</w> 25396
b lau 25395
typ es</w> 25394
ver treten</w> 25392
Köl ner</w> 25390
k ö 25387
st ated</w> 25387
Aus wär 25382
An dr 25373
pres sive</w> 25373
Ar zt</w> 25371
d ates</w> 25370
Te hran</w> 25368
L . 25367
R ä 25366
su bur 25365
La w</w> 25363
mer kt</w> 25359
investig ating</w> 25355
qu es</w> 25353
din ner</w> 25353
r ural</w> 25350
Ste ven</w> 25350
zei gten</w> 25348
co ordin 25344
fäl lig</w> 25341
Z iele</w> 25338
ZE IT</w> 25325
ex pos 25324
Schl es 25322
abet es</w> 25315
qui red</w> 25306
min us</w> 25304
Behör de</w> 25304
Th ir 25300
gu ards</w> 25300
eg al</w> 25298
Barbar a</w> 25297
f ur</w> 25290
promo te</w> 25290
en si 25288
fri ed 25288
fei ern</w> 25279
aus ch</w> 25277
erhö hen</w> 25275
8 6</w> 25264
ori enti 25263
W ill 25262
ec k 25261
h itting</w> 25258
Ti bet</w> 25256
27 .</w> 25251
Bo tschaf 25249
D enn 25246
För der 25245
suff ici 25243
Arbeit geber</w> 25242
s al</w> 25239
Ac ademy</w> 25234
weit gehend</w> 25228
Nav y</w> 25219
g all 25213
to x 25211
e tic</w> 25210
Grün den</w> 25208
SE C</w> 25201
ru g</w> 25200
eng ine</w> 25197
Reb ellen</w> 25188
Ein igung</w> 25182
kl asse</w> 25180
bann ed</w> 25173
Dir k</w> 25173
w ächst</w> 25171
Im mer 25170
ph arm 25169
ici ous</w> 25163
Ern st</w> 25162
tran spar 25158
favor ite</w> 25158
Ger ü 25150
Zimbab we</w> 25150
Verk auf 25149
C C</w> 25148
Fu k 25148
versch ul 25148
ann iversary</w> 25147
in des</w> 25142
gen ü 25141
Sch le 25139
ent in</w> 25135
bo ss</w> 25124
über nommen</w> 25122
Gast geber</w> 25120
um ping</w> 25118
hil fe</w> 25116
aff airs</w> 25111
wa ve</w> 25111
un k</w> 25109
per su 25108
Hamp shire</w> 25108
F oot 25106
K au 25106
ush ed</w> 25104
Po ts 25103
question ed</w> 25098
heu tigen</w> 25096
Weit er 25093
Arbeitsp lätze</w> 25092
wi der</w> 25091
Mat the 25090
Cre dit</w> 25090
f ted</w> 25089
Li ve</w> 25088
un usual</w> 25077
ali ve</w> 25076
tran sport</w> 25076
ket ball</w> 25073
Hans - 25071
Link spartei</w> 25070
Pap iere</w> 25062
3 3 25060
en ab 25056
tru ck</w> 25052
man che</w> 25050
than ks</w> 25048
M . 25047
am o</w> 25047
o u</w> 25045
Zu gleich</w> 25043
fan ta 25040
ac adem 25029
-S precher</w> 25029
Ab stimmung</w> 25025
ine jad</w> 25025
St or 25022
sp ark 25016
k ick</w> 25014
k ins</w> 25011
teil ten</w> 25009
t age</w> 25004
Sch mer 25000
olo gen</w> 24995
app ly</w> 24992
pra kt 24986
T S</w> 24983
sozi ale</w> 24969
Bundestag s 24967
z y 24962
de pos 24961
pe t</w> 24959
k nee</w> 24957
kü m 24957
tal ked</w> 24956
v it 24954
ro ten</w> 24953
ong side</w> 24952
spar en</w> 24943
8 3</w> 24928
Commer z 24928
Gol f</w> 24927
Autom ob 24925
Schrö der</w> 24924
stron ger</w> 24922
ci ans</w> 24915
Beruf s 24913
R oo 24910
app en</w> 24909
ru g 24904
Bro w 24900
ent e 24897
er lit 24894
Th ough</w> 24894
M ü 24893
einzel nen</w> 24890
disc ussion</w> 24884
H offen 24878
ti ef 24874
kürz lich</w> 24874
frei willi 24872
Roh stoff 24867
In stru 24857
lei der</w> 24856
Sz ene</w> 24848
ag o 24846
sw ine</w> 24845
Freund in</w> 24845
test ens</w> 24844
0 4. 24841
A x 24839
Den ver</w> 24838
gu ter</w> 24835
mem ory</w> 24832
restau rants</w> 24829
Dro gen 24825
gestor ben</w> 24825
Tele graph</w> 24816
Invest itionen</w> 24815
re vi 24812
Tra de</w> 24812
ident ity</w> 24812
go tten</w> 24807
Vill a</w> 24803
ha ften</w> 24797
St art 24797
To ten</w> 24797
sp lit</w> 24795
mehr fach</w> 24795
sco res</w> 24795
li by 24790
pri ority</w> 24787
öffent liche</w> 24787
be gun</w> 24777
c able</w> 24768
Vie tn 24767
un mittel 24766
16 , 24764
sche dule</w> 24763
thin ks</w> 24758
ph en 24756
re aching</w> 24752
Qa eda</w> 24752
notwen dig</w> 24751
kl are</w> 24749
requi res</w> 24746
t il 24745
war ming</w> 24745
wäh len</w> 24739
m its</w> 24735
A L</w> 24734
el e 24734
erk annt</w> 24727
ch st 24725
at tra 24719
impro ving</w> 24717
b ell</w> 24712
sei zed</w> 24711
sprä sident</w> 24709
wig - 24707
ten tion</w> 24698
K ampf 24696
poin ting</w> 24694
aus gel 24693
G O</w> 24692
K lasse</w> 24692
rei ber</w> 24688
Fa vor 24681
D an</w> 24679
wahl en</w> 24679
ex - 24677
ple aded</w> 24675
beg ins</w> 24674
Sen der</w> 24673
geb oren</w> 24663
gel ungen</w> 24662
H alle</w> 24661
m te</w> 24660
interest ing</w> 24659
C u 24658
P y 24656
Matth ias</w> 24651
Leist ungen</w> 24650
In zwischen</w> 24645
schwier ig</w> 24645
lin ing</w> 24644
is - 24641
dau ern</w> 24641
Ahmad inejad</w> 24639
kehr en</w> 24637
flä che</w> 24637
be halten</w> 24635
Ex plo 24631
Wol f</w> 24629
ru h 24628
Sor ge</w> 24626
akti v</w> 24623
conclu ded</w> 24621
attemp ts</w> 24620
hol der</w> 24615
E M</w> 24613
Ther ap 24611
E N 24608
eit et</w> 24608
F ili 24601
Abgeord neten</w> 24601
del ay</w> 24598
freu en</w> 24593
te ch</w> 24590
con dem 24584
p fle 24583
den kt</w> 24582
dau ert</w> 24582
f it 24581
ul a</w> 24581
Mis sion</w> 24578
EU- Kommission</w> 24572
E S 24570
Kap it 24569
da vor</w> 24559
bur g- 24559
8 7</w> 24557
el er 24557
fri ed</w> 24557
sch efs</w> 24556
An schlag</w> 24556
en ess</w> 24549
an schließend</w> 24545
ung l 24543
Bezieh ungen</w> 24531
[...]
