, 406705183
. 393673473
the 195393043
" 162866941
in 146169319
der 119542734
die 108563690
to 104025768
of 95002701
a 92347686
and 89323226
und 81707613
: 61505646
den 47304795
- 42393785
's 42191993
that 38288263
for 36143622
mit 35203618
is 34502899
on 34016896
an 33580880
) 33564965
von 33501248
( 33441839
das 33106381
zu 32575614
was 30711217
ist 30274184
im 30218233
auf 30077350
sich 28881097
für 28730683
The 28631172
Die 26240112
with 26094953
dem 25686864
es 25074545
nicht 24742746
ein 24524731
des 24178459
said 23721663
it 23607883
as 22955760
at 22050530
eine 21122976
auch 19846410
am 19258406
he 19031379
be 18878289
by 18487906
er 18432528
I 18335128
als 17579927
have 17497747
from 17443905
are 16616506
aus 16517051
his 16370977
has 16296511
will 14984532
Der 14805098
dass 14650990
hat 14620926
bei 14546183
/ 14485880
nach 13986882
so 13928328
sie 13667518
um 13574874
werden 13176813
not 13125403
war 12231047
' 12191839
Das 12124870
In 12123188
einem 11604688
who 11536830
noch 11514397
sind 11451269
vor 11287438
? 11264670
einen 11232315
einer 11202525
wird 11031808
wie 11030984
they 10951495
had 10943131
but 10873373
this 10860895
their 10459434
haben 10197082
zum 9933881
or 9835032
been 9781255
were 9781133
-@@ 9741188
man 9615422
aber 9421829
über 9369558
more 9164560
't 9155004
her 8780584
which 8708072
about 8512902
you 8426814
we 8412531
nur 8143802
would 8059852
one 7955216
It 7941352
its 7845061
up 7834145
also 7758578
mehr 7703445
out 7630500
after 7565268
oder 7367327
gegen 7253925
wurde 7122864
bis 7086388
hatte 7058678
all 6850656
can 6758967
she 6664201
sein 6625997
than 6491257
when 6453587
sei 6375607
Sie 6350480
people 6309893
zur 6309044
Euro 6147989
He 6074075
$ 5995949
A 5917249
Es 5905774
year 5875965
wir 5717783
over 5642260
But 5613130
ich 5609799
there 5574910
into 5540446
; 5512538
habe 5512149
time 5448521
1 5390332
wieder 5358842
un@@ 5340119
sagte 5327762
Uhr 5308158
durch 5303673
two 5272963
first 5224638
schon 5151479
kann 5110111
unter 5073176
last 5022856
new 4892552
er@@ 4844336
could 4833141
vom 4777931
what 4772766
years 4770191
zwei 4762050
other 4748875
just 4736304
Prozent 4732782
Jahr 4671866
We 4617113
dann 4612394
en@@ 4566700
them 4555292
s 4547028
some 4533529
Jahren 4473751
like 4456708
if 4444465
no 4429380
beim 4399769
können 4334609
gibt 4330334
ver@@ 4299891
do 4290440
i 4280817
Und 4277097
him 4270939
soll 4269625
Im 4247377
Wir 4244724
seine 4243344
2 4229545
immer 4223671
Ein 4214448
our 4178881
sagt 4133310
ihre 4125488
Er 4081336
S@@ 4045632
Ich 4000005
wenn 3995739
t@@ 3967720
Auch 3932989
f@@ 3882820
de 3868728
waren 3848827
ab@@ 3845094
only 3810437
now 3784061
an@@ 3755533
K@@ 3743569
back 3718209
te 3697366
B@@ 3682032
s@@ 3651920
before 3634703
T@@ 3630417
my 3610498
ab 3599881
keine 3557510
Mit 3553877
says 3533716
because 3533403
So 3533370
me 3514466
get 3513972
most 3492368
Nach 3475674
seiner 3474534
per 3470555
d@@ 3466937
drei 3465727
ten 3463190
New 3422419
! 3416592
being 3413372
P@@ 3402653
k@@ 3401925
n@@ 3390862
seit 3386153
b@@ 3381735
G@@ 3376062
re@@ 3354261
o 3345120
wurden 3327607
told 3324686
us 3323748
Menschen 3321948
Jahre 3321001
where 3317446
muss 3297889
da 3287509
government 3277271
A@@ 3233900
R@@ 3233749
geht 3215821
alle 3215247
L@@ 3213407
against 3209647
eines 3203332
sehr 3201021
Mr 3186173
ersten 3180770
20 3175824
made 3170972
off 3168673
E@@ 3158104
bereits 3151995
nun 3141346
in@@ 3130696
3 3120356
ins 3105895
ge@@ 3100353
worden 3099976
way 3095905
down 3084291
m@@ 3073548
... 3070976
how 3069455
gut 3068329
any 3064473
en 3058870
end 3048516
-- 3047724
10 3042975
H@@ 3023796
W@@ 3022139
M@@ 3015600
three 3012623
Für 2989512
million 2987971
diese 2985071
be@@ 2985068
z@@ 2979869
make 2968415
This 2948053
30 2945673
many 2915659
while 2873805
uns 2866350
D@@ 2853938
F@@ 2853631
N@@ 2840859
Bei 2836047
Am 2828345
very 2826415
ein@@ 2824520
dieser 2819618
diesem 2796089
neue 2793228
e 2783889
through 2770698
those 2763980
week 2763941
And 2752825
Deutschland 2751733
then 2748445
zwischen 2732734
damit 2728847
viel 2723522
15 2723405
0 2719960
aus@@ 2719349
l 2700421
ihr 2698377
jetzt 2695343
j@@ 2693912
even 2691120
They 2684820
day 2680591
g@@ 2660689
rund 2656023
ch@@ 2648162
C@@ 2646040
still 2645823
world 2641834
work 2625613
well 2625256
Sch@@ 2613950
seinen 2610895
home 2607426
Eine 2604429
An@@ 2598053
much 2594700
Ende 2592758
viele 2588142
your 2579266
such 2579019
say 2577667
'@@ 2576834
going 2576547
Zeit 2576353
müssen 2575400
since 2552755
're 2546859
hatten 2537920
see 2535491
don 2528238
l@@ 2528180
U.S. 2527756
did 2523253
should 2520571
ing 2516735
take 2499708
Millionen 2498830
weiter 2495382
Ver@@ 2486838
selbst 2477844
el@@ 2470007
ter 2458357
neuen 2457362
go 2452377
may 2447139
ihren 2445682
Ab@@ 2439890
p@@ 2436994
seinem 2429858
Polizei 2429799
Stadt 2422395
4 2416177
h@@ 2410547
think 2408248
Doch 2407608
percent 2406249
Aber 2405097
during 2396456
al@@ 2376491
etwa 2372239
between 2364479
ers 2359519
st@@ 2352488
There 2335185
sowie 2327246
ganz 2326648
police 2325573
including 2318604
le 2312443
around 2300673
c@@ 2298327
doch 2294715
country 2294305
seien 2292619
machen 2287927
ihrer 2282151
O@@ 2270691
anderen 2258970
auf@@ 2253596
good 2253055
ent@@ 2249853
allem 2240741
company 2230004
Obama 2226051
hier 2224680
2014 2223208
u 2221619
weil 2218642
steht 2217379
dabei 2215019
y 2212809
sch@@ 2207303
Wie 2207199
o@@ 2195819
etwas 2194896
next 2191743
team 2180298
ohne 2175816
kommen 2170612
£ 2170492
under 2168216
Berlin 2162065
2013 2157520
V@@ 2155148
found 2139714
Z@@ 2132280
e@@ 2130365
vier 2127445
gab 2126152
vergangenen 2124495
n 2124168
wollen 2122587
these 2121159
y@@ 2120977
state 2103214
dpa 2098342
She 2096953
mann 2096721
wegen 2088464
That 2083826
50 2080980
5 2080388
part 2076626
sondern 2072253
m 2069525
v@@ 2069524
know 2067904
k 2067035
men 2043100
r@@ 2042126
beiden 2041816
ung 2041008
werde 2032637
sollen 2030291
want 2027307
ihn 2018797
t 2018196
kommt 2012439
Als 2012150
über@@ 2006264
right 2005558
able 2004429
6 1999982
Auf 1998396
ner 1992489
game 1989230
Kinder 1988881
If 1985297
Von 1985238
einmal 1975014
ern 1968430
ler 1967300
former 1960512
erst 1960095
Mann 1956506
% 1951246
ar@@ 1945865
US 1941835
heute 1936360
've 1935931
own 1933310
di@@ 1932189
ihm 1929165
another 1927123
2015 1920214
China 1915778
public 1912807
United 1912777
i@@ 1908803
J@@ 1905372
es@@ 1899305
12 1896436
too 1895411
set 1888438
Wenn 1885813
life 1885057
family 1882537
Trump 1880891
second 1876194
York 1875537
d 1872295
four 1871813
Aus@@ 1870263
Mr. 1857657
14 1857496
& 1853557
alles 1853474
Platz 1851785
both 1851249
same 1850605
11 1846030
16 1845835
group 1844304
18 1843588
Ein@@ 1837733
2012 1835074
need 1834930
cent 1834323
left 1833488
de@@ 1828024
show 1819353
help 1816646
Michael 1815243
z 1802235
lassen 1801369
andere 1798860
long 1798669
stehen 1798419
used 1795366
U@@ 1794054
I@@ 1788843
vor@@ 1788025
u@@ 1776479
use 1776317
kam 1774154
mal 1763824
dort 1762734
kein 1759017
come 1758748
w@@ 1758746
25 1754284
ungen 1737587
konnte 1736133
um@@ 1733105
season 1729225
'm 1720134
got 1718447
Welt 1716793
children 1714386
könnte 1713572
ed 1709241
13 1704341
a@@ 1704220
As 1698716
17 1697242
really 1694105
Bau@@ 1689995
days 1688128
fast 1685185
100 1684347
best 1682843
fünf 1682149
7 1675175
ke 1674133
place 1672450
Vor@@ 1671966
dafür 1671302
ob 1667874
September 1666954
Sonntag 1664978
ungs@@ 1661819
berg 1660796
ja 1656334
London 1647873
ar 1646879
months 1642250
month 1638961
An 1633163
You 1632836
American 1632530
stand 1630855
Be@@ 1628934
gen 1626281
40 1626013
called 1625316
mich 1624123
th@@ 1624090
put 1618632
night 1613651
gehen 1612255
ischen 1612007
Spiel 1608648
FC 1608592
women 1603604
April 1597995
é@@ 1596786
is@@ 1594382
le@@ 1590054
Land 1588352
ger 1585128
ische 1584115
geben 1583023
Re@@ 1581356
five 1581326
allerdings 1580489
ging 1578343
never 1577647
b 1574610
Al@@ 1573823
Frau 1572529
g 1570808
nichts 1568606
age 1567338
dazu 1566619
Da 1563829
market 1562893
Er@@ 1562477
less 1560626
p 1558740
ihrem 1555084
Was 1554143
won 1552001
report 1551968
business 1548937
al 1546945
President 1542322
ingen 1539253
sehen 1537782
took 1532774
jedoch 1527135
großen 1526588
here 1522891
erste 1520731
number 1520125
big 1519723
straße 1516430
For 1515657
top 1514943
macht 1513510
wäre 1511270
might 1511238
2011 1509880
case 1509187
city 1505682
Tag 1505540
away 1504911
according 1504234
on@@ 1502127
November 1502061
der@@ 1501339
president 1499694
8 1492313
zu@@ 1489087
system 1487000
Trainer 1486856
ate 1483922
000 1482390
support 1482179
play 1480251
große 1479753
e-@@ 1479557
2016 1479437
letzten 1478745
came 1471963
added 1469485
later 1467462
weitere 1466518
or@@ 1464551
few 1464529
wo 1462411
money 1460030
ber@@ 1459071
gewesen 1458719
Leben 1455996
Friday 1454971
sollte 1453771
at@@ 1451022
son 1450305
en-@@ 1446750
win 1445786
würde 1445444
ts 1444969
zurück 1444261
ende 1442203
Un@@ 1438516
USA 1436436
Freitag 1435852
zehn 1431049
When 1430517
el 1425750
ter@@ 1424384
ago 1423543
Mal 1422544
deutschen 1421696
high 1421584
John 1421065
2008 1420618
Samstag 1416795
St@@ 1411371
little 1408797
Denn 1407796
Monday 1398849
sogar 1395942
Straße 1394593
every 1392989
Tuesday 1391490
9 1390805
hätten 1388344
Ober@@ 1386937
ie 1386786
denn 1385252
se@@ 1383706
officials 1383676
past 1383562
David 1381882
without 1377033
2009 1373598
davon 1373092
lot 1373084
Man 1372601
il@@ 1372275
mir 1371358
gemacht 1370075
ten@@ 1369096
x@@ 1366627
Unternehmen 1364786
better 1359853
er-@@ 1356963
am@@ 1356025
bin 1355682
dieses 1354689
Team 1353189
chen 1352301
inger 1352284
laut 1349121
ro@@ 1347076
fest 1346854
isch 1346708
lange 1345578
+ 1342619
zwar 1339577
Ro@@ 1335766
court 1334725
5@@ 1334409
something 1333971
Woche 1333759
19 1333293
2010 1332447
land 1331747
t-@@ 1329176
party 1328213
look 1327254
ge 1325872
early 1323837
Wednesday 1323834
led 1321916
a-@@ 1321408
Thursday 1319950
didn 1317439
far 1315144
Thomas 1314808
seen 1312675
August 1311605
school 1311255
21 1309239
enden 1308104
point 1307820
already 1307719
iert 1305785
One 1305737
ag@@ 1304701
sieht 1304639
Wer 1304578
whether 1304529
Geld 1301185
h 1300622
House 1300236
start 1299847
deal 1299679
each 1299442
until 1298610
side 1298278
Diese 1296883
Fall 1295119
ger@@ 1294665
gen@@ 1294369
In@@ 1294115
ens 1294017
sp@@ 1293686
Sunday 1293514
.@@ 1290101
political 1289050
head 1287513
ch 1284574
ation 1284180
billion 1281692
least 1281128
4@@ 1278335
au 1276671
te@@ 1276073
Vor 1275909
it@@ 1275044
run 1274736
et 1274702
On 1268668
Weg 1268244
f 1267561
Foto 1266741
sten 1264362
Zeitung 1264315
Peter 1261803
health 1261654
reported 1261320
[ 1260797
went 1259909
Bank 1259640
UK 1254033
zweiten 1253727
making 1253113
Mar@@ 1252450
again 1250823
change 1248337
denen 1247875
Washington 1246455
Schul@@ 1244891
liegt 1243628
musste 1241041
South 1238489
things 1237728
campaign 1237522
später 1237271
] 1232363
City 1232100
se 1232062
Wochen 1230045
gar 1229205
six 1226552
wohl 1226540
law 1225618
au@@ 1224244
great 1222827
At 1222671
across 1219854
deutlich 1219109
würden 1218719
tes 1216752
today 1216519
Montag 1214818
expected 1211079
3@@ 1209930
Frauen 1208205
power 1205685
Mittwoch 1205676
EU 1202297
Donnerstag 1202208
Dabei 1200727
24 1199577
statement 1196477
heißt 1195675
einfach 1193748
sh@@ 1192823
ur@@ 1192518
diesen 1192468
England 1187878
British 1186361
does 1185368
TV 1185083
Arbeit 1184503
line 1175935
recent 1174301
allen 1174126
sechs 1173771
half 1173285
World 1171586
plan 1169638
.de 1165293
1. 1163142
li@@ 1163009
derzeit 1162065
as@@ 1161506
news 1161319
wollte 1160377
www.@@ 1160275
SPD 1160177
darauf 1159398
Dienstag 1158957
Den 1158671
dies 1157958
taken 1157303
local 1156622
Bayern 1156530
22 1156501
find 1155504
Saturday 1154304
among 1153551
saying 1153089
information 1152950
security 1152473
become 1152042
old 1151883
hätte 1151737
likely 1151229
Regierung 1150879
ans 1150514
US-@@ 1150225
points 1149929
De@@ 1148734
unter@@ 1148085
gerade 1147909
military 1147846
young 1146310
mit@@ 1145413
-S@@ 1144006
liche 1143520
6@@ 1143005
always 1140876
ber 1140666
r 1140583
9@@ 1140324
eigenen 1140016
times 1139877
hit 1139800
Angaben 1139464
Ge@@ 1139131
working 1137958
sen 1134835
Landes@@ 1132343
st 1131871
bach 1131456
7@@ 1131261
Thema 1129903
München 1129131
Minuten 1127405
having 1124167
Le@@ 1120261
death 1119795
lich 1118289
stellen 1116723
States 1116520
What 1115969
Australia 1115956
Y@@ 1114758
während 1114681
members 1112657
Mannschaft 1111565
erklärte 1109365
Bürgermeister 1108254
media 1106655
wenig 1105085
vielen 1103862
Martin 1102755
erklärt 1102128
weniger 1100850
ant 1100278
den@@ 1098942
North 1098780
Stadt@@ 1098090
car 1096998
heim 1096365
Frage 1095849
give 1094084
Spiel@@ 1093809
deutsche 1093013
National 1092224
jährige 1091354
s-@@ 1091075
different 1090730
spielen 1088691
several 1088338
60 1086449
players 1086428
8@@ 1085261
einige 1082271
ne@@ 1082130
2017 1081341
third 1081162
ieren 1079738
ri@@ 1079117
chief 1077823
SV 1077359
bleibt 1074644
Seit 1074611
final 1072708
zusammen 1072511
though 1072475
finden 1072099
us@@ 1071651
im@@ 1071482
pay 1071293
S 1071225
face 1069036
enough 1068228
University 1066748
ad@@ 1063058
asked 1062552
companies 1061621
killed 1060481
ihnen 1059481
May 1058590
given 1057743
financial 1054527
Bo@@ 1054128
Auf@@ 1054065
ing@@ 1053547
os 1052313
lead 1050559
West 1050380
State 1050206
Teil 1049074
house 1047666
must 1046224
known 1046002
sk@@ 1045759
keep 1044220
international 1043963
ebenfalls 1043686
move 1043289
ti@@ 1043044
ß@@ 1042455
ne 1041908
After 1041246
lichen 1041106
23 1040324
area 1039404
Milliarden 1039265
nächsten 1037175
future 1035623
Dass 1035117
Minister 1034664
fall 1034608
tax 1033866
anderem 1033798
woman 1033224
online 1030447
statt 1030029
job 1028913
keinen 1028812
acht 1028164
'll 1027832
bleiben 1026989
decision 1026499
Deutschen 1026367
taking 1025915
Unter@@ 1025783
European 1025513
L 1025046
ia 1024957
bank 1024843
möglich 1024648
zunächst 1021802
D 1020510
League 1018846
lost 1018823
important 1018243
Union 1017004
lässt 1016230
weg 1014736
major 1014302
Sp@@ 1012219
nie 1012042
si@@ 1010177
lo@@ 1006263
weeks 1002302
thing 1001404
Kreis@@ 1000703
water 998126
national 995761
B 995681
2007 995646
ever 995547
hard 993259
haus 991988
Haus 991799
ated 991598
schnell 991391
Mo@@ 989869
ly 989016
live 988589
et@@ 988203
könne 987323
gute 985522
Saison 984858
care 984753
bisher 984463
small 983806
bar 983755
thought 982563
attack 982030
Zum 981332
News 980638
why 979040
close 978505
Her@@ 978067
film 976483
director 975887
Beispiel 975176
service 974042
ale 972764
With 972398
ra@@ 971391
ac@@ 970568
behind 970412
CDU 968259
club 967081
ker 966143
His 965842
ste 964967
bringen 964358
em@@ 964066
held 964028
ster 963837
ine 963809
Ar@@ 961462
http 958870
-K@@ 958532
America 958522
economic 956664
500 955911
bekommen 955288
gekommen 954715
Bar@@ 954486
O 953878
besser 953286
Familie 953140
aller 952432
trying 952017
gleich 950793
tun 950414
Mai 949685
yet 948638
ck@@ 948449
zeigt 948093
ert 947256
qu@@ 946412
often 946396
la 946226
late 945808
halten 945402
March 943958
real 943676
done 942780
bo@@ 942426
rate 941371
erin 941023
No 940065
gilt 935503
Europa 935422
los 934798
once 933658
following 933155
hours 933044
Meter 932830
Damit 932712
looking 932591
ting 931805
almost 931502
Über@@ 930482
ent 930053
po@@ 929987
Zu 929815
arbeiten 929443
oft 928853
believe 928806
kaum 927754
könnten 927476
nehmen 926894
R 926627
ö@@ 926389
ol@@ 926138
Police 924874
further 924746
series 923272
economy 922532
Ch@@ 922065
Land@@ 919899
Ziel 919680
Har@@ 919506
Christian 919385
kommenden 918373
Neu@@ 918061
clear 917842
ic 916965
election 916225
Anfang 915647
ierte 914941
free 912926
Paul 912459
Präsident 911831
ball 911695
countries 911121
minister 911088
klar 910891
Um@@ 910798
doing 909889
weiß 909500
Sport@@ 909461
near 908812
getting 908717
mer@@ 907528
durch@@ 906765
18@@ 905977
died 905544
office 905390
leader 903589
ck 903319
ken 903189
'd 902814
call 900774
using 900567
El@@ 899935
announced 899899
besonders 899045
earlier 898698
feel 897289
field 897202
Bad 895566
0@@ 895169
based 894606
Spieler 893651
study 893365
games 893284
sagen 892776
knapp 892652
Einsatz 891743
al-@@ 890200
weit 889575
Internet 889304
ak@@ 888734
zuletzt 887972
th 887337
gegeben 886640
plans 886484
konnten 886319
her@@ 885999
Dann 885633
industry 885524
record 885374
ap@@ 881860
shot 881691
growth 881194
Aus 880693
Oktober 880373
let 879558
others 879457
d-@@ 879145
sicher 878037
Tage 877565
45 876370
ischer 875959
März 875854
St. 875606
per@@ 874628
natürlich 873525
Mitarbeiter 873445
coming 872878
schwer 872821
G 872820
services 872783
ha@@ 872657
outside 871188
June 870703
fen 870399
gel@@ 870384
les 869893
private 869682
200 869256
risk 868461
played 867959
bekannt 867818
open 867330
hinter 866895
dessen 866695
x 866250
started 865885
Um 864713
Britain 864609
Stunden 864599
comes 864556
T 864541
stadt 864483
Facebook 863189
Politik 863066
Cup 862763
However 860385
along 860311
full 860133
Juni 859745
kurz 859691
Geschichte 859445
within 859161
Eltern 858682
possible 858585
together 858078
op@@ 857752
nach@@ 857732
ä@@ 857507
due 856822
ig 856265
return 856186
person 856074
sollten 855610
food 854926
course 853891
policy 853690
En@@ 853573
Fahr@@ 853374
minutes 852944
All 852557
Europe 852360
doesn 851382
star 851175
27 850834
neben 850165
deren 849826
issue 849354
insgesamt 849285
cut 849137
we@@ 849094
em 847939
Gäste 847143
Ger@@ 846493
Zukunft 845641
official 845538
Sieg 845520
executive 845127
28 845116
35 844095
c 843834
name 843746
26 843224
Paris 842158
ft 841900
ka 840365
pro 839646
While 839226
findet 838673
_ 837790
gehört 837138
Bild 836520
Gruppe 835350
ut@@ 833685
Ort 833382
body 832746
ach 832509
sen@@ 832226
social 831709
share 831371
ling 830805
ley 830565
data 830519
ons 830162
bad 829397
control 828178
jeder 828016
red 827856
Dr. 827694
ere 826136
genau 825975
deshalb 825526
lang 825502
Schule 824289
ton 824230
20@@ 823700
om@@ 823645
fahren 823439
70 823393
wanted 822717
Se@@ 822362
kind 821425
Zu@@ 821057
co@@ 820812
vote 820543
oil 820479
Car@@ 820120
hin 820071
Iran 819626
damals 819445
Seite 818919
est 818513
1.@@ 818411
Verein 818093
continue 818029
Merkel 817562
video 817483
leben 816983
try 816601
role 816318
quarter 816094
began 815095
Punkte 814819
low 814259
80 813714
Gemeinde 813618
Clinton 813247
mo@@ 812836
story 812638
Nur 811654
strong 811646
mer 811110
meeting 810018
Kinder@@ 809102
whose 808285
To 807757
level 806963
Australian 806853
bit 806532
federal 806370
released 806136
ung@@ 805851
Entscheidung 804247
White 804230
weiteren 804137
ben 804054
Berliner 803618
sa@@ 803481
Bre@@ 803441
stark 803212
mother 803014
sales 802811
elle 802643
problem 802412
do@@ 801166
90 801133
müsse 800547
Beim 799976
sieben 799942
mehrere 799879
Richtung 799539
James 799439
Juli 799321
large 798658
interest 798536
history 797267
ted 797077
Erfolg 797070
alte 796293
action 795998
fer@@ 795960
Männer 792166
gebracht 792121
Jugend@@ 790796
price 789513
00 788956
current 788947
room 787911
ze 787158
Some 786678
fire 785968
verletzt 785812
platz 785035
cost 784738
nen 784477
Co@@ 783828
alten 783612
Auto 783208
C 782666
Fans 782374
ie@@ 782082
form 781427
zeit 780219
key 779972
zuvor 779253
Ber@@ 778614
fact 778462
love 777936
erhalten 777280
Di@@ 777070
child 776904
Hier 776871
global 776810
eher 776620
che 776060
ach@@ 775734
himself 774896
berichtet 774869
spokesman 773851
y-@@ 773301
Blick 772879
gegenüber 772136
Grund 771835
Jetzt 771729
Last 770750
Russia 770026
wrote 769807
nearly 769703
Tagen 769574
darf 769235
morning 768622
pre@@ 768434
31 768201
w 768181
Dollar 768101
Jahres 767503
Groß@@ 767110
fer 766889
Art 766729
innen 766277
Pro@@ 765664
zudem 764926
front 764559
kleinen 764484
é 764302
ts@@ 763809
hält 763794
Kar@@ 763385
Region 763379
board 763316
order 763241
ul@@ 762783
Israel 762324
Bis 761345
By 761262
eigentlich 760187
air 759896
tw@@ 759836
saw 758795
ließ 758318
berger 758297
II 756686
rather 755721
increase 755308
shows 754995
staff 754895
process 754859
1@@ 754373
building 754168
Or@@ 753700
research 753695
v 752267
community 752040
stellt 750552
July 749546
position 748395
Dort 748353
ad 747120
program 746857
Schüler 746734
stellte 745549
Mitglieder 745492
eb@@ 745452
Rück@@ 745335
Street 744559
forward 744476
Deutsche 744193
Partei 743722
hand 742596
Abend 742272
du 742165
ds 741579
playing 741322
Nicht 741308
reports 740420
France 740198
prices 739776
Chef 739045
ahead 738871
Zahl 738119
eln 737594
Department 737507
capital 737421
geworden 737007
Twitter 735364
Con@@ 734852
wife 734782
rights 734469
leaders 733175
darüber 733059
Scotland 732882
burg 732669
X@@ 731510
seven 730822
Besucher 730566
Programm 730524
match 730276
Januar 729609
Los 729224
book 729176
he@@ 729065
führen 728908
unsere 728896
meisten 728446
2@@ 728402
Dezember 728215
Bundes@@ 727609
wissen 727562
Nacht 726361
ho@@ 726026
Nach@@ 725784
K 725534
Lo@@ 724191
junge 724080
ating 724002
ig@@ 723945
kamen 723518
town 723029
1,@@ 722668
became 721608
Th@@ 721060
liegen 720157
Court 719447
evidence 719261
dorf 718931
Park 718223
sure 718091
W 717854
ange@@ 717714
Mit@@ 717570
father 717429
AP 717069
ff@@ 716750
art 716346
dis@@ 716240
Robert 715250
P 715194
dagegen 714793
manager 714048
makes 713755
Haupt@@ 713736
con@@ 713585
Ho@@ 713245
bau@@ 712889
ige 712850
machte 712779
Monaten 712492
site 711717
ern@@ 711500
include 711042
zufolge 710678
International 709935
loss 709767
di 709286
result 709191
Während 708636
chance 708190
ina 708171
V 708106
Man@@ 707700
cher 707482
zeigen 707452
29 707365
Now 706754
recently 706478
tr@@ 706141
stop 705360
Zudem 705036
2006 704911
gemeinsam 703863
Japan 703804
forces 703713
möchte 703615
hin@@ 703272
So@@ 703184
over@@ 701605
George 701115
results 700296
id 700126
wirklich 699767
richtig 699745
Frankfurt 699090
ell 698871
phone 698734
Bürger@@ 696903
feld 696619
Times 696481
Reuters 696180
wer 696084
ierten 695855
erneut 695798
Nachrichten 695623
neu 695588
event 695265
Höhe 695146
couple 693594
Viele 693045
alen 692733
Österreich 692659
parents 691831
ings 691553
leave 690733
par@@ 690443
Ma@@ 690421
black 690404
biggest 690166
and@@ 690079
students 689966
January 689730
Leute 689288
Par@@ 688809
seines 687520
Außerdem 687191
gave 686277
E 686103
We@@ 685720
mon@@ 685652
Flüchtlinge 685160
energy 684804
means 684574
erwartet 684409
French 684349
bislang 683877
tet 683443
leading 683393
period 681704
investigation 680780
Republican 680137
man@@ 679638
eight 679593
jeden 679574
beide 679347
Bürger 679255
higher 678878
recht 678069
workers 678003
groups 677746
fans 677186
all@@ 676996
Wochenende 676736
anders 676414
issues 676222
race 675845
rates 675730
He@@ 675451
player 675393
Februar 675070
Kosten 675022
experience 673496
involved 673247
general 673137
ou@@ 672976
ed@@ 672326
Nun 672013
total 671848
Projekt 671590
region 671317
friends 670967
stelle 670938
crisis 670808
Wahl 670522
received 670392
nation 670191
ser@@ 670165
offer 670121
daran 669686
Bereich 669679
pe@@ 669649
ies 669339
provide 669299
legal 669046
pro@@ 668822
sel@@ 668765
ü@@ 668427
je 668192
Musik 665842
wichtig 665378
BBC 664881
schließlich 664255
average 663899
paar 663520
problems 663130
Minute 662974
ir@@ 662929
N 662348
foreign 662296
available 662172
Me@@ 661962
anything 661925
Wasser@@ 661866
gesch@@ 661426
ziehen 661370
Dies 660811
authorities 660723
net 659970
Du@@ 659267
despite 658455
stage 658345
Chinese 658247
nothing 657739
licher 657639
My 657279
latest 657261
ve 656525
teilte 655711
human 654953
running 654146
showed 653947
coach 653888
.com 653757
Polizei@@ 653706
goal 653604
besten 653330
needs 653151
frei 651969
zurück@@ 651885
kleine 651674
jobs 651618
gebe 651418
December 651396
hope 650746
ur 650675
sent 650194
needed 650149
member 649413
Rolle 648922
Mitte 648697
senior 648376
hospital 647796
potential 647572
end@@ 646949
ding 646270
career 645873
Beginn 645753
Problem 645160
Sommer 645120
Ergebnis 643518
zweite 643185
ik@@ 642956
voll 642587
situation 642347
to@@ 642316
however 642174
California 642003
2. 641580
Film 641550
force 641326
question 640974
gern 640498
trotz 640162
ken@@ 639723
Mark 639668
Allerdings 639558
Ko@@ 638864
est@@ 638184
Po@@ 638153
Probleme 637704
Mon@@ 637629
Mutter 637326
someone 637184
guten 636986
dürfen 636770
turn 636722
Angeles 636111
lose 636044
nimmt 635618
costs 635519
schule 635234
Sport 635050
-Jährige 634783
Go@@ 634278
berichtete 633785
turned 633637
verein 633229
states 633190
rise 632679
visit 632678
Ste@@ 632520
San 632495
ster@@ 632343
ens@@ 632233
Fest@@ 632113
test 631857
ations 631382
main 630512
lives 630506
ters 630122
res 629905
jährigen 629616
wasn 629056
elt 629024
moment 628415
difficult 627836
Party 627775
spent 627701
einigen 627538
Hilfe 627016
Wal@@ 626417
Führung 626330
ian 625988
performance 625856
list 625674
Daniel 625408
Wasser 624619
300 624267
Russian 624153
gas 624026
pressure 623851
ums 623841
training 623677
fell 623498
fight 623188
ene 623145
Zwei 622417
mis@@ 622173
Andreas 621899
Über 621736
führt 620939
Wahl@@ 620774
EU-@@ 620564
Google 620145
spielt 620103
Informationen 620027
actually 618896
spending 618491
summer 618423
hoch 618114
ei@@ 617922
lingen 617487
Wohn@@ 617404
These 616939
paid 616877
ps 616778
Musik@@ 616637
Chance 616523
zahlen 616489
Ms 616408
no@@ 616292
ra 616217
spiel 616186
worked 615668
bring 615587
ex@@ 615564
white 615509
zeigte 615423
enk@@ 615137
ms 614985
Unter 614956
Qu@@ 614165
Kreis 614137
igen 613975
Namen 613676
Orts@@ 613279
groß 612198
Afghanistan 611957
worth 611760
tern 611746
me@@ 610614
inzwischen 610566
probably 610535
heard 610052
idea 609740
gefunden 608220
living 607977
zer 607830
Hamburg 607812
Hand 607779
ground 607551
sport 607135
attacks 606596
offenbar 606340
gestellt 606214
Mehr 605895
themselves 605550
music 605314
ard 605081
setzen 604979
areas 604940
ty 603488
Feuerwehr 602805
Titel 602799
Tor 602684
Lu@@ 602005
-B@@ 601786
Müller 601681
bel@@ 601646
tt@@ 601339
claims 601327
jungen 600961
ier@@ 600709
Ne@@ 600002
Hoch@@ 599970
Laut 599767
fallen 598133
Rad@@ 598115
hold 597744
Stuttgart 597193
Wirtschaft 597086
Frank 596869
Entwicklung 596704
met 596330
ous 596240
administration 596226
Cor@@ 596170
round 596010
bl@@ 594884
victory 594709
ma@@ 594010
lin@@ 593851
32 592869
hausen 592478
Apple 592322
dürfte 592191
Schon 592148
ell@@ 591759
Russland 591367
Bu@@ 591125
Kunden 591089
remains 590249
wer@@ 590163
charges 590118
leicht 589730
= 589555
allein 588868
October 588408
eben 588400
technology 587948
Am@@ 587898
published 587292
interview 587099
lower 586629
eigene 586443
changes 586217
born 585801
M 585759
soon 585366
geb@@ 585336
Center 584948
Iraq 584590
short 584121
Kon@@ 583993
erstmals 583928
Noch 583430
release 583295
Ob 583047
cases 582939
ru@@ 582930
Fragen 582880
sc@@ 582518
mar@@ 582456
hieß 582276
Kilometer 582025
mussten 581225
-T@@ 580932
Markt 580734
ce 580583
Dazu 580430
bill 580202
zusammen@@ 580163
amt 580114
personal 579826
Br@@ 579575
Lage 579369
F 579283
ally 579187
felt 579088
schen 578020
ates 577849
mindestens 577837
Situation 577728
Sh@@ 577575
officers 577108
ebenso 577078
trade 577045
Erst 576475
ey 576047
setzt 575957
everything 575652
weekend 575380
light 575097
Mc@@ 574693
serious 574479
Kritik 574413
agency 574234
similar 574095
space 573334
trial 573188
matter 573058
development 572998
vielleicht 572952
Alle 572257
que 572241
ender 571677
Grund@@ 571499
künftig 571475
rest 571159
Wien 571071
wants 570981
eren 570837
pp@@ 570581
id@@ 570112
investment 569179
Germany 568960
East 568517
single 568429
conference 568287
remain 567961
Artikel 567801
betonte 567680
fest@@ 567486
enz@@ 567145
zen 566460
läuft 566383
inside 566364
football 564860
Alexander 564752
av@@ 564366
* 564308
brought 564291
verloren 562839
Wolfgang 562473
ier 562377
weiterhin 562305
Unterstützung 562202
special 561990
Fach@@ 561206
erzählt 560980
unserer 560896
Neben 560465
talk 560235
del 559879
ic@@ 559508
heart 558961
firm 558906
park 558830
longer 558563
banks 558400
gh@@ 558178
men@@ 558145
Gericht 557843
Personen 557594
ways 557572
un 557537
Mittel@@ 556850
pl@@ 555765
Opfer 555621
ausge@@ 555612
ended 554671
largest 554655
Not 554466
accused 554349
gr@@ 554335
10@@ 554166
stein 554034
described 553882
Hand@@ 553718
Syria 553297
helped 552537
tried 552391
Grünen 551765
view 551095
thousands 551033
fo@@ 550680
© 550652
ben@@ 550557
vo@@ 550516
Finanz@@ 550512
positive 550282
gi@@ 550127
meine 549898
dritten 549897
tell 549792
quite 549763
markets 549472
lag 549371
everyone 549348
happened 549296
on-@@ 549256
Ex-@@ 549126
whole 549062
stay 549035
Senate 548992
Americans 548926
dead 548599
project 548093
Wirtschafts@@ 547952
da@@ 547768
kl@@ 547734
previous 547390
February 547310
Ihr 547298
ats 547074
customers 546482
2005 546226
daughter 546036
überhaupt 545824
patients 545642
Partie 545516
especially 545477
ganze 545227
ability 545188
Start 545004
income 544075
art@@ 543536
gerne 543133
Tra@@ 542710
huge 542575
IS@@ 542538
break 542307
gang 542295
re 542195
drug 542162
letzte 542025
ges@@ 541915
blieb 541875
jeweils 541867
Brown 541782
Labour 541710
significant 541673
seems 541504
chen@@ 540975
ks 540516
Kultur@@ 540420
cht 540415
impact 540396
Köln 540155
Mädchen 540060
station 540057
violence 540014
Sprecher 539695
Vater 539671
ob@@ 539661
Fahrer 539620
West@@ 539563
A-@@ 539400
Ha@@ 539305
meet 539017
failed 538649
il 538220
Sein 538146
Monate 537848
Pre@@ 537826
33 537444
access 537368
medical 537352
families 537157
growing 537114
fe 536874
Bühne 536804
Bi@@ 536673
2000 536210
Smith 535927
Preis 535709
officer 535540
Kindern 535211
Gar@@ 535130
How 534560
nuclear 534478
management 534476
arrested 534288
road 533979
tion 533601
kosten 533483
bu@@ 533325
direkt 533219
People 532850
Seine 532696
leiter 531934
although 531912
eng@@ 531619
Gespräch 531544
Druck 531513
Group 531324
Wei@@ 530963
Sozial@@ 530791
2.@@ 530695
Verfügung 530694
auer 530568
solche 530149
debt 529793
inter@@ 529594
budget 529443
sofort 528350
Ukraine 528238
Kind 527760
mel@@ 527125
Tor@@ 527116
eh@@ 527114
einge@@ 526654
No@@ 526612
appeared 526540
Haus@@ 526249
allowed 525040
SC 524995
Vorsitzende 524788
ik 524716
genommen 524605
setzte 524554
Stefan 524455
Congress 523835
Richard 523236
fl@@ 522518
ich@@ 522395
zumindest 522152
75 521776
à 520999
laufen 520730
up@@ 520548
ator 520438
isn 520338
q@@ 520189
cause 520105
either 520087
production 519926
anyone 519555
products 519530
War@@ 519274
talks 518882
spricht 518832
India 518545
gewinnen 518519
Chris 518438
neun 518415
in-@@ 518342
Publikum 518223
gruppe 518156
55 517914
Li@@ 517862
questions 517826
buy 517629
Täter 517502
More 517295
unterwegs 517040
for@@ 516621
tz@@ 516605
safety 516083
ity 516062
Mal@@ 515894
looked 515214
ati@@ 514132
gestern 513915
daher 513762
sense 513737
Kopf 513521
Min@@ 513385
allow 513260
compared 513172
Donald 513038
Sydney 511313
Pe@@ 511272
Kampf 511271
term 511187
Post 510902
terms 510782
fahrt 510658
Ihre 510170
Manchester 509907
response 509561
ff 509495
For@@ 509414
winning 509147
Weil 508816
charged 508762
schaffen 508501
isches 508414
zer@@ 507853
forced 507841
Rahmen 507813
included 507254
Angebot 507195
offen 507162
Frankreich 507156
@ 507088
value 507004
Korea 506954
car@@ 506574
Lebens@@ 506251
step 506126
enn@@ 506079
-Jährigen 505705
pr@@ 505677
example 505616
opposition 505537
ph@@ 505292
zug 504981
particularly 504905
go@@ 504776
Jones 504700
bel 504617
36 504261
fand 504016
Folge 503938
gesagt 503935
34 503795
Q@@ 503554
cancer 503476
schw@@ 503338
Klein@@ 503305
takes 502848
teams 502765
TSV 502715
la@@ 502708
cash 502637
Lau@@ 502584
zwölf 502574
gel 502557
Bal@@ 501978
iz@@ 501865
welche 501757
Gesellschaft 501692
press 501598
Coach 501445
conditions 501416
400 500998
Per@@ 500669
pass 500668
Liga 500605
U 500435
ing-@@ 500352
ß 500075
Gegner 499596
ec@@ 499316
alt 499081
range 498677
ist@@ 498670
ise 498635
bald 498237
bringt 498053
erk@@ 498035
nine 497855
stock 497602
Welt@@ 497581
investors 497434
schools 497142
plus 496848
so@@ 495137
miles 495089
treatment 494868
calls 494657
werk 494610
ta@@ 494479
General 494145
Texas 494062
efforts 493883
Kirche 493787
prison 493518
Johnson 493245
Dieser 493056
charge 492949
gesehen 492429
IS 492185
moved 492141
tre@@ 491974
fe@@ 491958
County 491873
Day 491864
ener 491753
presidential 491698
focus 491648
du@@ 491561
tag 491477
geplant 491444
Even 491329
cannot 491146
Prime 491130
dern 491118
o-@@ 491106
property 491032
events 490720
Sal@@ 490417
ma 489987
quickly 489986
brachte 489932
Gebäude 489884
continued 489822
Hal@@ 489737
ys 489540
rules 489526
Williams 489400
friend 488786
credit 488785
Runde 488741
shares 488372
meister 488090
Firma 487965
3. 487948
incident 487944
pm 487780
Su@@ 487701
Mat@@ 487659
Tochter 487523
ran 487492
Cameron 487367
Kur@@ 487225
comment 486989
ment 486803
markt 486726
liches 486516
Au@@ 485895
17@@ 485861
voters 485793
ven@@ 485711
Two 485342
nachdem 485271
create 485052
Club 484756
ann@@ 484710
Deshalb 484620
Hause 484179
currently 484053
treffen 483201
ir 483194
Ball 483094
popular 482833
out@@ 482772
ang@@ 482414
nahm 482391
opening 482167
hoch@@ 482131
under@@ 481771
cap@@ 481590
sprach 481559
decided 480593
ges 480255
isten 479981
gest@@ 479832
lage 479757
iger 479629
reason 479592
wolle 479403
ellen 479311
links 479272
above 478939
Durch 478714
danach 478575
Ö@@ 478438
bereich 478422
Zuschauer 478301
increased 478114
claimed 477803
success 477688
tt 477343
Government 477056
Sicherheit 477049
wrong 476934
To@@ 476843
Star 476699
sold 476579
Staats@@ 476577
Tom 476494
works 476293
scheint 476090
Berg@@ 476072
des@@ 476046
gt 476016
concerns 475911
es-@@ 475811
agreement 475796
central 475776
knew 475765
br@@ 475432
opportunity 474954
19@@ 474814
helfen 474754
levels 474542
gu@@ 474420
fs 474067
Bur@@ 473707
Nieder@@ 473456
wollten 473290
größten 473267
mean 473138
ihres 472973
Amt 472861
bereit 472452
agreed 472156
re-@@ 471980
Gu@@ 471894
abge@@ 471829
itself 471797
television 471683
Ru@@ 471625
Einen 471421
del@@ 471389
believed 471290
erreicht 471201
giving 471084
af@@ 470831
beginnt 470793
Dem 470765
demand 470660
Council 470597
Raum 470586
Arbeits@@ 470432
neues 470233
Autos 469340
gone 468953
homes 468727
Dar@@ 468696
politischen 468636
15@@ 468498
Volks@@ 468301
Fußball 468203
Our 468165
versch@@ 467962
named 467497
husband 467476
fourth 467451
Stück 467413
plant 467400
Tore 467037
Vergleich 466848
raised 466839
bietet 466760
via 466582
su@@ 466475
band 466087
Mor@@ 466068
Ur@@ 466008
2004 465444
effort 465333
gespielt 465239
debate 464974
Ex@@ 464818
Medien 464794
goes 464536
sign 464448
war@@ 464022
Tri@@ 464002
erte 463897
fully 463892
sch 463662
words 463649
ci@@ 463277
els 463204
16@@ 463097
Bush 462666
happy 462573
Republicans 462302
tz 462198
relationship 462028
Fußball-@@ 461828
darunter 461632
Sk@@ 461372
hal@@ 461226
vi@@ 461224
fo 461056
ko@@ 460879
11.@@ 460543
mittlerweile 460267
kt 459928
Barack 459845
Gra@@ 459604
neu@@ 459547
king 459514
Zahlen 459336
Africa 459321
scene 459301
website 459033
Möglichkeit 458899
ite 458549
Förder@@ 458306
Wil@@ 457842
reach 457706
ierung 457684
ana 457218
Nord@@ 457146
Schritt 456964
völlig 456909
Zeit@@ 456757
geführt 456449
review 456375
Form 456303
38 456142
travel 456012
tatsächlich 455999
revealed 455780
non-@@ 455729
sm@@ 455567
CNN 454686
ile 454618
title 454457
braucht 454313
looks 454211
annual 454204
beispielsweise 453900
fordert 453885
ler@@ 453796
Unfall 453777
education 453776
instead 453768
Landes 453400
girl 453322
weise 453216
Hälfte 453143
Wer@@ 452907
oben 452602
Landkreis 452592
rose 452388
Teilnehmer 452123
aten 452065
According 451933
48 451772
read 451065
Süd@@ 451044
10.@@ 450822
Scottish 450754
ran@@ 450219
Niederlage 450076
Her 449917
Insgesamt 449856
self-@@ 449709
hr@@ 449598
Fre@@ 449533
Democrats 449268
führte 449192
genug 448902
nächste 448882
certain 448802
tigen 448576
act 448560
schaft 448285
größte 448148
Ad@@ 448111
Geschäftsführer 448071
confirmed 447756
message 447305
simply 446970
att@@ 446905
mp@@ 446898
Verkehrs@@ 446680
ones 446591
figures 446563
cker 446048
sah 445960
War 445702
else 445679
tu@@ 445641
Bilder 445621
Tod 445597
Gegen 445371
hour 445280
ep@@ 445190
jede 444970
Spiele 444822
44 444810
ren@@ 444809
German 444726
lu@@ 444591
van 444565
account 444274
Putin 444213
ei 444085
Premier 443945
Florida 443931
Gen@@ 443820
post 443598
expect 443230
judge 443193
min@@ 443053
quality 442925
boy 442921
ders 442574
anti-@@ 442368
Ländern 442313
amount 442305
operations 442288
Alter 442255
Jürgen 442091
pretty 442076
sex 442051
ves 442014
Many 441605
Experten 441569
cke 441334
müssten 441300
ta 441166
fi@@ 440895
37 440720
beat 440642
enen 440224
Türkei 440003
Buch 439925
Sicht 439772
Idee 439644
Bericht 439341
bei@@ 439194
gebiet 439184
majority 439106
42 439036
Democratic 439028
150 438479
fällt 438431
leaving 437999
hohen 437877
Image 437674
politische 437607
numbers 437563
Staatsanwaltschaft 437441
challenge 437314
partner 437277
eller 437002
caused 436715
dienst 436519
Dafür 436295
Do@@ 436163
Wald@@ 436043
Health 436029
ary 435969
Kraft 435897
gehören 435885
build 435877
Pakistan 435453
minute 435446
scored 435424
victims 435385
gewonnen 435318
Video 435142
Museum 434622
Markus 434611
followed 434210
Angela 434163
Stein@@ 433456
bar@@ 433196
ationen 432457
Länder 432102
speech 431867
understand 431604
Fußball@@ 431508
King 431392
bau 431311
Kollegen 431095
14@@ 430066
Die@@ 429923
common 429905
neuer 429821
H 429664
hinaus 429279
ors 429097
Wert 429074
sonst 428899
ver 428732
attention 428551
extra 428444
früher 428331
gets 428273
erten 428196
nutzen 428148
tour 428027
hands 428015
Straßen@@ 427674
Tr@@ 427499
Bereits 427496
watch 427401
kids 427219
School 427187
Finale 427017
true 426606
tem 426527
ör@@ 426492
entschieden 426467
tor@@ 426347
Kn@@ 426244
Seiten 426102
ehemaligen 425757
row 425605
zeit@@ 425583
cuts 425333
claim 425328
injury 425104
65 425012
Stunde 424742
Park@@ 424726
track 424629
Bel@@ 424602
versucht 424486
Angst 424472
Bill 424333
Of 424203
Teams 424135
effect 423834
Red 423691
Klaus 423683
Ra@@ 423606
aren 423565
fighting 423540
chairman 423519
großer 423279
bevor 423239
sector 423064
ib@@ 422609
Chancen 422082
immediately 422011
Stelle 421964
Staat 421891
Sohn 421882
First 421492
ready 421339
created 421302
built 420860
ry 420827
Sache 420652
tri@@ 420375
zieht 420197
runs 419928
legen 419880
Interview 419722
details 419664
Prozess 419449
erreichen 419397
Cal@@ 419299
threat 419031
3.@@ 418854
spiel@@ 418455
contract 418270
ut 418266
Im@@ 418190
Bor@@ 418178
Veranstaltung 418122
rat 417451
Sa@@ 417346
zog 417054
bekommt 417030
tragen 416787
Hei@@ 416698
sprechen 416664
41 416592
gar@@ 416431
pf@@ 416200
tel@@ 416077
Alt@@ 415883
nämlich 415827
tro@@ 415213
warned 415203
Heute 414951
network 414947
sw@@ 414717
happen 414667
Z 414568
kon@@ 414130
verlassen 414044
zufrieden 413890
adding 413850
border 413788
aufge@@ 413501
darum 413327
wenige 413098
Punkten 413033
movie 412830
ish 412701
brand 412575
SG 412539
ns 412495
Mac@@ 412252
includes 411657
Krankenhaus 411278
offered 411274
sorgen 411133
Sebastian 410807
model 410769
kept 410743
Ent@@ 410728
approach 410662
FDP 410644
Brand@@ 410608
tige 410292
Tier@@ 410244
All@@ 410239
Maria 409960
langen 409887
Gre@@ 409634
search 409529
murder 409409
yesterday 409299
poor 409287
12.@@ 409004
related 408925
Super@@ 408884
Lösung 408816
ses 408675
Dortmund 408362
drive 408250
Far@@ 408105
Halle 407985
verband 407752
fre@@ 407739
cars 407610
aktualisiert 407454
ay 407374
Hotel 407341
regional 407274
vorbei 407040
len 406968
Mike 406833
Open 406821
Besuch 406694
Zur 406527
ah 406356
Wohnung 406201
base 406184
aktuellen 406178
businesses 405932
residents 405758
missing 405708
sell 405409
Spaß 405333
ko 405157
previously 405151
ban 405116
From 404971
NS@@ 404954
eins 404912
parts 404599
Daten 404508
centre 404430
considered 404237
gesetzt 404177
starting 404022
Glück 403770
Winter@@ 403545
Aktion 403513
funding 403350
Rennen 403113
Politiker 402869
ek 402857
jedem 402736
innerhalb 402655
Then 402423
sl@@ 402404
shooting 402382
version 402365
gegangen 402324
1-@@ 402261
Band 402243
wert 402207
fin@@ 402081
fund 401691
39 401625
Hil@@ 401614
ask 401475
opened 401443
är@@ 401395
co-@@ 401379
Ak@@ 401366
ft@@ 401348
easy 401142
fahr@@ 400980
43 400641
Zusammenarbeit 400632
Zeiten 400404
betont 400230
wald 399986
Bezirks@@ 399958
2,@@ 399619
liga 399603
date 399396
ance 399133
har@@ 399127
Bahn 399076
ah@@ 399021
fit 399006
Streit 398844
moving 398837
Holz@@ 398779
bieten 398766
Also 398668
gehe 398608
brauchen 398587
ars 398569
dy 398525
Air 398511
competition 398168
mu@@ 398056
hotel 397677
Griechenland 397633
Gegen@@ 397551
Steuer@@ 397488
Punkt 397428
figure 397251
erst@@ 397235
crime 397108
ches 397063
signed 397044
Boden 397037
Selbst@@ 397025
durchaus 396888
Jo@@ 396860
ales 396821
Ba@@ 396810
injured 396731
ang 396647
letter 396629
trip 396546
jedes 396450
English 396373
zone 396139
ort 396057
burger 396042
Studie 395908
Fin@@ 395819
ation@@ 395814
hof 395769
Richter 395666
Royal 395601
reached 395422
gingen 395341
Kunst@@ 395038
CSU 394828
land@@ 394821
Gel@@ 394688
Kevin 394676
ensure 394568
eg@@ 394465
2003 394433
troops 394262
changed 394074
Dr 394061
än@@ 394014
ette 393922
hearing 393762
Tour 393624
Press 393587
Tim 393466
Interesse 393437
Fl@@ 393203
meinte 393191
returned 393152
ner@@ 392659
arbeitet 392648
endlich 392578
dennoch 392441
closed 392420
reform 392250
Schmidt 392246
Hel@@ 392198
La@@ 392133
Scott 392046
Druck@@ 392020
sexual 391893
baby 391882
systems 391678
Aufgabe 391601
class 391547
hohe 391462
Pause 391399
Af@@ 391377
Islamic 391204
ino 391043
Euro@@ 391029
decades 391009
committee 390993
Kim 390975
flight 390953
candidate 390535
aufgrund 390531
Hol@@ 390291
Leiter 390278
Behörden 390267
san@@ 390252
itz 390208
Gesamt@@ 390127
mobile 389856
student 389365
Staaten 389356
ets 389303
hingegen 389040
sel 389001
Melbourne 388865
Mehrheit 388706
warum 388646
Treffen 388569
ste@@ 388372
alone 388340
trifft 388238
couldn 387938
source 387917
chten 387699
ism 387561
posted 387553
Banken 387183
Kal@@ 386993
benefits 386863
bi@@ 386707
researchers 386598
pen@@ 386530
ak 386480
tung 386426
mat@@ 386192
prime 386146
parties 385792
Secretary 385688
league 385665
spot 385444
Mu@@ 385233
cover 384921
Service 384847
Company 384830
hand@@ 384809
Manager 384625
launched 384588
führung 384440
Spielen 384421
besch@@ 384296
ast@@ 384253
driving 384116
ehemalige 383983
längst 383960
13@@ 383952
49 383901
Ms. 383752
drugs 383630
target 383530
weiter@@ 383468
mind 383418
Nachdem 383378
Gefahr 383316
Rie@@ 383311
Most 383205
talking 383171
Auftritt 383043
UPI 383003
population 382720
ship 382697
Vertrag 382683
Sonder@@ 382600
46 382588
straight 382558
towards 382178
Bevölkerung 381919
tig 381849
raise 381547
Association 381297
hören 381272
fuhr 381241
lesen 381153
center 381009
handelt 380930
Mer@@ 380845
steigen 380688
2018 380673
Winter 380659
killing 380436
fiel 380341
lack 380341
zentrum 380320
entscheiden 380147
Ausstellung 380065
Schulen 380063
bus 379996
elf 379856
safe 379833
Ermittlungen 379662
certainly 379607
p.m. 379579
Office 379411
mehreren 379377
Wiener 379198
Rede 379185
bed 378904
address 378743
ure 378357
employees 378167
Drei 377982
lichkeit 377860
Romney 377774
und@@ 377671
ded 377666
style 377527
Geld@@ 377457
europäischen 377264
isch@@ 377199
jo@@ 377075
street 377074
sale 377021
Madrid 376983
blood 376893
Leistung 376809
ations@@ 376613
arbeit 376573
mein 376510
gewann 376390
-year-old 376306
spielte 376235
Bundesregierung 376171
funds 375942
Bro@@ 375939
Augen 375821
hundreds 375612
Trotz 375600
600 375538
aid 374749
Gold 374700
National@@ 374616
V-@@ 374599
beyond 374589
gezeigt 374538
beste 374521
disease 374517
Kr@@ 374494
lagen 374453
starken 374410
ice 374285
2001 374170
Asyl@@ 374066
52 374052
Patrick 373973
Inter@@ 373890
wei@@ 373880
kur@@ 373772
bes@@ 373654
Vorsitzender 373635
Stimmen 373618
cks 373500
47 373292
str@@ 373152
Ke@@ 373085
comments 372990
verschiedenen 372891
union 372536
Polizisten 372534
ill 372442
protect 372344
massive 372263
Hor@@ 372199
pe 372058
Simon 371714
seem 371714
tough 371352
Lin@@ 371343
gew@@ 371312
Voll@@ 371301
measures 371244
Chicago 371238
Syrien 371127
Hu@@ 371092
unser 371092
Hannover 371003
schreibt 370780
provided 370425
users 370406
niemand 370052
len@@ 370003
Einzel@@ 369984
Champions 369950
Italien 369936
gewählt 369743
door 369558
condition 369530
passed 369456
Andrew 369261
nahe 369165
lediglich 369118
appear 369064
goals 369026
einzu@@ 369009
Stad@@ 368936
Western 368918
itz@@ 368900
Gr@@ 368837
insurance 368647
defense 368533
lei@@ 368480
feet 368272
ef@@ 368108
Te@@ 367905
Fe@@ 367734
oh@@ 367680
mark 367577
Wales 367458
Wall 367426
seemed 367353
alisierung 367340
Bundesliga 367322
cht@@ 366883
bisschen 366871
zahlreiche 366859
issued 366820
normal 366737
perhaps 366659
51 366502
table 366475
Mexico 366280
agen 366239
ve@@ 365881
sucht 365775
suchen 365685
Christmas 365619
12@@ 365469
tete 365258
meint 365155
Real 365114
natural 365038
Mark@@ 364987
Recht 364979
Dem@@ 364956
politics 364833
esch@@ 364815
Familien@@ 364736
yer 364643
Nähe 364554
außerdem 364315
dr@@ 364289
Ehren@@ 364236
rat@@ 364160
legte 364127
Pu@@ 364073
Win@@ 364046
battle 364007
ill@@ 363937
erfolgreich 363915
post@@ 363855
Plan 363715
schweren 363624
ess@@ 363219
original 363207
Warum 363140
damage 362969
sub@@ 362960
heraus 362936
Steve 362894
cken 362877
Koalition 362816
Heim@@ 362535
pair 362523
ski 362457
besteht 362444
Although 362374
Außen@@ 362342
designed 362286
bid 362261
Geschäfts@@ 362222
plane 362205
Weihnachts@@ 362095
Test 362054
Ost@@ 361947
Krise 361837
gl@@ 361576
hielt 361105
weather 360876
ganzen 360733
supporters 360517
k-@@ 360506
Urteil 360469
os@@ 360459
voll@@ 360423
avoid 360347
Institute 360137
winner 360136
sche 360044
Gas@@ 360043
Security 360037
Verfahren 359722
Show 359659
mitteilte 359563
Rund 359517
2002 359417
Canada 359253
stars 359123
Ben 359071
Bl@@ 359006
0,@@ 358995
solle 358926
experts 358872
traf 358773
halle 358738
store 358557
Vorstand 358547
asse 358288
attempt 358286
WM 358232
X 358213
kn@@ 358136
Film@@ 358082
ub@@ 358050
hen 357982
written 357931
Pf@@ 357925
Werner 357903
spend 357799
öffentlichen 357627
bare 357313
Can@@ 357275
ien 357203
box 357202
Com@@ 357169
mal@@ 357128
Turn@@ 357028
planned 356964
standen 356787
Dieses 356754
anzu@@ 356541
tel 356496
Vertreter 356358
Sel@@ 356329
alleged 356144
below 356101
weltweit 355995
anz@@ 355952
trotzdem 355930
Patienten 355811
wenigen 355780
zwei@@ 355670
Beide 355499
Is 355382
obwohl 355379
suggested 355306
Chelsea 355052
Weise 355008
Rechts@@ 354952
holen 354886
ven 354673
size 354602
oo@@ 354564
twe@@ 354510
Herbst 354500
trading 354465
joined 354442
forderte 354367
une 354287
save 354078
dropped 354052
Wort 354049
Another 353977
Kan@@ 353882
newspaper 353851
calling 353796
climate 353786
km 353531
suffered 353427
Online 353385
länger 353268
Bau 352943
tens 352925
arrived 352698
Just 352572
ages 352568
decade 352510
independent 352491
jähriger 352142
4. 352084
finally 351879
ließen 351610
La 351475
yn 351453
Ben@@ 351435
millions 351420
hei@@ 351363
word 350807
Ab 350755
ow@@ 350606
teten 350323
Aktu@@ 350297
B-@@ 350214
raum 349941
reporters 349931
schön 349927
einzige 349897
2-@@ 349782
Abschluss 349738
Sand@@ 349719
Fehler 349664
Justice 349422
Moment 349376
Arbeiten 349094
# 349084
fel@@ 348978
Sekunden 348974
emergency 348947
Commission 348865
choice 348857
0.@@ 348809
ring 348771
erster 348758
Matthias 348717
chte 348692
sometimes 348687
Ri@@ 348635
Zwar 348253
ant@@ 348243
successful 348136
54 348122
ess 348044
product 347925
improve 347822
meist 347673
ong 347639
Kl@@ 347626
Familien 347479
leadership 347427
appears 347418
Jugendliche 347191
Hauptstadt 347087
William 347038
afternoon 346994
weapons 346830
Sommer@@ 346815
erinnert 346751
driver 346665
spoke 346657
lan@@ 346620
mission 346606
host 346363
additional 346249
Lee 346177
toward 345864
Since 345793
Other 345662
abuse 345594
gold 345570
Josef 345469
Ham@@ 345133
laws 345072
Münchner 344927
alter 344922
stand@@ 344875
Lehr@@ 344709
confidence 344279
Konzern 344268
paper 344243
operation 344219
Eis@@ 344215
Sol@@ 344136
dollars 344001
picture 343955
800 343892
Reihe 343796
lines 343795
bestätigt 343653
Stand 343626
Luft 343481
chef 343449
council 343359
95 343343
north 343335
Ireland 343269
places 343234
rechnen 343193
Hollywood 343152
enten 343125
Gewalt 343084
seeking 343075
Tu@@ 343049
dar@@ 342977
falls 342865
About 342782
ast 342769
guilty 342637
Dinge 342573
revenue 342567
believes 342257
Gemeinde@@ 342160
launch 342101
Geschäft 342084
throughout 341821
housing 341807
SPD-@@ 341639
-F@@ 341587
zi@@ 341420
wouldn 341210
complete 341097
Big 340877
Italy 340755
Gastgeber 340732
Spitze 340704
Jugendlichen 340669
fear 340643
Ryan 340404
ham 340299
sort 340275
walk 339984
gra@@ 339904
tin 339810
mt 339528
ini 339452
reduce 339398
tor 339092
komplett 339050
Monat 338984
com@@ 338884
ists 338855
stu@@ 338800
older 338753
piece 338693
tal 338662
girls 338572
ONLINE 338559
Klasse 338507
Universität 338325
crowd 338316
AS@@ 338221
ili@@ 338162
ick 338112
1000 337750
worst 337688
image 337282
Professor 337235
Col@@ 337013
caught 337007
Sitzung 336699
tsch@@ 336547
train 336545
served 336519
losing 336230
rule 336027
4.@@ 335966
present 335793
kr@@ 335784
sowohl 335774
53 335763
ani 335653
Wein@@ 335605
hopes 335565
marriage 335421
carried 335252
legt 334966
Nummer 334949
Pol@@ 334749
admitted 334611
Wegen 334606
highest 334557
Maßnahmen 334449
fine 334336
Themen 334295
practice 334230
Beamten 334214
civil 334116
ser 334028
required 333882
sal@@ 333878
Vergangenheit 333864
gezogen 333785
Committee 333732
aff@@ 333675
ative 333529
25@@ 333438
era 333238
reichen 333234
Schluss 333219
Stimmung 333197
gesperrt 333172
99 333159
weg@@ 333011
consider 332973
domestic 332950
20. 332898
unterstützt 332699
internationalen 332546
Despite 332545
Hamburger 332531
whom 332520
Pl@@ 332454
nahmen 332435
brother 332259
schutz 332231
Schw@@ 331871
elections 331865
Dis@@ 331838
illegal 331737
Kunst 331579
D-@@ 331538
56 331501
fair 331363
selling 331359
ties 331273
ford 331241
Vereins@@ 331117
Dre@@ 331021
female 330890
assets 330873
secretary 330873
3-@@ 330845
strategy 330789
Hin@@ 330780
Mel@@ 330765
Buch@@ 330653
thinking 330576
holding 330336
meiner 330124
dre@@ 330030
St 329945
5. 329906
Grad 329901
ingly 329674
criminal 329457
anderer 329426
Gi@@ 329401
Schaden 329242
gs 329118
operating 329080
warten 329059
mes 328773
Tiere 328715
Kurz 328540
Sicherheits@@ 328438
deep 328367
bur@@ 328265
Syrian 328208
Hintergrund 328121
Straßen 327937
io 327926
crash 327906
yn@@ 327779
movement 327732
greater 327659
tur@@ 327620
injuries 327605
rich 327603
sa 327236
bedeutet 327072
owner 327050
bs 326965
benefit 326932
getötet 326800
Barcelona 326759
speak 326691
lebt 326658
passiert 326631
hear 326447
Joe 326335
Franz 326164
spiele 325963
Präsidenten 325962
Schweizer 325934
Kom@@ 325852
starke 325837
Meister 325762
04 325619
begin 325339
peace 325197
finished 325145
85 325069
Weitere 324890
Photo 324780
card 324716
schutz@@ 324674
C-@@ 324319
ade 324305
solchen 324161
Hans 323972
Soldaten 323942
sports 323941
az@@ 323912
As@@ 323836
showing 323808
Letzte 323560
ass@@ 323475
San@@ 323427
ore 323346
el-@@ 323318
6. 323249
Rang 323171
freuen 323117
Jackson 323095
Opposition 323093
Rathaus 323029
Freunde 322973
ya 322965
Hinweise 322909
gelten 322809
activity 322719
entwickelt 322677
15. 322656
Frei@@ 322615
Ausland 322558
Tre@@ 322509
Tro@@ 322444
department 322318
i-@@ 322259
baren 322191
culture 322159
kten 321861
fragen 321828
Danach 321711
faces 321612
concern 321553
concerned 321507
Ker@@ 321420
weight 321408
gun 321213
verkauft 321032
begonnen 320977
Suche 320951
Bahn@@ 320914
ath@@ 320856
Oder 320797
Gro@@ 320756
contact 320748
lau@@ 320652
Ist 320597
particular 320584
declined 320509
Inc 320399
Metern 320359
Tat 320344
Tat@@ 320195
57 320165
iti@@ 320161
books 319986
offers 319944
middle 319878
politik 319812
cur@@ 319800
kte 319781
entire 319722
wären 319622
planning 319597
Dennoch 319385
Ergebnisse 319276
sides 319159
Dor@@ 319028
gers 319001
klasse 319000
Neue 318994
ack 318956
vier@@ 318849
Künstler 318790
mb@@ 318789
Black 318766
Both 318734
Liebe 318717
Folgen 318682
Le 318588
großes 318578
früheren 318411
sky 318330
erung 318308
denied 318243
ju@@ 318238
kämpfen 318220
wichtige 318059
intelligence 317976
Festival 317968
evening 317850
Today 317795
strike 317613
soldiers 317579
det 317524
Tony 317373
basis 317352
Verhandlungen 317342
Bund 317174
jüngsten 316901
Kultur 316856
addition 316751
Heimat 316645
vehicle 316643
stärker 316491
shown 316427
feeling 316418
Tru@@ 316334
double 316270
Spar@@ 316120
stieg 316018
join 315816
essen 315703
Spain 315700
enter 315633
Ja 315622
rising 315586
genutzt 315579
inn@@ 315560
verhindern 315520
Konzept 315512
appeal 315426
wide 315404
äl@@ 315369
CDU-@@ 315338
bahn 315332
Leit@@ 315328
Linie 315319
Max 315262
Fotos 315193
auszu@@ 315128
reality 314934
are@@ 314806
Engagement 314740
powerful 314716
reden 314710
answer 314572
continues 314466
Wit@@ 314357
Mitglied 314260
Mil@@ 314196
Möglichkeiten 314044
ese 313962
allegations 313913
58 313857
to-@@ 313779
Serie 313692
Training 313636
Gespräche 313630
Federal 313608
m-@@ 313548
stets 313500
During 313494
Parteien 313446
co 313295
ansicht 313262
Freude 313071
receive 312996
ils 312978
verkehr 312851
Meinung 312607
Auto@@ 312584
Ku@@ 312575
amp@@ 312437
Natur@@ 312276
Treffer 312274
cre@@ 312242
pa@@ 312233
facing 312127
material 311946
Don 311868
cities 311845
Em@@ 311709
unk@@ 311664
meant 311433
ola 311357
Jugend 311334
Alex 311222
Betrieb 311147
win@@ 311070
Quelle 311033
WM-@@ 310954
gem@@ 310898
Verwaltung 310840
century 310800
block 310792
ass 310772
voller 310767
fte 310743
geschlossen 310692
Those 310619
Bremen 310553
Natürlich 310455
prevent 310378
jemand 310308
ev@@ 310259
haven 310239
angesichts 310162
Sir 310100
Ministerpräsident 309911
uss@@ 309868
modern 309713
critical 309550
ow 309547
Grün@@ 309286
steigt 309241
form@@ 309228
individual 309128
singer 308998
Why 308988
Hoffnung 308905
chs 308766
Vorjahr 308664
09 308659
subject 308648
Schließlich 308521
lawyer 308494
Durch@@ 308467
gleichen 308345
Antrag 308235
Partner 308121
status 308079
Wi@@ 308077
Brand 308007
wi@@ 307991
overall 307976
Essen 307807
Men@@ 307774
Jan 307643
lernen 307555
abzu@@ 307505
putting 307498
ag 307453
Kölner 307387
eu@@ 307293
Parlament 307235
Wel@@ 307026
AG 306930
Oliver 306893
ads 306735
Privat@@ 306731
policies 306725
ente 306674
camp 306663
Pal@@ 306647
drop 306622
Top@@ 306607
design 306507
angekündigt 306500
Antwort 306486
feiern 306464
Fo@@ 306453
Besonders 306428
0-@@ 306325
wagen 306262
stellten 306044
serve 305991
Ball@@ 305948
traditional 305942
Ob@@ 305719
tritt 305636
Fr@@ 305629
heavy 305571
estimated 305269
Vier@@ 305242
photo 305050
vereins 305033
proposed 304983
candidates 304978
Kirchen@@ 304967
Organisation 304910
actions 304846
green 304698
ark@@ 304507
darin 304404
beginning 304361
Dieter 304232
13. 304187
gelang 304165
one-@@ 304133
Kein 304098
ue 304076
59 303936
Düsseldorf 303835
ändern 303749
south 303725
Queen 303719
enz 303686
Wagen 303631
Green 303558
Daily 303511
High 303498
sur@@ 303420
note 303364
type 303325
Prince 303216
Ausbildung 303195
ruling 303188
05 303142
versuchen 302915
ack@@ 302783
erwarten 302636
geschichte 302479
begann 302445
Krieg 302332
Schweiz 302153
Gesetz 302149
doctors 301951
programme 301920
page 301894
deutschland@@ 301668
broke 301657
programm 301437
signs 301429
Here 301423
tions 301315
acher 301270
Fox 301262
Jahres@@ 301141
Bes@@ 301017
meinen 300998
Liverpool 300903
schreiben 300900
legislation 300800
eventually 300788
Ges@@ 300782
US@@ 300771
19. 300763
dt 300624
seeing 300622
gn@@ 300564
discovered 300318
ren 300306
push 300209
aufs 300177
Adel@@ 299946
Yet 299913
floor 299912
Hö@@ 299827
statements 299806
Deutschlands 299753
pick 299710
sorgte 299609
gefallen 299581
ness 299405
machten 299395
urs 299367
je@@ 299326
Israeli 299324
Bet@@ 299109
por@@ 299098
iere 299022
stopped 298979
vierten 298762
Frankfurter 298697
entfernt 298657
kan@@ 298614
rechts 298571
bild 298558
plötzlich 298313
Angriff 298267
aktiv 298266
10. 298257
Schl@@ 298246
becoming 298120
rec@@ 298108
ful 298065
kar@@ 297946
Rei@@ 297823
hart 297743
schul@@ 297673
11. 297660
lig@@ 297565
storm 297537
ker@@ 297465
ion 297412
African 297365
System 297244
foot 297223
Zeitpunkt 297201
Boston 297181
eyes 297167
clearly 297135
verb@@ 297057
250 297044
gro@@ 296972
rein@@ 296970
responsible 296964
Menge 296914
audience 296882
ane 296861
tru@@ 296818
Konzert 296737
Gruppen 296551
Gemeinderat 296548
Kontakt 296521
Bra@@ 296435
€ 296320
getroffen 296278
dangerous 296207
Stellen 296107
Theater 296055
Netz 296050
Gesicht 296037
Inst@@ 295971
offering 295963
Karriere 295909
follow 295818
museum 295772
VfL 295666
Spanien 295615
Öffentlichkeit 295590
consumers 295486
plays 295319
helping 295302
Feuer 295301
stag 295265
Regional@@ 295254
Mas@@ 295164
primary 295150
scheduled 295107
committed 295043
twice 294979
champion 294954
3,@@ 294946
Hall 294899
send 294870
generation 294852
08 294711
Meanwhile 294669
frühere 294659
schrieb 294636
jedenfalls 294591
Licht 294586
seat 294416
Harry 294413
Kre@@ 294406
Will 294399
managed 294258
Markt@@ 294228
Reise 294222
folgen 294188
wearing 294082
sorgt 294019
Job 294010
Schn@@ 293980
identified 293909
Brüssel 293886
character 293886
keiner 293866
standards 293840
bought 293800
tiger 293701
environment 293699
geschrieben 293697
west 293492
Muslim 293448
brain 293292
lie 293245
Act 293239
dog 293238
knows 293173
kündigte 293149
Oster@@ 292924
erg@@ 292867
Central 292827
-An@@ 292778
Lei@@ 292711
sogenannten 292647
Ford 292635
Is@@ 292567
Walter 292499
mental 292417
telling 292383
CEO 292328
pel 292160
res@@ 292156
Sha@@ 292078
college 292013
ram 291853
gives 291843
fen@@ 291718
asking 291685
Their 291620
married 291619
army 291572
Murray 291539
programs 291457
{ 291283
struck 291250
8. 291195
Taliban 291167
Doppel@@ 291140
diesmal 291067
reicht 290970
Motto 290950
dadurch 290879
aufgenommen 290875
Grenzen 290818
affected 290754
7.@@ 290721
profit 290653
progress 290611
5.@@ 290122
fellow 289854
Ser@@ 289787
Immer 289770
Nachmittag 289770
überzeugt 289679
fuel 289663
Nein 289463
ungsp@@ 289398
cast 289333
30. 289309
aged 289224
yards 289185
trägt 289025
Mario 288972
stre@@ 288940
bro@@ 288935
öl@@ 288855
writing 288792
Lie@@ 288746
kennen 288681
schlecht 288659
Firmen 288584
society 288574
flo@@ 288565
droht 288531
30@@ 288515
remember 288396
14. 288342
Bewegung 288316
Tages@@ 288231
unternehmen 288179
schlagen 288106
limited 288020
Kor@@ 287962
anderes 287942
ay@@ 287876
teilweise 287876
carry 287848
Partei@@ 287744
Mensch 287619
z-@@ 287576
unterstützen 287517
waiting 287497
simple 287436
measure 287361
18. 287322
Research 287312
übernehmen 287291
ai 287261
7. 287219
dé@@ 287211
victim 287168
Karl 287098
completely 287051
learn 287010
gehalten 286981
9. 286924
Pet@@ 286820
halt 286713
ban@@ 286665
preis 286632
sitzen 286615
Keine 286574
hor@@ 286510
geschlagen 286463
Debatte 286434
Christ@@ 286426
difference 286400
Teil@@ 286186
increasingly 286070
Strecke 286039
fr@@ 285938
zen@@ 285885
weder 285814
Nachfrage 285755
treten 285752
Gast@@ 285739
Jeder 285708
Information 285641
commercial 285628
shared 285592
mögliche 285558
Diskussion 285548
Alles 285513
Nor@@ 285513
möglichst 285472
Hill 285460
Charles 285437
teil@@ 285400
beschäftigt 285349
noted 285307
screen 285184
Christoph 285143
missed 285137
Bernd 285093
Verantwortung 285085
gesamte 284995
developed 284992
Autofahrer 284952
gehabt 284913
entgegen 284904
gebaut 284819
Kontrolle 284773
Borussia 284665
dor@@ 284604
eye 284589
remained 284499
bisherigen 284474
beck 284410
Fahrzeug 284379
Rio 284281
Chief 284229
P-@@ 284160
amid 284144
eröffnet 284056
kennt 283777
wal@@ 283716
perfect 283699
Vereine 283666
ble 283647
fun 283549
add 283471
Wetter 283436
myself 283392
unseren 283284
ersch@@ 283188
oll@@ 283179
ek@@ 283174
Freund 283161
survey 283133
streets 282991
projects 282984
4-@@ 282873
freut 282826
sea 282655
placed 282613
-J@@ 282597
lief 282557
n-@@ 282528
See 282477
6.@@ 282465
Pläne 282378
gemeinsamen 282361
lauf 282355
Hillary 282325
highly 282319
mittel 282315
bre@@ 282270
j 282263
sitzt 282225
schauen 282082
gesellschaft 281995
mel 281906
fehlt 281865
zeiten 281849
gelegt 281844
Personal@@ 281761
wall 281749
erinnen 281727
Ohne 281650
standing 281572
Roman 281486
wind 281427
reasons 281347
Ärzte 281320
Pri@@ 281272
Luft@@ 281267
Ki@@ 281266
17. 281256
Sen@@ 281249
Kir@@ 281226
gesamten 281197
son@@ 281192
700 281158
spieler 281048
church 281040
Virginia 280995
daily 280973
Wander@@ 280968
Innen@@ 280944
paying 280933
mittel@@ 280929
refused 280848
ath 280822
regelmäßig 280775
Verkehr 280748
ität 280650
doubt 280605
owners 280594
fu@@ 280565
clubs 280549
Plus 280457
gefragt 280327
Preise 280307
Vi@@ 280276
teil 280139
Lam@@ 279992
usually 279961
airport 279919
bekam 279887
Musiker 279784
Zuletzt 279776
ausschuss 279769
demnach 279723
Position 279689
denken 279559
schn@@ 279504
Werk 279476
wood 279460
Lehrer 279431
ute 279416
professor 279412
AT@@ 279400
Don@@ 279358
aut 279302
views 279272
largely 279232
13.@@ 279092
bor@@ 279041
construction 279021
Y 279012
punkt 279008
filed 278925
balance 278911
ismus 278824
zählt 278744
Schwarzw@@ 278735
haft 278730
prepared 278697
risks 278681
justice 278622
Strom@@ 278455
Fischer 278407
Gesch@@ 278202
focused 278057
Grenze 278051
Grüne 277970
rä@@ 277904
arm 277868
long-term 277753
einst 277687
gender 277663
hol@@ 277654
ABC 277626
holiday 277617
ön@@ 277535
Gelände 277471
tic 277445
fordern 277386
regular 277366
9.@@ 277321
ably 277251
Carolina 277233
fired 277205
betrieb 277118
Wall@@ 276861
ßen 276859
schwere 276813
exactly 276807
watching 276766
ky 276721
unbe@@ 276687
f-@@ 276641
emp@@ 276631
verantwortlich 276573
scher 276424
professional 276390
Sach@@ 276373
Heimat@@ 276193
wing 276179
Anteil 276166
vehicles 276166
Kandidaten 276159
Kirch@@ 276125
Turkey 276078
der-@@ 275970
faced 275851
möglichen 275837
Pat@@ 275836
actor 275793
Arena 275784
earnings 275774
aden 275743
16. 275742
losses 275704
Feuerwehr@@ 275651
linked 275633
Holl@@ 275571
mi@@ 275558
ter-@@ 275527
recovery 275490
betroffen 275480
Fahrzeuge 275386
Nick 275337
Einige 275293
früh 275125
sto@@ 275110
anschließend 274935
tal@@ 274899
heraus@@ 274660
Flüchtling@@ 274536
Mehr@@ 274533
Ka@@ 274446
attorney 274408
spokeswoman 274354
images 274335
mor@@ 274319
SPIEGEL 274270
warning 274267
Nar@@ 274233
angeboten 274155
kom@@ 274132
stell@@ 274077
MP 274056
Adam 273929
Mrs 273904
heutigen 273844
aw@@ 273762
bestätigte 273756
Online-@@ 273752
Best@@ 273665
G-@@ 273609
plätze 273558
responsibility 273477
Joachim 273473
computer 273442
lieber 273298
ching 273249
Zusammenhang 273136
Taylor 273015
reg@@ 272970
beginnen 272833
defence 272794
dritte 272783
Initiative 272762
Grand 272743
selten 272713
Jungen 272571
fs@@ 272520
Plan@@ 272494
voice 272462
Vielleicht 272442
fanden 272384
Schön@@ 272366
index 272344
wieder@@ 272313
wa@@ 272280
records 272265
produced 272260
Army 272226
zt 272224
J 272150
ents 272091
Unfall@@ 271999
berg@@ 271785
protest 271725
Han@@ 271721
score 271696
Coast 271671
Wechsel 271642
supply 271621
Fal@@ 271483
heit 271369
verdient 271350
zeigten 271290
Asia 271289
assault 271227
lived 271125
gan@@ 271069
Da@@ 271009
7-@@ 270999
Lewis 270932
Erfahrung 270910
oc@@ 270906
geplanten 270763
arrest 270742
aircraft 270738
gemeinschaft 270730
wait 270670
get@@ 270648
tra@@ 270617
führer 270590
Island 270511
shop 270453
Bei@@ 270351
Morgen 270269
worse 270173
12. 270083
respect 270029
radio 270008
treated 269866
96 269823
Berufs@@ 269803
ohnehin 269798
Gabriel 269744
governor 269693
super@@ 269638
author 269610
Herr 269594
dig 269558
documents 269508
check 269499
ür@@ 269496
Flug@@ 269384
mostly 269349
25. 269317
rich@@ 269204
famous 269171
Olympic 269136
pre-@@ 269106
Wild@@ 268914
names 268892
Bedeutung 268830
Italian 268783
mag 268651
UN@@ 268611
sport@@ 268528
Medien@@ 268520
ire 268494
Tur@@ 268402
losen 268194
back@@ 268188
ER@@ 268166
conflict 268153
AFP 268092
beteiligt 268078
Gefühl 268056
fährt 267907
erkennen 267863
erfahren 267861
aktuell 267852
eil 267841
stories 267807
Bay 267747
Liste 267731
ls 267672
protests 267604
frühen 267554
Stre@@ 267504
Labor 267498
bern 267437
M. 267364
leisten 267308
ip@@ 267290
Stadion 267284
Hinter@@ 267147
S. 267146
sites 266972
stellung 266901
keeping 266896
traffic 266861
Macht 266856
Rock 266837
speed 266802
tests 266801
ordered 266695
täglich 266667
Jack 266614
Del@@ 266568
entstehen 266563
necessary 266552
21. 266538
ht 266484
Gau@@ 266415
müsste 266351
Zeichen 266343
entdeckt 266269
tungs@@ 266236
Leipzig 266222
grow 266174
U-@@ 266139
various 266026
language 266002
male 265951
vorne 265950
wirkt 265929
met@@ 265820
Philipp 265602
verschiedene 265391
boys 265374
Person 265348
consumer 265307
Sarah 265198
organisation 265147
24@@ 265134
französischen 265132
taxes 265064
ro 265054
Fast 264916
gleichzeitig 264742
Indian 264707
stra@@ 264687
ministers 264589
Regierungs@@ 264578
Pfarr@@ 264563
Zentrum 264547
Stars 264517
speaking 264492
jahr 264473
erhielt 264459
elte 264448
ze@@ 264424
leg@@ 264352
owned 264330
seite 264317
GmbH 264219
pain 264168
fresh 264139
Arsenal 264133
Technik 264113
66 264049
ee 264009
surgery 264008
restaurant 263916
kostet 263880
College 263860
cr@@ 263819
anti@@ 263813
A. 263790
va 263780
Stamm@@ 263698
hot 263652
behörde 263640
aide 263603
poll 263525
rei@@ 263383
bauen 263377
Hau@@ 263331
dollar 263247
sources 263209
fashion 263189
Sy@@ 263179
schlag 263152
Leitung 262958
pol@@ 262894
island 262719
separate 262703
unit 262681
nötig 262640
negative 262575
direct 262557
50@@ 262432
Zwei@@ 262418
ch-@@ 262407
decisions 262365
isch-@@ 262314
Preis@@ 262306
Vom 262233
Flughafen 262180
ün@@ 262179
Wettbewerb 262090
häufig 262073
immigration 262036
failure 262007
bt 261926
gaben 261904
Stephen 261827
mün@@ 261746
schaften 261713
4,@@ 261706
deaths 261627
Telefon 261605
Je@@ 261579
VW 261563
ash 261545
Bundestag 261290
sn@@ 261274
Veranstaltungen 261244
Ju@@ 261173
Jung@@ 261166
Victoria 261144
sho@@ 261128
Hospital 261093
volle 260913
Drittel 260894
sound 260859
Spitzen@@ 260828
giant 260821
Rhein@@ 260805
core 260783
option 260661
hair 260521
fa@@ 260304
vice 260255
Selbst 260247
options 260214
Gast 260203
Home 260162
5-@@ 260141
Frauen@@ 260016
vermutlich 260003
accounts 259991
hinzu 259989
exchange 259964
advantage 259862
Marco 259780
finish 259620
backed 259536
hofft 259465
stands 259462
broken 259393
8.@@ 259277
aware 259274
heimer 259267
Terror@@ 259219
draw 259172
regime 259138
northern 259110
2020 259091
Halbzeit 259033
präsentiert 258939
Supreme 258891
captain 258889
Beijing 258871
Sam@@ 258859
sing 258827
Bö@@ 258820
Microsoft 258787
los@@ 258769
gay 258765
finding 258517
Herz@@ 258484
72 258326
Star@@ 258194
bacher 258180
gutes 258116
Mittel 258029
Media 258003
Mag@@ 257961
kreis 257943
complex 257896
estate 257667
Hamilton 257572
tournament 257516
Japanese 257406
Francisco 257399
gefeiert 257397
reporting 257388
analysts 257370
Rö@@ 257366
Energie@@ 257353
coalition 257298
ical 257161
scientists 257024
-Chef 257008
tiert 256900
kaufen 256887
Fernseh@@ 256817
lies 256744
resources 256690
Eigen@@ 256684
Ganz 256646
wor@@ 256642
mm@@ 256622
E-@@ 256502
beschlossen 256397
VfB 256394
tan@@ 256343
trust 256317
nearby 256308
fahrer 256292
leitung 256281
penalty 256254
bodies 256247
increasing 256191
Erst@@ 256148
RE@@ 256144
seek 256112
ara 256095
plan@@ 256046
120 256011
ziemlich 255978
Dank 255945
gefordert 255936
advice 255900
Financial 255879
ised 255571
herself 255489
Management 255452
Sti@@ 255406
Rem@@ 255398
bericht 255342
boost 255332
Karten 255312
southern 255215
two-@@ 255201
Bus@@ 255162
conservative 255029
rü@@ 255022
Foreign 254945
Gl@@ 254726
explained 254719
directly 254693
startet 254616
Young 254588
Aufgaben 254467
Wohnungen 254436
iPhone 254382
science 254354
Fällen 254264
uses 254241
ris@@ 254125
lung 254103
onto 254085
Georg 253891
Standort 253871
weiterer 253863
Ban@@ 253819
unbedingt 253791
sts 253706
Gerade 253692
Road 253658
na 253553
kritisiert 253537
nature 253516
university 253466
Nachfolger 253417
Tisch 253325
Three 253221
geln 253063
guy 253057
gemein@@ 252974
Weltmeister 252944
activities 252938
dank 252925
spread 252885
allegedly 252859
birth 252851
ali@@ 252655
Helmut 252592
Forscher 252569
Pr@@ 252541
ously 252511
Sachen 252433
Qualität 252384
pulled 252347
getan 252300
Konkurrenz 252295
shots 252267
Schutz 252205
armed 252146
passengers 252090
steps 252006
ett@@ 251919
ending 251916
Associated 251899
Fu@@ 251883
Northern 251718
64 251698
Verkauf 251696
physical 251651
asch@@ 251624
Lord 251557
tut 251533
71 251406
Super 251395
eingesetzt 251347
verurteilt 251339
suggests 251299
votes 251198
Kin@@ 251182
sozialen 251152
festival 251135
Fed 250869
fehlen 250732
AL@@ 250626
de-@@ 250598
Matt 250517
Mur@@ 250492
defeat 250484
providing 250375
bewusst 250346
vertreten 250344
gesprochen 250321
ick@@ 250255
Gri@@ 250096
ständig 250061
freien 250011
Instead 250001
Johannes 249883
verlor 249840
vorstellen 249808
jährlich 249777
rare 249724
corporate 249705
upon 249701
Verletzungen 249692
effective 249677
effects 249666
politicians 249587
influence 249560
fifth 249355
teilt 249296
stehe 249277
1999 249262
proposal 249245
UN 249234
Plätze 249146
Anna 249096
ically 249079
Homepage 249072
PM 249044
Tür 248971
Wind@@ 248950
67 248922
star@@ 248920
sor@@ 248830
insbesondere 248809
all-@@ 248794
mut@@ 248739
Wunsch 248718
versammlung 248666
Kommunen 248553
Bank@@ 248543
Wol@@ 248536
lin 248504
Alten@@ 248458
gleich@@ 248399
standard 248303
Rettungs@@ 248302
anten 248285
Radio 248222
fle@@ 248189
seconds 248158
sters 248145
Regen@@ 248121
guys 248086
festgenommen 247924
Ihnen 247907
features 247885
McCain 247836
kill 247828
anlage 247818
announcement 247754
develop 247725
Stimme 247689
Alters@@ 247675
10-@@ 247563
Pa@@ 247563
Bildungs@@ 247555
Zeugen 247483
cher@@ 247444
Schneider 247422
high-@@ 247404
beg@@ 247373
Auftakt 247357
Westen 247350
dri@@ 247343
Duell 247317
Kanzlerin 247248
zahlreichen 247150
May@@ 247143
Char@@ 247120
Saison@@ 247056
protesters 247048
parliament 247026
63 247002
writer 246908
rit@@ 246885
ther@@ 246808
nennt 246465
ano 246463
produce 246446
district 246266
geraten 246250
setting 246249
Einsatz@@ 246231
Auftrag 246219
thalle 246219
Helfer 246131
62 246078
TuS 245956
organization 245954
hängt 245926
firms 245919
unklar 245859
lers 245858
guard 245856
russischen 245747
aktuelle 245695
ine@@ 245657
rock 245647
ki 245607
ermittelt 245591
itzer 245568
äu@@ 245505
Under 245492
suggest 245489
grew 245403
discuss 245376
drama 245357
Ram@@ 245350
dem@@ 245261
squad 245178
genannt 245152
Over 245085
District 245050
boss 244789
Brazil 244739
digital 244728
22. 244722
informiert 244678
citizens 244668
vorher 244636
Verkehr@@ 244542
maybe 244532
Fest 244483
mid-@@ 244274
secure 244131
Satz 244050
trat 244011
Schauspieler 243971
Florian 243928
Musi@@ 243920
rechten 243892
20-@@ 243809
hu@@ 243757
approved 243708
Sanierung 243647
ends 243618
Mannschaften 243551
Top 243546
Uwe 243501
digen 243449
Amazon 243447
Wo@@ 243446
Eric 243256
Jan@@ 243163
ying 243147
arms 243146
aner 243112
61 243102
Sky 243078
pri@@ 243058
Straf@@ 243050
kel 243046
Horst 242967
1,000 242921
ften 242919
ence 242916
Rosen@@ 242905
Leistungen 242870
ants 242819
fertig 242810
46@@ 242761
Has@@ 242739
Vil@@ 242661
J. 242561
loans 242547
Innenstadt 242508
Greece 242503
Haft 242492
inc@@ 242378
and-@@ 242284
iges 242205
software 242107
Mad@@ 242060
dark 242036
Derzeit 241988
vollen 241890
stone 241876
ruled 241872
funktioniert 241812
New@@ 241764
ide@@ 241763
falling 241755
aler 241656
ws 241538
ke@@ 241456
Gerhard 241437
Saudi 241359
wh@@ 241310
häuser 241263
Osten 241246
Sie@@ 241149
Eintracht 241087
gend 241066
app@@ 241008
Kurs 240957
Geb@@ 240955
amm@@ 240923
zw@@ 240871
content 240829
fach@@ 240815
Bewohner 240762
Pfarrer 240755
Ol@@ 240746
Großbritannien 240742
Aktien 240572
specific 240540
stores 240421
active 240410
unlikely 240402
sitting 240368
K-@@ 240269
changing 240246
patient 240186
phones 240110
wiederum 240080
healthy 240074
Wa@@ 239985
gende 239926
Pap@@ 239925
eingeladen 239882
cents 239772
starts 239765
buying 239756
endorf 239755
loan 239743
Eindruck 239725
carrying 239682
rival 239681
Moskau 239672
acting 239650
Not@@ 239633
protection 239633
FBI 239551
request 239542
manchmal 239510
chter 239442
gen-@@ 239386
ca 239352
bigger 239331
eng 239261
ée 239241
secret 239238
Ruhe 239202
equipment 239151
Nutzer 238985
Egypt 238968
provides 238934
declared 238902
Life 238857
Still 238754
suspect 238680
gruppen 238599
Frühjahr 238525
song 238516
surprise 238481
err@@ 238454
Fro@@ 238358
Nations 238352
Schalke 238238
gerin 238197
genden 238191
erhält 238157
ched 238137
Pi@@ 238126
einzelnen 238092
R-@@ 238053
Games 238033
TV-@@ 237925
deten 237862
Wolf 237836
ni@@ 237807
Schle@@ 237789
Militär@@ 237757
ppe 237631
allowing 237630
app 237549
le-@@ 237500
Middle 237481
religious 237477
Wo 237457
Great 237452
Zealand 237402
Anthony 237390
gestiegen 237262
communities 237224
ok@@ 237147
deliver 237144
Gründen 237143
Vereins 237142
gerechnet 237137
gefahren 237082
24. 237071
Davis 236995
MPs 236988
if@@ 236937
l-@@ 236936
gten 236919
Energy 236748
existing 236707
album 236701
kal@@ 236699
pictures 236632
fan 236597
Korean 236592
serving 236558
Louis 236523
three-@@ 236500
bet@@ 236487
jail 236483
ot@@ 236474
Gewinn 236431
offenen 236424
Bon@@ 236410
Geh@@ 236379
hoffen 236338
Andrea 236240
Bern@@ 236220
Web 236217
gre@@ 236207
wins 236180
ße 236141
schlug 236137
Wald 236092
agencies 236081
Handel 235962
lat@@ 235946
dürften 235854
terin 235767
Wor@@ 235705
abgeschlossen 235628
Ali 235590
smaller 235513
Geburtstag 235500
Sam 235491
Vier 235487
esen 235469
Gemeinden 235468
erlebt 235433
Journalisten 235398
dung 235340
CBS 235304
De 235230
Like 235088
a.m. 235085
68 234969
positiv 234966
appearance 234955
Bru@@ 234898
Rec@@ 234708
Anhänger 234691
Fuß 234653
Anschluss 234644
iker 234617
gesucht 234532
Vo@@ 234523
presence 234504
sister 234402
multiple 234362
Ohio 234357
aufzu@@ 234341
Flüchtlings@@ 234315
Reg@@ 234192
Gem@@ 234091
sogenannte 234084
achten 234069
ella 234017
zugleich 233910
remaining 233785
winter 233779
extremely 233777
Europäischen 233750
ar-@@ 233747
rel@@ 233651
Van 233573
by@@ 233552
Jörg 233491
films 233426
Pau@@ 233387
reportedly 233327
suicide 233282
beendet 233223
air@@ 233185
ney 233117
hasn 233068
gelassen 233067
elected 232945
scheme 232937
wahrscheinlich 232887
Sen. 232819
Fahrt 232723
Regel 232710
ot 232682
inf@@ 232638
schützen 232618
Blut@@ 232607
magazine 232594
77 232571
Lang@@ 232555
Manuel 232538
gain 232521
accept 232494
somit 232487
internet 232473
gearbeitet 232427
criticism 232407
wichtiger 232383
alisiert 232291
wir@@ 232288
suit 232234
loved 232198
Zug 232153
mann@@ 232082
Tanz@@ 232072
holte 232024
Natur 232015
passt 232006
folgt 231976
übrigens 231969
bringing 231915
Julia 231866
Projekte 231850
offiziell 231842
geblieben 231836
Its 231815
Details 231792
Ideen 231780
ül@@ 231651
email 231641
fish 231641
Andy 231593
iler 231547
erstellt 231506
eted 231496
glaube 231445
Dienst 231374
Sprache 231374
Dan@@ 231359
alongside 231327
g-@@ 231292
9,@@ 231256
st-@@ 231237
tliche 231229
Because 231201
Rath@@ 231193
introduced 231153
teilen 231076
übernommen 231040
spar@@ 230954
photos 230927
prove 230923
individuals 230911
Außenminister 230747
agree 230746
sion 230738
ud@@ 230711
contributed 230699
port 230687
bri@@ 230593
SA 230588
sentence 230537
coverage 230494
Les@@ 230470
guter 230457
S-@@ 230433
genauso 230416
bert 230407
SP@@ 230382
Worten 230340
geschafft 230325
expensive 230270
governments 230247
laden 230183
Bier@@ 230158
terrorist 230131
23. 230127
Reserve 230099
richtige 230093
wichtigsten 229992
Fälle 229978
erei 229973
Kurz@@ 229968
ss@@ 229937
urged 229927
an-@@ 229920
reading 229784
weiteres 229735
updated 229686
jury 229658
entwickeln 229619
camera 229600
challenges 229525
gte 229510
solution 229468
crew 229462
öffentlich 229370
decide 229347
16.@@ 229343
onen 229338
Schwer@@ 229258
stück 229159
developing 229134
Pan@@ 229066
rechte 229006
Former 228972
Energie 228921
starten 228889
sought 228885
höher 228852
Por@@ 228810
slightly 228689
Kol@@ 228659
Gut 228656
Editing 228626
Änderung 228592
negotiations 228539
sehe 228534
Norden 228507
finance 228491
gedacht 228455
blue 228416
fläche 228382
geplante 228377
8-@@ 228336
erleben 228280
-Jähriger 228279
nannte 228267
completed 228245
leider 228235
Who 228177
gemeinsame 228145
mass 228130
ines 228129
hurt 228024
interests 227957
Marke 227888
AF@@ 227867
ats@@ 227837
deals 227830
geschäft 227798
Ul@@ 227756
Al 227723
turning 227707
bottom 227627
colleagues 227550
unable 227459
expressed 227254
Bob 227234
wies 227152
tie 227145
verlieren 227119
komme 227055
Business 227047
Che@@ 227027
Mi@@ 226995
voted 226970
gef@@ 226942
opportunities 226935
maßnahmen 226833
schl@@ 226819
36@@ 226756
east 226738
determined 226736
denk@@ 226711
ähnlich 226711
immerhin 226692
fragt 226658
ga 226653
kirche 226644
Jim 226619
Kate 226576
convicted 226569
Kelly 226505
schließen 226486
linger 226446
matches 226435
article 226429
doctor 226379
happens 226369
Eich@@ 226358
collection 226355
cor@@ 226311
dig@@ 226257
Miss 226254
befindet 226233
te-@@ 226232
elten 226220
besondere 226120
Vorwürfe 226058
Ir@@ 225995
struggling 225946
well-@@ 225945
relations 225940
fiscal 225905
sheim 225750
warm 225715
Rock@@ 225688
AM@@ 225637
Manfred 225634
younger 225634
endes 225621
picked 225614
confident 225584
Worte 225551
imp@@ 225544
bessere 225511
Mio. 225479
tlich 225478
Studenten 225413
The@@ 225297
Schlag@@ 225191
hits 225178
verfahren 225172
Szene 225146
Force 225131
za 225079
Renn@@ 225001
Koch 224975
Einer 224927
sdorf 224816
larger 224807
spring 224748
37@@ 224713
gesetz 224698
rechnet 224673
ann 224608
überraschend 224585
Hessen 224565
nations 224437
nieder@@ 224429
analyst 224414
theater 224404
alternative 224402
AN@@ 224382
joint 224327
GOP 224319
1998 224267
End@@ 224221
panel 224216
Fol@@ 224189
Wahlkampf 224166
28. 224128
coast 224091
Il@@ 224045
-based 223886
Sieger 223877
bauer 223872
Queensland 223797
best@@ 223778
Polen 223632
Dra@@ 223629
mine 223608
decline 223591
ny 223570
Zweifel 223473
mitglieder 223472
removed 223402
Kri@@ 223391
blieben 223320
Rein@@ 223312
Hersteller 223309
tief 223309
zo@@ 223264
verstehen 223187
Betriebs@@ 223132
stolz 223097
Quartal 223080
studies 223054
feiert 222972
Kapitän 222956
learned 222882
mache 222833
walking 222758
Münster 222756
vision 222722
sanctions 222680
27. 222602
payments 222597
Do 222588
uf@@ 222573
emerged 222568
Obwohl 222536
è@@ 222526
erer 222505
houses 222450
ators 222426
route 222426
lie@@ 222405
offensive 222386
Agency 222326
Neben@@ 222315
covered 222312
Motor@@ 222303
notwendig 222260
inflation 222175
Zwischen@@ 222045
militants 221866
tar@@ 221794
wear 221720
slow 221717
tells 221688
deutscher 221673
Umwelt@@ 221654
ym@@ 221595
creating 221568
Public 221565
schlägt 221539
kre@@ 221485
flu@@ 221422
dec@@ 221386
Year 221357
Wolfsburg 221285
fern 221226
Bilanz 221169
Miller 221139
jo 221065
initial 221064
NHS 221060
amerikanischen 221053
tätig 221033
pping 220997
Sinn 220985
wichtigen 220902
69 220900
stimmen 220851
Spanish 220806
ST@@ 220785
Wähler 220743
Baden-Württemberg 220711
bomb 220709
wirken 220654
Mail 220580
Morgan 220468
accident 220453
ett 220450
Miami 220391
berichten 220385
07 220369
eat 220244
tieren 220224
Trotzdem 220200
God 220107
write 220066
Barbara 220044
Wes@@ 219944
etz@@ 219855
Erste 219845
hervor 219832
emotional 219729
Generation 219635
adi@@ 219608
Parliament 219546
26. 219518
bis@@ 219473
Test@@ 219469
hoping 219450
Erfahrungen 219403
Ehr@@ 219376
ont 219323
marketing 219319
require 219313
Euro-@@ 219248
Million 219202
schwierig 219181
ober@@ 219133
Zuvor 219074
Gold@@ 219030
mehrfach 218980
unserem 218880
tungen 218863
erklären 218862
animals 218845
Fisch@@ 218807
verzichten 218800
är 218717
möglicherweise 218708
rally 218705
Ni@@ 218700
fil@@ 218614
Verbindung 218584
hilft 218569
Getty 218538
begeistert 218537
glaubt 218524
scale 218498
BMW 218458
Stadium 218437
Feld@@ 218363
Teile 218355
glauben 218284
allows 218270
eck 218264
toll 218231
Spe@@ 218209
Schutz@@ 218133
sum@@ 218126
Marc 218111
session 218106
internationale 218085
gri@@ 217979
Nachrichtenagentur 217925
Bildung 217812
closer 217758
Canadian 217748
gelungen 217733
Friedrich 217678
weist 217640
vers 217547
veröffentlicht 217544
the@@ 217512
Europas 217476
60@@ 217469
ba 217469
Schulz 217466
fri@@ 217415
potentially 217346
teils 217278
Pen@@ 217228
Gelegenheit 217218
Dom@@ 217205
Global 217155
Jersey 217033
Fernsehen 217031
unten 216921
Ermittler 216909
suffering 216879
ged 216863
nice 216846
Fern@@ 216825
def@@ 216781
geboren 216773
Edinburgh 216758
Felix 216619
sur 216615
expectations 216571
Körper 216529
ron 216522
capacity 216518
Gedanken 216427
driven 216359
reisen 216306
established 216266
analysis 216261
stuff 216259
ising 216210
cold 216164
entstanden 216137
Wege 216120
ase 216065
beautiful 216027
vis@@ 215959
handed 215924
willing 215905
ap 215860
ischem 215846
Werk@@ 215838
easily 215805
kel@@ 215804
items 215697
touch 215684
Ann@@ 215638
ord@@ 215592
apparently 215544
Erdogan 215523
Back@@ 215489
ces 215485
werfen 215442
Gesundheits@@ 215308
5,@@ 215301
kap@@ 215275
clean 215274
ality 215190
britischen 215142
Tobias 215092
stein@@ 215019
Umgang 214993
heads 214970
supported 214967
Anfrage 214959
trouble 214944
hardt 214897
ministerin 214836
Mün@@ 214707
plenty 214671
Stra@@ 214620
Fel@@ 214608
erzielte 214569
seats 214546
vergessen 214431
Rot@@ 214400
W. 214345
musik 214303
Stürmer 214275
rescue 214197
Assad 214176
sit 214160
Iraqi 214147
Dorf@@ 214131
Damals 214126
Best 213979
stood 213951
recorded 213875
Sonne 213863
tend 213854
Umsatz 213845
off@@ 213840
felder 213790
drivers 213788
AD@@ 213787
raising 213764
earned 213751
Hof 213665
Wilson 213623
violent 213337
Reporting 213325
gung 213310
referendum 213293
Du 213292
Afghan 213268
Name 213247
Grenz@@ 213230
dete 213208
anz 213123
strength 213100
dige 213079
og@@ 213065
schneller 213000
ville 212968
els@@ 212967
73 212966
Rekord@@ 212864
argued 212834
pour 212718
fears 212708
Dach@@ 212674
durfte 212674
Earth 212661
Premiere 212655
lawyers 212655
respond 212623
headed 212614
Institut 212600
zusätzlich 212595
manche 212555
bilden 212543
Karte 212523
rie@@ 212254
Sur@@ 212185
Anzei@@ 212155
Garten@@ 212067
Sim@@ 212062
Ralf 212044
debut 212031
App 212030
einiges 212002
Services 211937
U.N. 211859
visitors 211802
74 211795
limit 211743
ac 211699
feels 211687
gelte 211637
freie 211591
pool 211549
trans@@ 211462
bra@@ 211354
opinion 211321
tlichen 211272
feature 211260
ers@@ 211251
rain 211223
artist 211188
che@@ 211183
laufenden 211181
maker 211178
rau@@ 211153
seriously 211138
frage 210988
Women 210977
ans@@ 210971
galt 210949
pace 210937
Capital 210896
buildings 210858
Dr@@ 210689
Rest 210642
Des@@ 210640
findings 210585
Foundation 210462
interested 210462
yard 210461
Pop@@ 210460
Sorgen 210436
us-@@ 210419
iner 210415
continuing 210387
leiterin 210175
Before 210166
ering 210139
sha@@ 210093
Kampf@@ 210037
Rückkehr 209961
27@@ 209884
zogen 209803
Ausgleich 209776
Ausbau 209737
Amts@@ 209692
Schützen@@ 209661
Sonnen@@ 209628
weisen 209615
Main 209559
Autor 209530
deputy 209529
Tabellen@@ 209516
cl@@ 209386
Bisher 209322
Mein 209135
Dec@@ 209015
cool 209014
bers 209006
Moscow 208934
authority 208798
AC 208790
Jordan 208735
Einrichtung 208716
überall 208651
Start@@ 208637
Arab 208596
28@@ 208532
Rom@@ 208517
mark@@ 208509
fees 208493
wirft 208444
Let 208414
essen@@ 208402
ppen 208350
ktion 208325
leg 208241
meaning 208189
path 208177
Brian 208172
gegen@@ 208140
Cha@@ 208122
verwaltung 208121
leit@@ 208084
26@@ 208020
grand 207993
enjoy 207990
tm@@ 207982
quick 207980
reduced 207949
iel@@ 207918
Hong 207899
Wieder@@ 207882
ology 207874
Allein 207866
auff@@ 207797
wobei 207795
pushed 207768
asi@@ 207706
gesorgt 207665
ish@@ 207563
Kat@@ 207562
ams 207513
agent 207508
assen 207422
Nie@@ 207420
village 207415
promised 207398
entstand 207395
dahin 207375
Eigentlich 207351
spe@@ 207337
Bedingungen 207301
corruption 207297
Station 207277
ong@@ 207247
außer 207199
Irish 207182
devices 207171
iel 207159
ai@@ 207154
vorgestellt 207043
gemeinde 207010
Augsburg 206999
absolutely 206987
commitment 206964
äre 206923
Nürnberg 206884
Baum@@ 206808
jene 206738
Once 206734
Valley 206733
inquiry 206714
Roll@@ 206696
Only 206612
wild 206606
runde 206603
chs@@ 206596
dress 206572
-up 206569
Time 206537
richtigen 206522
freedom 206479
possibility 206454
Risiko 206413
ander@@ 206405
hau@@ 206387
charity 206347
vorerst 206343
relatively 206278
wehr 206249
nis@@ 206248
Cre@@ 206229
kul@@ 206210
Mau@@ 206194
commission 206135
ton@@ 206106
skin 206101
Sea 206012
6,@@ 205971
Produkte 205882
langsam 205848
Vertrauen 205847
ins@@ 205830
gänge 205827
lawmakers 205813
zuständig 205715
crimes 205697
Marcel 205618
Anspruch 205583
ante 205574
sets 205533
trag@@ 205476
21.@@ 205473
Herz 205444
AR@@ 205440
Umfrage 205425
kes 205410
Laden 205210
Joseph 205038
Angebote 204999
Gal@@ 204975
vorbereitet 204972
display 204963
Val@@ 204960
delivered 204958
29. 204957
äh@@ 204941
testing 204891
widely 204888
Keller 204879
ely 204829
powers 204692
Urlaub 204667
Flüchtlingen 204660
walked 204645
Brisbane 204630
IT@@ 204610
Jens 204610
ory 204577
listen 204542
lim@@ 204515
Linke 204507
Str@@ 204475
Drei@@ 204462
CH@@ 204460
retail 204457
PS 204443
gemeldet 204385
Regeln 204374
Sar@@ 204370
profits 204326
stri@@ 204318
Fri@@ 204310
präsentieren 204287
Bundesliga-@@ 204273
Schau@@ 204194
Bü@@ 204182
kir@@ 204163
Eb@@ 204146
shut 204129
Rat 204094
bezeichnet 204084
lich@@ 204084
worried 204034
Glas@@ 204010
document 203977
Senator 203914
Hör@@ 203888
At@@ 203848
ery 203752
ain 203742
Finanzminister 203698
Feld 203655
Zuschauern 203617
El 203570
Aussage 203518
Among 203481
Hein@@ 203481
meinem 203452
Ulrich 203365
> 203318
fürs 203307
Brasilien 203305
currency 203238
Häuser 203140
threatened 203109
entsprechend 203091
rück@@ 203075
zweimal 203058
Hof@@ 203036
buch 203020
Vorschlag 202983
Mainz 202968
Mercedes 202963
Arizona 202915
Zusammen@@ 202908
scoring 202908
Sollte 202862
Lauf@@ 202856
Sept 202851
onn@@ 202836
Bas@@ 202799
rejected 202755
Kauf@@ 202744
Bruder 202730
Lisa 202718
factors 202693
miss 202693
Vorsprung 202679
britische 202669
severe 202640
Christopher 202610
link 202607
gewinnt 202597
starb 202578
proud 202541
bahn@@ 202519
Junge 202504
Rainer 202471
fro@@ 202461
ball@@ 202458
Gordon 202456
Teilnahme 202422
Mary 202417
Dach 202408
äch@@ 202396
Modell 202395
Post@@ 202385
ics 202356
cell 202344
teacher 202343
greifen 202318
Sub@@ 202316
location 202310
fort 202303
selbst@@ 202271
immediate 202247
Rückstand 202197
heat 202142
controversial 202139
Kleine 202093
Salzburg 202085
hel@@ 202055
endet 201960
expert 201906
Rau@@ 201883
suspended 201765
ika 201746
bin@@ 201717
Journal 201711
enforcement 201683
fühlen 201676
Stiftung 201658
1997 201564
Game 201543
Investoren 201498
zahl 201487
größere 201412
Presse 201411
glich 201404
01 201380
Bir@@ 201365
Treasury 201354
thanks 201353
Fer@@ 201341
Red@@ 201333
persönlich 201259
oren 201224
lautet 201220
76 201213
Damen 201210
sol@@ 201170
Tau@@ 201134
Leistungs@@ 201119
voting 201075
suspected 201044
kt@@ 201000
entgegen@@ 200997
dro@@ 200956
soziale 200926
ongoing 200923
fly 200903
sprecher 200878
considering 200860
kleiner 200798
5,000 200787
Wachstum 200777
cra@@ 200772
fol@@ 200768
Mul@@ 200764
mach@@ 200753
Bus 200740
Or 200688
klare 200628
König 200541
relativ 200529
Produktion 200522
Vorsitzenden 200505
Elektro@@ 200473
super 200396
geöffnet 200394
Copyright 200388
elling 200319
leaves 200289
70@@ 200231
Ta@@ 200224
Fraktion 200162
Freiheit 200151
Sei@@ 200098
Hen@@ 200067
Sprecherin 200057
Vorstellung 200014
Main@@ 199992
mern 199946
partners 199925
banking 199924
conducted 199868
ash@@ 199856
text 199846
Investitionen 199792
Verwaltungs@@ 199777
Reporter 199766
wechsel 199748
31. 199726
par 199712
Benjamin 199683
nt 199653
hl 199638
reich 199551
hung 199547
sees 199523
48@@ 199511
politisch 199455
insisted 199453
és 199441
Niveau 199424
Jonathan 199421
welcome 199384
warnt 199327
schau 199281
bal@@ 199271
brief 199233
tert 199229
Dirk 199079
amen 199048
rief 198901
iten 198862
verbunden 198812
possibly 198785
Gründe 198755
Drogen@@ 198744
Darüber 198741
lä@@ 198729
edge 198707
schloss 198706
breaking 198685
Anti@@ 198682
schöne 198670
Fuß@@ 198666
ning 198646
Ü@@ 198643
Insel 198556
Allen 198539
watched 198517
kraft 198515
öffentliche 198483
Images 198482
r-@@ 198464
europäische 198434
Kennedy 198413
boat 198382
utz@@ 198373
Ziel@@ 198332
alcohol 198325
associated 198286
Demonstranten 198283
prä@@ 198276
meier 198264
Glasgow 198262
besucht 198200
Wagner 198172
isiert 198126
owski 198126
responded 198122
Hermann 198090
Zunächst 198043
skills 197981
Islam 197972
Bayer 197926
dert 197920
Eck@@ 197916
liste 197858
wür@@ 197808
vers@@ 197714
dorfer 197707
Kas@@ 197693
brechen 197686
unemployment 197652
Erde 197646
ater 197623
licht 197590
device 197557
Beach 197463
industrial 197413
Lan@@ 197409
geld 197372
mortgage 197196
tigt 197185
Eröffnung 197179
western 197156
Freundin 197148
haus@@ 197144
infrastructure 197035
sis 196951
wen@@ 196950
Quadratmeter 196914
award 196866
bul@@ 196861
Henry 196813
ager 196785
Gemein@@ 196757
nor 196756
22.@@ 196715
Erklärung 196703
unique 196647
Vorbereitung 196619
organisiert 196604
größer 196551
initially 196519
ideas 196499
Tom@@ 196463
Bad@@ 196461
attacked 196448
proved 196423
sieg 196416
approval 196411
kin 196409
euro 196388
ises 196348
ille 196304
wirtschaft 196296
cells 196213
General@@ 196169
ving 196143
ities 196135
SE@@ 196098
plants 196042
listed 196014
direction 195962
truth 195922
actress 195886
Fi@@ 195854
erhöht 195853
Leverkusen 195850
abend 195844
chances 195828
45@@ 195808
Daher 195786
schau@@ 195754
Earlier 195751
Austria 195728
gener@@ 195692
deficit 195667
Viertel 195644
min 195610
ked 195596
ären 195595
Ziele 195571
positions 195570
scandal 195553
Houston 195533
prosecutors 195501
independence 195456
heuer 195451
verändert 195435
recession 195384
tot 195368
experienced 195360
extrem 195359
eastern 195346
occurred 195341
Turnier 195303
Haushalt 195297
Asian 195280
Kong 195248
900 195218
Centre 195146
choose 195129
06 195124
38@@ 195060
degree 195057
pitch 195024
lied 195018
polls 194892
critics 194890
Team@@ 194854
forecast 194843
Anlage 194831
shift 194788
bot 194773
C. 194751
phase 194747
Beitrag 194739
78 194688
Feuer@@ 194585
pictured 194576
Schuss 194572
Öl@@ 194550
Jason 194528
Well 194515
Wir@@ 194485
80@@ 194406
1990 194368
Oscar 194349
char@@ 194336
serie 194307
presented 194281
terrorism 194246
grown 194242
clients 194223
sleep 194191
equity 194165
Strom 194101
studio 194085
Wohnungs@@ 194082
teachers 194032
enti@@ 193925
ahn@@ 193907
14.@@ 193840
unde 193759
talent 193737
Werke 193707
Gol@@ 193703
Ansicht 193685
8,@@ 193682
Unsere 193682
ov 193680
Höhepunkt 193670
Wie@@ 193670
definitely 193639
Grundschule 193590
Basis 193575
weit@@ 193506
gesp@@ 193495
NFL 193487
vorgesehen 193467
Massen@@ 193444
Mach@@ 193437
involving 193420
indem 193401
pu@@ 193366
stattfinden 193360
letztlich 193332
Justin 193329
steckt 193292
Halbfinale 193223
corner 193188
Charlie 193185
tiges 193148
Kam@@ 193117
Georgia 193082
Meine 193062
Tel 193041
sed 192943
Nachbarn 192888
Kun@@ 192884
sam 192881
Termin 192856
Versuch 192834
entered 192834
Libya 192825
Trau@@ 192784
00@@ 192746
tive 192744
ri 192704
saal 192702
easier 192693
pc 192674
Your 192578
lock 192576
tage 192535
pat@@ 192528
hole 192489
Sin@@ 192475
IN@@ 192449
targets 192449
alleine 192311
cul@@ 192304
Mitteilung 192255
gestorben 192253
Demokratie 192217
yourself 192190
Haushalts@@ 192189
improved 192187
attend 192148
Love 192133
pro-@@ 192130
Op@@ 192066
generally 192039
nahme 191948
Fund 191942
seh@@ 191842
finde 191824
Jobs 191810
Dokument 191791
Bahnhof 191787
Four 191772
conduct 191757
shopping 191747
URL 191702
probe 191645
zeichen 191620
Julian 191613
üt@@ 191602
Norbert 191529
kürzlich 191527
knowledge 191460
yes 191438
behandelt 191367
whatever 191332
eating 191259
sat 191237
nennen 191212
Yes 191194
Standard 191172
Etwa 191156
Personal 191109
daraus 191108
Dresden 191073
Moore 191052
Weber 191050
kers 190967
ele 190957
aimed 190952
attended 190949
Rose 190909
bzw. 190877
adults 190854
zusätzliche 190812
Roh@@ 190811
Zustand 190741
Q 190699
98 190673
Judge 190668
ole 190531
environmental 190517
apartment 190500
dringend 190497
außerhalb 190482
transport 190444
Zugang 190426
fälle 190407
anlagen 190392
geh@@ 190363
Source 190332
les@@ 190320
uss 190264
Lü@@ 190205
publicly 190197
River 190191
Spor@@ 190188
Sig@@ 190177
ita 190171
Sänger 190161
rebels 190155
hab@@ 190099
linken 190083
Watch 190077
post-@@ 190076
Stadtrat 190054
ministerium 189975
division 189938
bn 189926
rats@@ 189911
fällen 189910
tter 189884
strecke 189882
Hom@@ 189878
messages 189867
aller@@ 189864
angeblich 189857
sten@@ 189827
Presse@@ 189810
dar 189808
schafts@@ 189807
flights 189804
province 189763
ol 189757
Wind 189709
Verdacht 189699
DE@@ 189689
bit@@ 189645
Heinz 189568
Atom@@ 189538
understanding 189330
melden 189281
My@@ 189263
inspired 189214
Human 189184
bag 189170
Snow@@ 189156
wachsen 189145
7,@@ 189117
fun@@ 189113
animal 189099
40@@ 189076
pointed 189060
Botschaft 189053
Sturm 188997
ble@@ 188992
49@@ 188948
ologie 188899
user 188875
Portugal 188855
activists 188831
filled 188791
Verband 188788
35@@ 188779
Derby 188755
explain 188750
Wies@@ 188736
dra@@ 188703
Veranstalter 188697
30-@@ 188676
Gru@@ 188640
Kle@@ 188633
Mus@@ 188624
freute 188613
Flucht 188565
zentrale 188515
wählen 188425
lig 188325
mayor 188322
Armee 188314
interesting 188291
stat@@ 188268
connection 188261
indes 188250
Church 188233
fraud 188178
roads 188178
vel@@ 188163
Fenster 188112
customer 188103
davor 188101
folgte 187993
flat 187990
Can 187972
französische 187936
gs@@ 187892
Olympics 187880
down@@ 187827
Blue 187813
Spezial@@ 187812
Dorf 187780
gefährlich 187763
terror 187716
roten 187625
combined 187585
Diego 187465
falsch 187444
turns 187433
returns 187407
facility 187376
Trend 187348
ori@@ 187336
ake 187310
ande 187281
Gewinn@@ 187215
competitive 187164
flying 187145
Tonnen 187117
liga-@@ 187113
15-@@ 187108
head@@ 187078
li 187043
boo@@ 187038
Firmen@@ 187014
drink 187001
Mak@@ 186967
fewer 186959
russische 186946
fal@@ 186912
targeted 186903
Neues 186888
Ernst 186855
Entscheidungen 186777
greatest 186772
pop 186761
Tages 186744
moments 186702
anger 186692
Palestinian 186676
liege 186663
tied 186651
hundert 186628
determine 186601
Schiedsrichter 186569
Anlass 186566
Board 186523
Steven 186502
glücklich 186444
Old 186402
Verein@@ 186394
disaster 186379
notes 186361
ame 186346
B. 186334
repeatedly 186323
Ren@@ 186318
anne 186280
rein 186280
visited 186258
so-called 186214
ckt 186210
passieren 186210
www.nachrichten.at 186187
Umgebung 186158
holt 186148
übernimmt 186146
AC@@ 186119
si 186104
Beruf 186090
eit@@ 186057
tten 186032
ech@@ 186014
1995 185972
Mitarbeitern 185926
getragen 185791
assistant 185784
cutting 185750
NATO 185728
rum@@ 185726
Lauf 185719
Herausforderung 185659
Spieltag 185658
zes 185575
Gästen 185551
learning 185491
dogs 185330
daraufhin 185329
controlled 185321
circumstances 185305
Städten 185301
garten 185260
heit@@ 185253
causing 185235
conversation 185202
Defense 185089
zz@@ 185040
.com. 185032
intended 185026
exercise 185003
Internet@@ 184990
Abstimmung 184988
trau@@ 184985
aufgestellt 184975
ernst 184963
Lady 184945
platform 184906
Berg 184902
No. 184885
Met@@ 184868
historic 184864
Detroit 184815
familiar 184807
Cap@@ 184797
Telegraph 184797
Garten 184777
Tradition 184712
zählen 184698
ceremony 184684
trend 184670
GM 184601
schaft@@ 184598
ierungen 184593
bedarf 184573
retired 184558
Bild@@ 184528
nd 184478
Auswahl 184476
mil@@ 184475
count 184431
Medical 184412
trainer 184343
bil@@ 184325
Reform 184289
handle 184273
EL@@ 184238
pounds 184229
dauern 184218
projekt 184130
02 184087
denkt 184076
stätte 184075
Gemeinder@@ 183991
Büro 183988
Mrd. 183975
außen 183967
sign@@ 183950
Power 183932
stimmt 183923
Pflege@@ 183910
supporting 183910
Vol@@ 183879
reichte 183869
returning 183795
gerät 183659
Sports 183624
lobte 183589
ehe 183548
Freiburg 183494
Len@@ 183491
fall@@ 183469
relief 183458
hört 183380
Tal@@ 183375
Alternative 183363
Einfluss 183345
vast 183314
L-@@ 183259
setzten 183213
Seehofer 183211
á@@ 183200
Weit@@ 183145
begleitet 183113
hängen 183101
Früh@@ 183084
Co. 183078
privaten 183017
möglichkeiten 183010
blo@@ 183000
bridge 182999
gericht 182982
ths 182982
denke 182960
dinner 182960
wider@@ 182942
Vorfeld 182932
frei@@ 182929
Anwohner 182906
Förderung 182837
hi@@ 182811
basic 182755
egal 182747
tly 182738
Inzwischen 182719
1996 182700
lichem 182681
Landrat 182666
gek@@ 182622
Volk@@ 182605
satz 182596
Augen@@ 182594
perfekt 182566
gebeten 182542
Alltag 182537
Neubau 182526
fort@@ 182500
berichteten 182491
elles 182486
Anderson 182459
Herren 182402
diskutiert 182371
becomes 182357
pur@@ 182307
bestimmt 182293
banned 182276
Auge 182248
erlaubt 182241
morgen 182144
Arbeit@@ 182076
Verhältnis 182072
wish 182033
zed 182007
stress 181909
ments 181898
hinten 181860
ming 181833
crucial 181824
atic 181722
helps 181722
Arzt 181661
wider 181646
cking 181638
FA 181559
hren 181526
eit 181520
behaviour 181514
refugees 181484
struggle 181459
Pacific 181457
Roger 181326
79 181308
heading 181239
bing 181217
kritisierte 181172
werte 181077
Gebiet 181072
15.@@ 181061
Vegas 181031
Freitagabend 181015
unless 181014
NEW 181002
klingt 180947
closely 180926
geschaffen 180884
befinden 180812
ih@@ 180796
Zwischen 180795
Dennis 180785
Immerhin 180761
Roland 180756
sberg 180740
dozen 180730
wine 180717
wusste 180709
can@@ 180701
models 180701
Es@@ 180699
entsprechende 180685
duty 180683
ered 180632
fighters 180600
warf 180593
Schwen@@ 180553
Stock@@ 180469
stammt 180395
Welche 180362
geschickt 180286
Himmel 180248
entwicklung 180226
9-@@ 180185
Aufstieg 180159
rivals 180141
6-@@ 180112
verkaufen 180100
Branche 180042
Kader 180030
Social 179983
halte 179967
window 179954
transfer 179946
cken@@ 179923
konzern 179915
üs@@ 179846
Mittelpunkt 179836
Baum 179815
historischen 179805
Bri@@ 179804
heiten 179761
Vorhaben 179744
Ed 179711
Wahlen 179695
tner 179695
orders 179686
Anders 179650
froh 179629
scht 179593
WASHINGTON 179556
leads 179551
Dallas 179523
uren 179510
ticket 179491
worldwide 179488
ds@@ 179460
initiative 179448
leistung 179383
EZB 179360
Untersuchung 179352
miteinander 179311
chain 179281
ink@@ 179274
swe@@ 179256
teile 179244
stocks 179230
Sun 179219
39@@ 179185
estimates 179164
Bord 179153
species 179151
Jur@@ 179135
Kosten@@ 179067
five-@@ 179049
investigators 179021
Kauf 179003
lawsuit 178923
1994 178862
Islam@@ 178856
investigating 178846
package 178824
affect 178764
Phase 178732
split 178687
GE@@ 178678
Spiegel 178630
Rangers 178621
ös@@ 178562
shortly 178493
meetings 178492
th-@@ 178460
schießen 178448
Forderung 178389
pan@@ 178344
spor@@ 178329
journalists 178298
Erd@@ 178291
rechts@@ 178229
leb@@ 178205
Männern 178200
Neuer 178191
wan@@ 178171
Co 178166
schließt 178155
friendly 178148
far@@ 178143
tags 178138
cat@@ 178107
beach 178106
Anne 178105
TC 178096
Dun@@ 178000
Rat@@ 177941
cross 177933
reich@@ 177913
facilities 177899
besonderen 177871
Rights 177869
rer 177835
Every 177808
schen@@ 177804
understood 177758
Der@@ 177751
replace 177730
offensichtlich 177712
ved 177711
Ag@@ 177706
wave 177619
Anschlag 177590
Bundeskanzlerin 177562
Waffen 177544
spät 177536
Ursache 177517
ktionen 177513
low-@@ 177511
gan 177510
Airlines 177412
Jungs 177339
trug 177326
moves 177317
rooms 177285
four-@@ 177261
maintain 177235
Süden 177162
Blau@@ 177142
hilfe 177123
ald 177075
reiche 177053
Einschätzung 177049
col@@ 177013
stake 177003
Mitgliedern 176984
savings 176976
heavily 176966
schlag@@ 176945
footage 176933
Ter@@ 176927
kor@@ 176914
fühlt 176909
türkischen 176905
Las 176874
Verteidiger 176862
worker 176846
Nachwuchs 176790
Kopf@@ 176735
Tab@@ 176691
Tief@@ 176688
Weihnachten 176646
Eastern 176624
tag@@ 176582
code 176559
gegründet 176557
Iowa 176547
mitten 176494
increases 176465
extreme 176347
Alan 176327
istischen 176309
happening 176307
Burg@@ 176279
Ed@@ 176267
holds 176253
identify 176208
ge-@@ 176167
Niedersachsen 176161
eingestellt 176106
bekannte 176070
matters 175983
Kra@@ 175969
schwer@@ 175956
Ian 175943
pull 175937
agents 175925
− 175923
Gran@@ 175886
tte 175856
verbot 175845
wake 175823
iss@@ 175814
settlement 175777
eien 175756
executives 175740
festgestellt 175702
Ministry 175662
Unser 175658
Nov. 175642
YouTube 175628
Kerry 175621
passing 175540
ride 175507
danger 175497
dream 175495
selber 175482
Southern 175468
höhere 175421
herrscht 175415
Viel 175409
Schloss 175360
supposed 175285
Text 175258
Geschäfte 175254
Verantwortlichen 175252
achieve 175247
veteran 175203
üh@@ 175192
ret@@ 175147
23@@ 175140
reforms 175138
ie-@@ 175116
gebäude 175063
lösen 175044
Reis@@ 175028
overseas 175028
Tempo 175014
Gewerbe@@ 175010
dance 174977
Gö@@ 174955
Pkw 174866
lam@@ 174822
Brief 174796
legten 174781
claiming 174778
Boden@@ 174773
raus 174764
obviously 174742
Stephan 174737
Anwalt 174725
Meyer 174715
Kern@@ 174698
none 174676
extended 174673
perform 174667
institutions 174626
accepted 174622
sitzung 174619
03 174600
worry 174565
trä@@ 174524
ena 174507
pension 174489
Handels@@ 174448
Gott 174426
Song 174408
Angeklagte 174388
acts 174377
fix 174244
Mis@@ 174231
Abbott 174208
singen 174167
Fünf 174110
Elizabeth 174095
Jahrzehnten 174091
tackle 174058
sending 174019
surprised 173970
prüfen 173929
alive 173925
näher 173909
ks@@ 173891
gerufen 173809
cards 173788
lige 173754
ama 173743
Zuge 173727
Music 173710
welt 173683
Nationalspieler 173654
enberg 173628
Ca@@ 173608
Becker 173553
failing 173543
sharing 173502
bond 173492
don@@ 173488
rou@@ 173427
brun@@ 173419
esp@@ 173395
Zustimmung 173369
advertising 173367
off-@@ 173351
deeply 173331
Pro 173321
wächst 173300
Tim@@ 173268
wedding 173217
bezahlt 173191
Klassen@@ 173188
threats 173085
Anleger 172937
Je 172934
Halb@@ 172932
-P@@ 172807
territory 172804
ram@@ 172800
ain@@ 172770
Stei@@ 172655
Rücken 172625
Städte 172625
heim@@ 172591
sting 172563
29@@ 172448
Lukas 172448
Papier 172431
ther 172422
impossible 172403
copyright 172363
verliert 172351
wounded 172296
Regen 172241
Den@@ 172220
reaction 172205
Lok@@ 172202
Elf 172184
non@@ 172118
Potsdam 172113
dle 172103
Philip 172101
catch 172082
Front 172081
Michigan 172064
Paar 172061
rating 172007
trafen 171998
Kreuz@@ 171988
Herzen 171973
Cas@@ 171958
Gas 171946
18.@@ 171929
lädt 171904
ished 171850
pushing 171819
verstärkt 171790
retirement 171789
Kno@@ 171771
captured 171753
HSV 171729
herum 171719
Iranian 171715
Bäume 171711
Top-@@ 171702
argument 171672
Beteiligung 171670
beziehungsweise 171610
entirely 171606
Michelle 171595
Oct. 171579
dozens 171559
heißen 171509
fünften 171420
enburg 171392
Nachricht 171367
erinnern 171362
Große 171263
apart 171245
österreichischen 171204
carbon 171200
squ@@ 171176
wann 171174
mag@@ 171163
1989 171156
Behörde 171117
gap 171109
Bab@@ 171091
aufmerksam 171067
significantly 171041
Hü@@ 171035
hom@@ 171007
performed 171005
founder 170990
Democrat 170964
Sabine 170944
Christine 170913
Klinik 170909
strikes 170909
schuss 170905
Brücke 170756
Vettel 170744
utt@@ 170740
innings 170703
pieces 170667
fan@@ 170664
Credit 170661
ga@@ 170658
überrascht 170657
LE@@ 170639
88 170638
kra@@ 170625
stei@@ 170596
Na@@ 170578
ade@@ 170555
lands 170542
Colorado 170526
journey 170523
Schnitt 170519
Ecke 170511
offiziellen 170499
tten@@ 170460
12-@@ 170456
receiving 170402
Bauer 170389
shausen 170384
Robin 170347
reagiert 170340
versorgung 170328
wahl 170318
Bonn 170309
gas@@ 170285
ment@@ 170190
EM 170179
outs 170154
ious 170149
größeren 170144
bat 170125
alle@@ 170113
Gesundheit 170075
feierte 170040
aggressive 170001
üch@@ 170001
Heimspiel 169941
Konflikt 169924
attempts 169921
bezahlen 169919
glass 169899
interessiert 169847
bewegen 169829
NBC 169828
Herbert 169825
Rom 169804
Dan 169784
Ros@@ 169754
Anschließend 169733
inen 169728
zing 169725
Planung 169711
tors 169693
Regisseur 169672
Aussagen 169660
gains 169602
eten 169598
1992 169586
lis 169573
Gaza 169522
closing 169496
Toten 169493
erstes 169482
EU-Kommission 169440
Nachbar@@ 169406
Computer 169402
58@@ 169353
percentage 169351
Gab@@ 169335
Good 169334
konzert 169328
tab@@ 169322
weak 169302
Walker 169289
Brandenburg 169265
AM 169248
ultimately 169243
Ga@@ 169232
Einigung 169218
Jennifer 169202
Liter 169048
kurzen 169046
sentenced 169028
songs 169023
Hände 168967
flow 168955
producer 168952
fran@@ 168939
Rücktritt 168938
beträgt 168935
or-@@ 168912
92 168902
likes 168895
Kooperation 168864
'I 168857
wartet 168847
verpflichtet 168839
Baby 168833
beraten 168766
Scho@@ 168748
section 168744
Though 168735
Gefängnis 168696
Bernhard 168684
Perry 168674
surface 168628
mung 168575
2,000 168554
aktion 168485
remove 168483
episode 168450
Zie@@ 168437
vertrag 168435
ona 168416
om 168414
low@@ 168385
drinking 168318
Wetter@@ 168244
Verhalten 168175
Awards 168149
Mand@@ 168127
verbandes 168094
vulnerable 168040
allies 168027
permanent 168006
drawn 167991
retten 167956
tree 167951
bills 167940
aks 167930
entin 167928
Conservative 167882
amazing 167857
Stand@@ 167841
Europäische 167825
fähig 167817
ships 167807
yp@@ 167804
ith 167768
digt 167724
ausgezeichnet 167719
shareholders 167719
voraussichtlich 167679
contest 167669
Laura 167646
delivery 167638
werk@@ 167593
lots 167575
internal 167572
bo 167563
Airport 167555
sam@@ 167447
Cro@@ 167426
otherwise 167355
fli@@ 167343
cultural 167290
Umfeld 167268
Arbeitgeber 167250
identity 167213
NR@@ 167205
stor@@ 167174
Fil@@ 167126
Jeff 167119
Oh 167115
BA 167091
Vis@@ 167087
pilot 167067
Ac@@ 167035
Director 167013
virus 166971
10,000 166944
summit 166902
81 166897
Verbands@@ 166893
Summe 166876
Abwehr 166852
gangs 166846
Athen 166822
dliche 166813
Sau@@ 166798
93 166786
Ordnung 166781
uten 166768
Philadelphia 166761
Sinne 166747
Gary 166746
ium 166745
Irak 166720
ort@@ 166700
Prä@@ 166674
NBA 166664
Matthew 166649
ping 166642
shape 166617
adds 166608
Ay@@ 166558
ten-@@ 166520
Großen 166515
tiny 166455
ki@@ 166454
values 166442
advance 166429
Industrie 166388
arten 166386
memory 166384
minimum 166343
pper 166313
hauses 166283
Children 166256
Academy 166231
Hertha 166219
wasser 166197
Auswirkungen 166151
Cook 166151
öh@@ 166115
reputation 166107
Gener@@ 166102
Sorge 166094
Will@@ 166091
GMT 166082
grundsätzlich 166058
Ä@@ 166019
hy@@ 165996
illi@@ 165894
Stuttgarter 165866
ce@@ 165847
Spur 165844
19.@@ 165837
Eber@@ 165787
Sul@@ 165782
auen 165759
sun 165726
purchase 165717
mix 165695
Si@@ 165683
fur@@ 165659
itäten 165655
wirtschaftlichen 165636
Demnach 165605
Ale@@ 165604
sli@@ 165546
Temperaturen 165503
weren 165477
Jahrhundert 165476
tickets 165458
opposed 165448
führten 165421
Cam@@ 165383
arbeitete 165373
DR@@ 165266
Hum@@ 165243
Greek 165237
Meisterschaft 165234
isen 165225
Society 165217
Werder 165202
23.@@ 165176
hoped 165129
Dienst@@ 165127
faith 165126
17.@@ 165110
atory 165107
snow 165083
sy@@ 165049
Foto@@ 165040
task 165037
attempted 165026
Löw 165016
Rub@@ 164909
Fehl@@ 164865
gens 164823
Börse 164796
tenden 164785
Einwohner 164772
eigener 164723
Geschichten 164680
represents 164649
is-@@ 164588
ausschließlich 164580
Werte 164573
Forderungen 164557
civilians 164535
Sprach@@ 164529
appointed 164528
yl@@ 164484
Behandlung 164478
18-@@ 164466
draft 164456
erläutert 164413
Einnahmen 164358
videos 164330
anniversary 164314
Nag@@ 164276
gestartet 164273
formed 164173
alised 164158
Oberbürgermeister 164138
Hund 164127
Kredit@@ 164051
riss 164036
verteilt 164031
Bislang 164005
amerikanische 164000
130 163989
characters 163932
ÖVP 163919
Lebens 163916
knee 163870
Albert 163850
lebens@@ 163820
fee 163818
kurs 163818
Tel@@ 163811
Profis 163775
Abend@@ 163730
brachten 163729
Gleichzeitig 163720
Index 163667
Laufe 163666
Speaking 163640
shock 163634
Son@@ 163625
Up 163572
Berufung 163506
blame 163506
Aktionen 163413
feuer@@ 163399
hoffe 163388
Wissen 163350
investiert 163331
Live 163321
prior 163315
tau@@ 163312
cker@@ 163310
90@@ 163306
Einführung 163298
novel 163296
damaligen 163283
Brü@@ 163276
Verlust 163263
200@@ 163229
acc@@ 163210
Channel 163191
apply 163175
acy 163165
Cur@@ 163143
top@@ 163139
Kö@@ 163136
meister@@ 163136
ump@@ 163063
Autobahn 163033
kick 163001
Square 162987
makers 162987
Yo@@ 162986
Album 162908
lan 162855
ativ 162835
Widerstand 162833
III 162828
Are 162820
favourite 162773
Harris 162742
Gov. 162723
Trainings@@ 162648
verlangt 162601
5000 162599
Villa 162592
besuchen 162578
stronger 162540
unusual 162523
Ton@@ 162513
Körper@@ 162471
Abu 162450
leitet 162432
Tar@@ 162395
square 162395
Titel@@ 162376
fra@@ 162374
Atlanta 162368
dien@@ 162359
Fahrbahn 162356
verbessern 162356
gemäß 162304
types 162263
1,5 162257
reise 162224
weitgehend 162195
Schülern 162143
Angeklagten 162109
Nutzung 162103
Hilfs@@ 162101
opponents 162072
bestehen 162062
rufen 162047
Gymnasium 162045
ej@@ 162038
McC@@ 162023
25-@@ 162015
Pul@@ 162010
goods 161995
structure 161986
Cl@@ 161944
teen 161930
Beg@@ 161921
writes 161887
factor 161844
replaced 161843
versuchte 161823
gestanden 161802
tomorrow 161777
Toronto 161694
gabe 161681
Lager 161673
irgendwann 161669
Landgericht 161611
Innenminister 161598
expenses 161549
einiger 161547
samt 161547
appropriate 161542
movies 161524
10,@@ 161488
nahezu 161471
Howard 161463
istische 161427
Lake 161424
Out@@ 161379
ierter 161351
lift 161337
lar@@ 161332
Ausgabe 161331
Fur@@ 161312
utsch@@ 161306
Wochen@@ 161293
SPÖ 161284
gained 161268
manufacturing 161219
zunehmend 161167
drin 161163
entlang 161144
thinks 161129
promise 161111
Jeremy 161101
hafte 161092
fac@@ 161075
Volker 161063
gelände 161042
konzept 161040
contracts 160958
schef 160930
revenues 160927
Medi@@ 160921
aro@@ 160887
Fort@@ 160823
Traum 160779
drei@@ 160736
Landtag 160732
ov@@ 160728
mehr@@ 160624
barkeit 160594
stick 160591
Marine 160543
ada 160520
Republic 160499
Kommission 160445
ace 160445
expects 160440
Hauses 160428
Gleich@@ 160392
Turkish 160364
Graham 160340
enh@@ 160328
US-Präsident 160276
treat 160218
Bücher 160212
Steuern 160202
youth 160192
Beruf@@ 160180
Lim@@ 160175
Jan. 160149
quote 160149
Wirkung 160138
founded 160121
bling 160109
Lö@@ 160103
bruch 160103
weiler 160032
Netz@@ 159980
91 159936
frag@@ 159920
erhöhen 159802
everybody 159801
schönen 159773
erfüllt 159769
emissions 159767
employment 159750
tion@@ 159734
Family 159670
arch@@ 159656
Papst 159631
Kriegs@@ 159620
Ph@@ 159615
einig 159596
artists 159537
NRW 159532
beginn 159497
geholt 159488
viewers 159487
seasons 159461
Fläche 159406
Integration 159402
sichern 159384
Unternehmens 159382
Schröder 159362
86 159294
elled 159290
Cob@@ 159254
bekannten 159211
editor 159203
Umsetzung 159166
Sex 159158
Kindergarten 159130
besetzt 159069
informieren 158991
Tausende 158941
Stock 158940
angenommen 158935
Bundeswehr 158927
Pil@@ 158915
mid@@ 158884
labor 158850
Gor@@ 158826
Hamas 158813
tics 158810
gate 158809
payment 158729
Yahoo 158725
Manhattan 158700
sive 158650
ou 158629
Claudia 158616
CA 158603
Gewerkschaft 158602
Hir@@ 158589
Santa 158589
ý@@ 158559
Ti@@ 158557
hospitals 158553
Theater@@ 158498
effectively 158479
vic@@ 158463
lern 158453
elsewhere 158429
ausgeschlossen 158420
democracy 158350
encourage 158320
Abgeordneten 158305
tested 158304
Größe 158207
Praxis 158202
journalist 158196
ffer 158178
vic 158170
truck 158111
umgesetzt 158070
Kap@@ 158043
82 158010
wa 158005
Mohammed 158004
14-@@ 157984
ons@@ 157919
erzielt 157871
Pressekonferenz 157849
Bay@@ 157846
ehrenam@@ 157840
Abstand 157827
Tatort 157773
Flu@@ 157692
Schluss@@ 157661
se-@@ 157660
Stor@@ 157650
wechseln 157639
proposals 157579
Reaktion 157575
Lor@@ 157571
Wür@@ 157545
Schweden 157534
Gew@@ 157478
Otto 157475
haften 157432
hitting 157415
dürfe 157408
antreten 157393
Schäden 157372
Science 157365
hän@@ 157324
dl 157304
signing 157303
harder 157302
SV@@ 157300
ruft 157289
3000 157260
Daten@@ 157240
kräftig 157230
entsprechenden 157214
Sven 157213
begins 157197
aries 157186
Istanbul 157151
pal@@ 157125
ians 157123
Angesichts 157117
ahn 157086
arm@@ 157083
Samsung 157075
möchten 157060
Jahr@@ 156951
actual 156947
marks 156939
gestalten 156933
false 156928
lichkeiten 156852
brach 156829
mas@@ 156781
Spuren 156760
cked 156751
Erwartungen 156738
Cu@@ 156686
Bedarf 156628
custody 156567
Erinnerung 156561
l. 156554
geschehen 156541
ari 156532
Boo@@ 156512
DNA 156506
dramatic 156498
chn@@ 156492
kommende 156483
Woods 156474
Kamera 156457
warnte 156456
nu@@ 156428
abgesch@@ 156426
tonight 156410
Hab@@ 156386
Dur@@ 156378
marked 156375
bezeichnete 156367
tern@@ 156312
anc@@ 156299
Sitz@@ 156290
acknowledged 156288
Ly@@ 156274
Kul@@ 156178
09.@@ 156144
age@@ 156138
judges 156136
Ross 156050
Budget 156043
Jewish 156006
dis 155975
enjoyed 155949
ex-@@ 155904
comfortable 155870
Feb. 155865
Zentimeter 155803
kurze 155800
tigkeit 155781
unver@@ 155775
Besitzer 155715
Meister@@ 155687
Fire 155667
advanced 155665
iting 155606
iser 155579
Mehrere 155549
sy 155549
Wunder 155524
ational 155512
tex@@ 155497
tering 155483
truly 155477
splatz 155472
gem 155471
Gemeinsam 155433
tech 155432
deb@@ 155406
Sto@@ 155400
neck 155392
Golf 155376
Football 155334
schafft 155297
R. 155279
Stewart 155272
Abgeordnete 155248
Führungs@@ 155233
angry 155232
tig@@ 155220
usual 155135
Vorwurf 155130
ear@@ 155119
Conference 155101
zei@@ 155101
Freunden 155099
gerecht 155092
thin 155078
lein 155066
84 155053
sorgten 155024
Begegnung 154983
missile 154981
Ferien@@ 154976
Affäre 154965
stä@@ 154965
schm@@ 154930
Mah@@ 154927
ha 154918
Air@@ 154888
Wiesbaden 154865
wirtschaftliche 154851
Dam@@ 154828
dly 154785
Aktie 154782
ME@@ 154754
Fried@@ 154740
connected 154724
ehr@@ 154708
Schäuble 154702
Aufsteiger 154664
linie 154629
discussion 154600
efs 154566
ê@@ 154559
Abschied 154549
Rund@@ 154529
Golden 154486
demands 154479
94 154470
ome 154460
Administration 154455
Deutsch 154452
itäts@@ 154452
Stro@@ 154441
opp@@ 154427
dispute 154396
collapse 154388
x-@@ 154388
ail@@ 154372
istin 154364
weite 154361
Posten 154330
ierenden 154317
dienst@@ 154297
Guardian 154277
preis@@ 154261
1991 154249
rugby 154239
Andere 154212
Bul@@ 154179
Mess@@ 154177
viertel 154163
airline 154125
yo@@ 154122
Z-@@ 154103
83 154072
Tote 154034
Market 154030
Sw@@ 154029
Telefon@@ 153993
ily 153993
Os@@ 153950
Wissenschaftler 153910
furt 153858
cap 153792
Einrichtungen 153789
isierung 153774
outcome 153737
50-@@ 153736
ala 153703
Vorteil 153689
surrounding 153667
Handy 153663
Zweiten 153647
dauert 153624
ausgesprochen 153592
Haup@@ 153591
Schulden 153550
Tran@@ 153547
sixth 153538
kirchen 153513
betroffenen 153449
busy 153441
wunder@@ 153418
Rab@@ 153410
stecken 153357
liefern 153345
ber-@@ 153339
Sanders 153315
verwies 153296
defensive 153287
Ze@@ 153253
afford 153242
managing 153169
dungs@@ 153155
ffs 153155
druck 153150
nah@@ 153144
Eis 153134
chair 153128
Craig 153088
finale 153087
Respekt 152986
directed 152946
linge 152931
gru@@ 152872
Jerusalem 152863
Total 152853
kin@@ 152822
lock@@ 152816
sle@@ 152794
Zug@@ 152778
asp@@ 152737
ausreichend 152723
rücken 152718
Refer@@ 152711
flächen 152706
lungen 152689
erläuterte 152679
freunde 152676
aufgebaut 152669
na@@ 152647
Wat@@ 152644
Sarkozy 152637
vital 152618
located 152612
Tageb@@ 152609
Ludwig 152575
wur@@ 152557
machine 152542
Gegensatz 152532
mm 152521
visiting 152502
sinn@@ 152488
diert 152482
escape 152467
Beck 152458
Bezirk 152457
Saal 152455
Sil@@ 152454
distance 152448
Vogel@@ 152428
Zimmer 152413
questioned 152302
emerging 152272
farm 152267
On@@ 152233
Günter 152222
obvious 152220
Statt 152216
Edward 152213
van@@ 152204
ys@@ 152181
finger 152179
absolute 152150
89 152143
ward 152103
Grünen-@@ 152049
Studien@@ 151984
Toyota 151973
Ah@@ 151940
Hun@@ 151904
schwarzen 151897
endete 151877
enko 151863
unterschiedlichen 151846
Schauspielerin 151826
ades 151804
aside 151797
Bürgern 151790
priority 151785
Zentral@@ 151778
struggled 151775
350 151763
Black@@ 151734
Josh 151734
courts 151709
compensation 151700
communications 151687
sterben 151652
comedy 151606
Long 151598
Volk 151576
migrants 151576
talked 151562
mar 151523
Herr@@ 151506
spielten 151493
Geräte 151474
ose 151464
späten 151457
excited 151455
ups 151439
Händler 151433
verhalten 151427
properties 151406
broadcast 151404
dener 151397
managers 151385
destroyed 151335
Atmosphäre 151323
Hem@@ 151320
puts 151315
teuer 151285
Gegenteil 151260
Bade@@ 151256
Trust 151252
bewerber 151222
sted 151221
Verständnis 151212
länder 151204
argue 151199
kleines 151187
regularly 151163
03.@@ 151138
acker 151125
mers 151100
Food 151099
Lar@@ 151093
geändert 151085
tennis 151027
Navy 151026
Weiß 151009
tierte 151008
Spenden 150996
Stein 150984
golf 150954
ligen 150943
electricity 150920
Rou@@ 150914
feier 150868
ück@@ 150858
vergeben 150845
lucky 150823
Werbe@@ 150822
refer@@ 150820
Antonio 150814
Heinrich 150799
zel@@ 150797
Wohl@@ 150775
ank@@ 150732
hielten 150695
Motor 150681
gleiche 150675
Bier 150653
Aktivitäten 150621
hum@@ 150609
dad 150548
tier@@ 150534
letzter 150517
amp 150506
Where 150474
Räume 150467
1993 150461
cal@@ 150431
Kü@@ 150430
Revolution 150424
jet 150403
beobachtet 150368
Messe 150358
fought 150357
Senioren 150350
Jose 150325
tä@@ 150313
Beschluss 150309
Dau@@ 150268
luxury 150238
dismissed 150233
Kaiser 150232
Eltern@@ 150203
Gang 150199
agenda 150182
roll 150149
harm 150146
Wehr@@ 150130
garden 150116
reporter 150087
Lesen 150086
tle 150011
expand 149962
Sun@@ 149960
Res@@ 149956
Löwen 149884
background 149882
verabschiedet 149845
04.@@ 149811
100,000 149802
Franken 149800
tim@@ 149796
deswegen 149791
Beschäftigten 149756
Fan@@ 149741
Salz@@ 149738
Konkurrenten 149695
Regionen 149686
brings 149615
Teilen 149599
Gest@@ 149567
medi@@ 149567
profitieren 149515
roughly 149508
senator 149508
Stadtverwaltung 149463
represent 149446
lit@@ 149442
Grundlage 149431
Sonnabend 149397
UN-@@ 149394
07.@@ 149391
manage 149369
stedt 149364
stated 149348
EN@@ 149347
causes 149317
Hon@@ 149311
Hoh@@ 149270
preise 149269
wealth 149205
drove 149201
Mittwochabend 149175
verboten 149138
notice 149135
Audi 149101
ica 149072
horse 149056
web 149050
consequences 149032
Lange 149021
adviser 149021
NASA 149019
owns 148970
ular 148939
Holz 148936
oos 148928
baum 148920
igkeit 148911
offices 148906
fat 148903
.at 148897
veranstaltung 148886
ßt 148874
Evans 148865
euros 148777
Costa 148774
birthday 148769
tier 148757
cup 148743
lauf@@ 148722
Mari@@ 148699
Tan@@ 148685
behalten 148677
wenden 148674
lay 148656
ey@@ 148649
17-@@ 148646
haltung 148635
ll 148630
assistance 148627
complaints 148625
Amerikaner 148606
blow 148587
endgültig 148587
techn@@ 148570
throw 148563
bound 148556
remarks 148552
Schreiben 148547
gathered 148537
Ty@@ 148507
gelaufen 148499
Experte 148482
Tory 148472
requires 148457
units 148447
Prüfung 148438
Little 148435
dealing 148434
lights 148411
erreichte 148406
hervor@@ 148390
Cy@@ 148373
Meer 148360
stations 148358
steuer 148343
Thompson 148316
Klein 148259
coffee 148231
Tatsächlich 148218
parks 148203
designer 148193
Kel@@ 148174
Ski@@ 148168
Gruppen@@ 148157
ture 148155
ete 148129
Regierungschef 148120
bs@@ 148114
sage 148063
typically 148043
bisherige 148033
höchsten 147994
Vorgehen 147972
clothes 147966
gestaltet 147931
witness 147930
nachrichten 147913
Aff@@ 147799
funded 147767
Kaffee 147758
cho@@ 147751
Arabia 147738
chemical 147707
buyers 147697
Gipfel 147686
Pin@@ 147678
Mission 147673
impressive 147655
Al-@@ 147620
regulations 147587
reveal 147577
ement 147576
chi 147513
16-@@ 147496
halben 147434
formal 147397
zeichnet 147390
counts 147386
mile 147386
originally 147356
illa 147342
Krisen@@ 147339
belt 147289
aum 147279
diverse 147230
welcher 147218
combat 147217
abroad 147204
Schwein@@ 147153
Beziehungen 147144
Kassen@@ 147121
hat@@ 147105
persönlichen 147097
05.@@ 147091
Version 147056
welt@@ 147045
Tier 147037
hinter@@ 147037
Pennsylvania 147026
bon@@ 147019
Klage 147011
abe 147005
Finanzierung 147002
Partien 147001
Swiss 146988
städter 146981
Leben@@ 146926
performing 146884
tight 146853
firma 146829
förderung 146818
Günther 146791
Muslims 146747
voran 146734
trained 146726
Besuchern 146713
Fokus 146712
rape 146700
dam@@ 146699
Filme 146678
Dienstagabend 146668
Championship 146664
Sc@@ 146623
wo@@ 146587
variety 146585
dge 146581
Cr@@ 146580
sach@@ 146578
ao 146565
schwerer 146562
steh@@ 146542
threw 146538
hoff 146532
Maschine 146525
beschädigt 146508
expansion 146482
ned 146476
trees 146441
Ferguson 146402
IT 146388
coal 146375
restaurants 146375
ed-@@ 146339
Var@@ 146336
tischen 146286
imagine 146283
ahr@@ 146282
Mitchell 146262
räumen 146255
08.@@ 146247
resolution 146228
mes@@ 146212
importance 146206
oll 146194
97 146175
damaged 146175
joining 146174
Parkplatz 146168
offen@@ 146162
blog 146155
cu@@ 146141
vermeiden 146123
Veränderungen 146105
gelernt 146085
äußerte 146082
Versorgung 146078
Bio@@ 146070
quar@@ 146045
Sachschaden 146028
employee 146021
Kern 145993
Syn@@ 145988
italienischen 145974
indicated 145968
D. 145940
keen 145928
groß@@ 145881
Samstagabend 145874
ursprünglich 145802
strategic 145737
unclear 145734
wär@@ 145731
Pra@@ 145723
aim 145722
den-@@ 145710
stunden 145694
micro@@ 145680
Cent 145609
Beamte 145603
contrast 145602
Cruz 145585
Grab@@ 145575
Bowl 145530
Ersatz@@ 145461
vorn 145461
übernahm 145450
Ausschuss 145423
11@@ 145391
ust@@ 145382
ss 145377
saß 145359
Rep. 145345
Erfolge 145333
Wach@@ 145244
alism 145222
Überraschung 145188
dating 145157
Werbung 145134
assi@@ 145122
öff@@ 145119
Bun@@ 145064
Direktor 145064
Sender 145057
Stu@@ 145019
erinnerte 145017
hr 145014
rote 145000
chor 144980
terte 144978
file 144976
ordnung 144972
Spre@@ 144968
NE@@ 144957
compete 144943
arbeit@@ 144924
Montagabend 144914
organizations 144908
vorstand 144903
angen 144899
ello 144836
zahlt 144828
county 144825
enth@@ 144804
App@@ 144803
Warner 144786
grounds 144779
scenes 144763
ized 144758
mistake 144746
sicherlich 144745
kämpft 144744
Atlantic 144730
100@@ 144718
application 144709
sä@@ 144691
Tag@@ 144684
solutions 144664
dry 144662
ling@@ 144645
Hier@@ 144628
ien@@ 144613
baut 144588
ult 144584
Republik 144577
cricket 144566
Nordrhein-Westfalen 144550
ently 144490
Schwarz@@ 144476
Dame 144462
spoken 144450
concluded 144444
registered 144442
wege 144414
championship 144407
bol@@ 144399
Auff@@ 144386
verfolgt 144370
red@@ 144327
stadium 144319
strongly 144310
nachrichten.at 144293
äußerst 144287
bonds 144285
sprachen 144285
Zinsen 144276
auses 144224
CSU-@@ 144222
Catholic 144222
Verbraucher 144169
Lokal@@ 144147
legung 144119
sin@@ 144058
pack 144047
ilen 144045
rol@@ 144044
tries 144044
Anklage 144037
kümmern 144024
Todes@@ 144019
Waffen@@ 144017
Chor@@ 144001
Zähler 143981
bereitet 143958
Wur@@ 143955
q 143925
bestimmte 143904
promote 143880
bestimmten 143868
ti 143829
Schne@@ 143821
zuerst 143821
Übernahme 143809
sons 143776
pres@@ 143741
technical 143736
Nationen 143724
Manche 143694
Liberal 143660
alt@@ 143646
ahl 143641
Fritz 143639
igt 143607
smart 143584
grenze 143549
instance 143544
stepped 143503
ergeben 143500
schluss 143487
please 143469
leer 143467
hö@@ 143456
finanzielle 143434
spüren 143420
Roten 143410
Ehefrau 143405
wasser@@ 143379
Law 143346
chi@@ 143329
med 143325
cro@@ 143321
87 143320
Linken 143312
behavior 143277
Watson 143274
headquarters 143243
Operation 143219
Leiterin 143211
rats 143171
ander 143157
YORK 143149
Spielern 143147
legs 143131
hood 143112
ER 143107
13-@@ 143083
cer@@ 143077
E-Mail 143062
illen 143045
34@@ 142993
einsatz 142987
wel@@ 142977
Stell@@ 142969
Nu@@ 142938
Steffen 142933
Ausbildungs@@ 142921
TV@@ 142919
blamed 142866
Profi 142865
Beteiligten 142830
Haltung 142784
pregnant 142778
schaut 142757
Investor 142724
Video@@ 142706
Bayern-@@ 142696
selection 142689
Education 142676
Nigeria 142669
sions 142609
eigenes 142607
belegt 142574
neighborhood 142535
å@@ 142517
follows 142511
entry 142509
Chor 142507
Dauer@@ 142500
Nation 142500
wahr@@ 142446
beauty 142439
ron@@ 142434
Torwart 142402
Küche 142401
investments 142380
wit@@ 142372
Opel 142303
Lig@@ 142288
Konsequenzen 142258
cy 142253
Whit@@ 142227
guns 142210
Guardiola 142199
quiet 142181
entschied 142132
Jury 142111
waste 142095
einzelne 142089
Schwester 142069
Yemen 142064
smart@@ 142063
exposed 142061
Dür@@ 142058
Köl@@ 142016
minor 142001
Touristen 141972
Harald 141946
Massachusetts 141900
Protest 141899
affairs 141899
Vorfall 141881
Phil 141837
defend 141827
od@@ 141809
sharp 141780
Federer 141766
Such 141757
dreht 141732
finals 141693
stes 141678
immigrants 141677
Material 141670
classic 141664
angel@@ 141642
Peking 141607
pp 141606
favorite 141600
zeu@@ 141558
stuck 141520
chinesischen 141509
prompted 141505
gene 141484
jeweiligen 141454
Care 141427
Exchange 141421
Unterschied 141416
dan@@ 141407
180 141400
3,000 141374
neither 141366
Gemeinschaft 141360
erscheint 141353
Arbeitsplätze 141348
schä@@ 141343
Internationalen 141342
Picture 141329
engine 141285
lö@@ 141275
verspricht 141248
ausgerechnet 141198
Kurt 141178
profile 141175
Beziehung 141144
Frieden 141135
bedroom 141036
Lat@@ 141026
brücke 140998
mainly 140988
FI@@ 140972
granted 140950
healthcare 140930
sburg 140883
tak@@ 140881
OR@@ 140859
Asked 140839
vieler 140839
CO@@ 140833
Hans-@@ 140833
schicken 140817
wohl@@ 140778
parent 140746
second-@@ 140741
Weg@@ 140716
ierungs@@ 140685
overnight 140669
erzählen 140660
ve-@@ 140652
recalled 140635
weis@@ 140633
Mol@@ 140606
dest@@ 140596
adult 140593
appen 140581
untersucht 140574
Nik@@ 140571
Restaurant 140530
Interessen 140489
essential 140489
networks 140478
Steinmeier 140450
ony 140353
Disney 140335
halbe 140330
ahl@@ 140320
ku@@ 140312
Mir@@ 140277
Verfassungs@@ 140239
ßen@@ 140239
Unternehmer 140224
Torhüter 140217
Ehe 140216
dens 140159
Sta@@ 140106
bürger@@ 140072
daten 140057
Proteste 140045
unge@@ 140021
verletzte 139988
desire 139987
dran 139975
lager 139972
W-@@ 139965
ition 139938
featured 139934
leichter 139920
Ort@@ 139916
Studium 139886
stayed 139882
Dadurch 139874
Besch@@ 139847
Thailand 139845
prospect 139840
Syri@@ 139822
gesichert 139822
gescheitert 139747
Uni@@ 139738
werten 139721
Eintritt 139703
elli 139701
musical 139696
personnel 139673
Mayor 139662
German@@ 139655
einzigen 139619
Johann 139618
Francis 139583
47@@ 139557
Hotel@@ 139555
applications 139552
tigung 139542
richten 139509
Ran@@ 139504
2019 139475
Several 139465
Ring 139457
ger-@@ 139448
discussed 139427
Mut 139421
Mühl@@ 139380
gehandelt 139368
supplies 139322
fingen 139320
wage 139320
schulen 139316
stro@@ 139313
combination 139307
kreises 139301
beating 139285
Nationalmannschaft 139280
tran@@ 139273
Internet-@@ 139240
blatt 139234
gh 139184
nen@@ 139177
Sprung 139176
K. 139173
cited 139168
solid 139167
drew 139158
Forschungs@@ 139141
türkische 139130
Fabian 139112
bus@@ 139109
Donnerstagabend 139084
Weiß@@ 139044
Bruce 139010
Großteil 139010
Anbieter 139000
Fris@@ 138999
lowest 138964
practices 138957
Zeitraum 138954
echte 138924
finds 138918
bie@@ 138906
Hä@@ 138905
auto 138900
Boeing 138895
anischen 138838
consecutive 138827
Immobilien@@ 138817
OK 138777
langer 138767
frau 138733
fragte 138715
bench 138713
AT 138701
Alb@@ 138695
iller 138689
fore@@ 138681
derung 138665
reagieren 138654
Celtic 138642
Fle@@ 138626
stände 138623
doors 138607
Lions 138602
Sor@@ 138591
at-@@ 138585
aux 138583
inning 138581
gast@@ 138579
Anti-@@ 138562
sammeln 138551
THE 138535
0.000 138528
lt 138504
TS@@ 138469
bury 138468
Lust 138452
bewer@@ 138443
verhindert 138440
iers 138438
poverty 138391
welchen 138368
suspects 138344
guests 138325
Neuen 138267
ius 138259
Neil 138255
explosion 138245
Hinweis 138233
agen@@ 138227
technischen 138224
Mannes 138200
Russell 138159
werke 138159
benötigt 138138
Mö@@ 138136
Freu@@ 138126
forms 138124
Rechte 138118
sichtlich 138103
meldete 138086
Bou@@ 138058
ust 138033
bestand 138030
loo@@ 137984
racing 137960
gehörte 137949
weißen 137948
abgelehnt 137919
68@@ 137902
Leser 137891
Newcastle 137887
passenger 137875
partnership 137855
Hay@@ 137847
griechischen 137825
betreut 137809
Klub 137766
vorsitzender 137762
Sweden 137728
entsteht 137670
alität 137660
igung 137649
nah 137643
Strategie 137607
shoulder 137597
vieles 137580
artikel 137561
meat 137547
Informations@@ 137527
schien 137522
wünschen 137508
Ash@@ 137495
persönliche 137458
Back 137446
transition 137383
urs@@ 137344
wonder 137311
Schar@@ 137307
widespread 137306
Ther@@ 137280
06.@@ 137276
Ali@@ 137241
delay 137147
hero 137145
gekauft 137137
Zoll@@ 137118
Jun@@ 137104
winds 137084
nor@@ 137079
Ungarn 137041
stellvertretende 137033
Origin@@ 137030
Nicole 137006
rural 136993
Fas@@ 136984
BA@@ 136963
Men 136954
Port 136954
estimate 136895
reaching 136884
shoot 136883
Ausgaben 136879
Jamie 136876
Bit@@ 136871
Petra 136869
tenberg 136853
Tam@@ 136834
gift 136834
fliegen 136803
bek@@ 136793
Leon@@ 136790
Reform@@ 136777
therefore 136770
ck-@@ 136767
Blues 136762
sau@@ 136752
wehr@@ 136750
Licht@@ 136727
girlfriend 136724
verwendet 136718
behalf 136689
ais 136687
Spo@@ 136683
bags 136681
Indien 136675
solar 136615
materials 136603
fill 136598
Five 136576
regarding 136572
ras@@ 136559
Mittlerweile 136551
balls 136521
deadly 136498
flag 136493
Perth 136479
Uni 136478
Strafe 136471
DiePresse.com 136457
celebrate 136449
karte 136434
Infrastruktur 136433
Telekom 136429
heimischen 136397
net@@ 136394
Seattle 136382
Six 136366
fielen 136352
gin 136352
-Sprecher 136327
faster 136322
Gulf 136320
upset 136318
ovic 136307
tem@@ 136303
Riesen@@ 136301
sounds 136294
sick 136283
handeln 136253
höheren 136249
78@@ 136217
Report 136177
Sü@@ 136177
Sony 136161
angekommen 136155
Brief@@ 136148
kurzfristig 136130
Heb@@ 136099
nten 136065
long-@@ 136049
preparing 136025
dd 135996
Av@@ 135985
HSG 135938
improving 135936
Kino 135933
seized 135927
direktor 135920
Gesprächen 135880
solcher 135878
tourists 135874
Platz@@ 135862
Kritiker 135854
Carter 135838
stoff 135819
110 135781
womöglich 135774
Aufgrund 135749
ard@@ 135738
minority 135734
Bridge 135685
Wahrheit 135673
durchgeführt 135664
Boris 135653
lic@@ 135603
stehenden 135600
bewegt 135586
indeed 135581
Next 135562
except 135562
asser 135533
Duo 135524
ye@@ 135510
bright 135490
Schö@@ 135482
kitchen 135471
höchste 135466
genießen 135455
technik 135455
wort 135447
scores 135444
minus 135443
folgenden 135392
shouldn 135381
Stur@@ 135358
challenging 135352
digte 135335
Verlängerung 135325
mixed 135318
drehen 135313
Alkohol 135293
reduction 135267
zerstört 135258
Sportler 135245
lerin 135189
Gil@@ 135175
län@@ 135131
Unternehmens@@ 135126
SI@@ 135120
master 135091
Bundestrainer 135081
Eigentümer 135054
Betreiber 135053
sensitive 135052
Ras@@ 135033
besseren 135016
backs 134979
Betroffenen 134973
saved 134954
testen 134919
sad 134888
aps 134880
ruhig 134880
jump 134872
landete 134830
grade 134827
ministry 134818
140 134815
punkten 134811
Cop@@ 134794
disappointed 134771
vorgeworfen 134769
König@@ 134768
Anstieg 134694
moder@@ 134675
half-@@ 134674
Müh@@ 134639
igh@@ 134613
Night 134611
capable 134570
exciting 134549
Schrift@@ 134523
.. 134517
Netzwerk 134498
complaint 134483
Menschen@@ 134480
zelt 134470
temporary 134462
Ja@@ 134461
11-@@ 134438
pped 134428
Händen 134370
jumped 134368
Reise@@ 134348
entertainment 134331
as-@@ 134302
Brau@@ 134301
Cooper 134256
ston 134244
purpose 134209
Pass@@ 134202
Regensburg 134192
Ruf 134180
backing 134167
diplomatic 134151
gelingt 134147
Carlos 134138
Stadtteil 134126
begun 134113
ierende 134113
tolle 134089
awards 134073
Wilhelm 134057
Leuten 134056
gent@@ 134043
Lied 134041
She@@ 133995
Erfolgs@@ 133966
Bis@@ 133960
ARD 133929
Network 133926
represented 133922
TH@@ 133914
suche 133891
explains 133886
Tageszeitung 133849
Abteilung 133844
F-@@ 133827
beteiligen 133826
stammen 133826
E. 133814
eindeutig 133797
engaged 133786
chosen 133769
schätzen 133769
sugar 133769
Indi@@ 133726
Forum 133725
BR@@ 133721
Executive 133696
pleased 133693
bru@@ 133683
clo@@ 133667
bear 133661
Viertelfinale 133652
Minnesota 133648
winners 133648
Palace 133637
inklusive 133598
farmers 133520
prominent 133510
Angel@@ 133493
Volkswagen 133476
rech@@ 133469
Dax 133467
Neub@@ 133427
räume 133423
Zer@@ 133421
operate 133376
teilten 133364
burn 133355
numerous 133318
Cleveland 133316
log@@ 133315
Perhaps 133298
dia 133294
comp@@ 133281
Kräfte 133268
Stri@@ 133266
eck@@ 133224
Crown 133214
gut@@ 133192
outstanding 133118
Krankheit 133113
top-@@ 133082
stream 133058
Agentur 133003
Sean 132998
Having 132985
Vietnam 132957
extraordinary 132926
electric 132871
Marcus 132861
D.C. 132835
Prinz 132817
Heu@@ 132813
ion@@ 132810
ye 132798
entspricht 132782
Alkohol@@ 132774
ermöglichen 132768
Jessica 132764
Thüringen 132758
Wett@@ 132752
Abwehr@@ 132718
äußern 132713
ulation 132695
Schwarz 132683
reflect 132669
ero@@ 132653
jailed 132649
ners 132626
schaffte 132616
suddenly 132605
kg 132593
sco@@ 132564
Arn@@ 132560
Hochschule 132560
pause 132555
Glück@@ 132550
Rel@@ 132538
schedule 132512
halb 132499
Pres@@ 132497
bayerischen 132496
intensiv 132468
spolitik 132448
PC 132428
prepare 132375
chose 132341
sodass 132339
locked 132297
Bundestagswahl 132291
illness 132287
locker 132284
Bol@@ 132282
inv@@ 132281
ältere 132273
Officials 132260
züge 132247
ids 132234
-Sieg 132230
Off@@ 132225
Führ@@ 132220
11,@@ 132202
Porsche 132161
essi@@ 132158
Nico 132126
suggesting 132094
Dubai 132061
Davon 132043
shops 132027
Charlotte 132025
Bat@@ 131998
Corporation 131981
sie@@ 131975
adi 131974
44@@ 131970
oli 131963
vertreter 131958
Bloomberg 131953
teenager 131945
incidents 131935
Mexican 131923
Kiel 131919
limits 131917
kammer 131897
cameras 131874
hate 131833
Darmstadt 131805
klären 131792
Justiz 131770
wünscht 131759
crude 131756
eingerichtet 131753
tende 131752
Kil@@ 131749
Eisen@@ 131745
prize 131743
Maybe 131723
approximately 131698
eich@@ 131696
pleaded 131687
Rande 131676
Local 131673
cy@@ 131667
Songs 131665
beit@@ 131663
Look 131654
Landesregierung 131648
Gewinner 131647
angebot 131646
letters 131622
peak 131609
Maryland 131598
Blum@@ 131596
confirm 131594
formation 131586
Michel 131553
Jon 131541
19.30 131535
Marie 131531
Gerät 131530
zimmer 131523
quoted 131482
Award 131466
creative 131456
Cat@@ 131444
reducing 131441
Afrika 131421
discussions 131355
unmittelbar 131350
Breit@@ 131314
Dec. 131292
erzählte 131275
Unbekannte 131220
André 131192
Zentralbank 131190
greift 131174
Qualifikation 131162
las@@ 131162
rated 131155
Bow@@ 131133
Week 131074
Schnee 131051
IC@@ 131040
wonderful 131023
lasse 131020
earn 131009
resort 131009
ata 130978
Partner@@ 130961
margin 130961
belief 130947
erfüllen 130942
praktisch 130915
22@@ 130907
achieved 130907
tat 130828
Fahrrad@@ 130827
wechsel@@ 130809
wis@@ 130808
Nord 130805
wesentlich 130801
Hall@@ 130792
kus 130792
rail 130789
Real@@ 130765
Ägypten 130759
spo@@ 130722
mitglied 130705
Betreuung 130697
urg 130687
Mars 130675
Each 130653
venture 130652
Rick 130621
Alten 130562
ign@@ 130513
manns 130503
Café 130445
river 130437
Dave 130419
equal 130407
Lebensmittel@@ 130397
Bull 130388
Malaysia 130381
brands 130368
ès 130349
plastic 130334
predicted 130297
Dro@@ 130291
LA 130291
schei@@ 130284
startete 130280
by-@@ 130275
Ärger 130257
Einzug 130250
improvement 130247
brutal 130243
broad 130223
motor@@ 130222
mate 130182
ES@@ 130165
brauche 130165
Stattdessen 130157
lets 130143
160 130133
Olympischen 130133
ourselves 130133
dlichen 130099
Blair 130056
BVB 130053
mann-@@ 129990
inform@@ 129964
val@@ 129947
main@@ 129944
büro 129943
ink 129943
Pel@@ 129933
DFB-@@ 129924
Aufmerksamkeit 129914
ags 129912
nomination 129912
athletes 129907
stolen 129903
Baustelle 129885
olo@@ 129880
beschreibt 129860
Anzahl 129859
01.@@ 129853
Out 129844
fügte 129836
Gutachten 129823
Tak@@ 129823
first-@@ 129794
Stellungnahme 129787
intense 129766
invited 129746
Brussels 129738
thaus 129736
kommission 129699
Roberts 129671
staatlichen 129664
bundesweit 129618
verk@@ 129616
Amerika 129594
guide 129565
000-@@ 129556
joy 129547
Carl 129545
polizei@@ 129509
Blan@@ 129498
finanziert 129492
kat@@ 129487
Sanktionen 129485
Kurs@@ 129481
Projekt@@ 129464
griff 129440
stable 129419
stem 129408
F. 129396
locations 129394
schwarze 129371
Offensive 129362
Sche@@ 129320
pass@@ 129314
properly 129277
Net 129270
involvement 129226
erfolgt 129211
Sat@@ 129181
Spielzeit 129172
laid 129129
Genau 129128
Eva 129127
öffnen 129119
erhielten 129100
beaten 129095
unterschiedliche 129095
aufen 129090
IE@@ 129051
dominated 129046
Bla@@ 129028
Deutscher 129021
passes 129018
Rest@@ 129015
Me 128995
wore 128972
Kilometern 128943
DS@@ 128935
waters 128913
Leader 128876
Corp. 128837
beer 128836
geklärt 128834
02.@@ 128833
ries 128832
leiden 128796
üm@@ 128783
stellungen 128782
läu@@ 128779
77@@ 128762
planet 128749
Mei@@ 128702
Zugleich 128689
aufnehmen 128669
passen 128633
Sendung 128629
Mannschafts@@ 128592
lunch 128563
ards 128552
Robinson 128551
Schwe@@ 128533
AP@@ 128523
witnesses 128514
the-@@ 128511
thrown 128505
Geor@@ 128490
clash 128482
ari@@ 128465
mention 128454
symptoms 128446
erkannt 128441
CA@@ 128427
klein 128424
Bereichen 128408
drauf 128390
wart 128379
Hop@@ 128348
té 128344
kampf 128341
Ronaldo 128338
Linz 128324
Et@@ 128313
mannschaft 128310
client 128305
Magazin 128304
Nicolas 128299
McDonald 128280
Gute 128277
invest 128261
Plat@@ 128258
Holger 128246
hon@@ 128236
fled 128221
Schüler@@ 128186
bach@@ 128181
zut@@ 128141
writers 128137
draußen 128117
spätestens 128113
investigate 128102
Khan 128095
vit@@ 128094
Verlag 128074
tene 128060
Mord@@ 128043
part@@ 128039
Sn@@ 128013
referring 128000
dlich 127999
Österreicher 127993
Wichtig 127950
Donau@@ 127941
dy@@ 127917
VW-@@ 127916
Pflicht@@ 127899
Schäfer 127893
acht@@ 127879
Hotels 127829
durften 127824
relationships 127797
atmosphere 127759
Stau@@ 127751
hoher 127748
tered 127736
chtung 127716
sight 127674
55@@ 127664
folge 127648
Bil@@ 127640
versuchten 127636
striker 127634
Pentagon 127598
FC@@ 127595
Rot 127587
enttäuscht 127559
gesammelt 127545
Darin 127535
präsentierte 127517
privacy 127510
Mord 127505
Reich@@ 127452
chers 127439
play@@ 127430
Lufthansa 127426
ungst@@ 127425
20.@@ 127422
yed 127408
richtet 127387
Lem@@ 127378
Stern@@ 127368
Akti@@ 127363
bike 127356
Kommentar 127344
punkte 127344
spotted 127343
Rats@@ 127341
ease 127317
telephone 127274
Verlauf 127273
diger 127271
industrie 127261
CIA 127253
Attorney 127244
Dow 127221
Kranken@@ 127216
recovered 127212
See@@ 127207
rent 127207
sex@@ 127179
Tigers 127172
informed 127171
ache 127130
bildung 127128
Entwurf 127125
städtischen 127116
sahen 127090
survived 127048
pot 126989
Sex@@ 126983
fields 126976
dachte 126975
ous@@ 126950
Vorbild 126949
herr@@ 126945
han 126915
absolut 126900
spanischen 126897
vierte 126880
tit@@ 126877
brothers 126862
verdienen 126862
Rebellen 126843
Kop@@ 126840
gründen 126833
M-@@ 126832
Clubs 126794
12,@@ 126791
geboten 126788
Sandra 126770
ind 126753
Vorschläge 126749
Dutch 126715
apparent 126715
Industrie@@ 126710
investieren 126695
length 126687
syrischen 126682
anywhere 126671
alismus 126668
zunehmen 126667
detailed 126661
teln 126643
Arnold 126612
pi@@ 126604
west@@ 126598
Einheit 126589
staying 126582
geriet 126575
Mie@@ 126565
Windows 126563
Australien 126513
Oklahoma 126504
entscheidenden 126474
Karlsruhe 126460
isation 126438
parliamentary 126432
soft 126384
teilnehmen 126363
Reihen 126362
Hat 126354
fing 126343
blicken 126340
Space 126333
derte 126322
sozial@@ 126306
kritisch 126298
welfare 126235
Development 126227
Aussicht 126226
Pas@@ 126224
run@@ 126216
ush@@ 126214
Calif 126200
Stern 126185
tribute 126180
promises 126179
extent 126176
detail 126158
streifen 126148
metal 126103
Jimmy 126081
smoke 126054
steten 126054
interviews 126051
mining 126039
saving 126019
participants 125995
nung 125977
Greg 125973
tre 125966
Hack@@ 125929
excellent 125913
Brun@@ 125882
bedroht 125882
freue 125880
atten@@ 125867
let@@ 125852
netz 125816
Pflicht 125806
Verletzung 125792
24.@@ 125761
vol@@ 125756
Rechnung 125749
print 125746
Jesus 125734
Gremium 125732
acks 125725
pound 125705
iling 125684
loser 125680
hall 125671
e.de 125668
feed 125658
Spitzenreiter 125644
Stahl@@ 125595
Go 125581
opposite 125580
nissen 125573
temperatures 125562
therapy 125529
Verbot 125527
einstimmig 125499
Roo@@ 125487
luck 125481
Rü@@ 125472
bas@@ 125470
Umwelt 125457
referred 125429
maximum 125426
anbieten 125420
Sitz 125411
unions 125382
spirit 125373
extend 125372
exit 125355
Jonas 125344
Weißen 125343
L. 125341
gener 125312
Terry 125302
liebe 125301
stete 125250
Person@@ 125219
Amtszeit 125196
Börsen@@ 125140
gestaltung 125140
offene 125133
ideal 125118
sent@@ 125114
sum 125089
Kilogramm 125085
rap@@ 125075
PA 125073
pert 125069
lying 125063
geprüft 125053
my@@ 125049
show@@ 125046
Schritte 125034
Umbau 125034
itt@@ 125016
Champions-League-@@ 125012
drücken 124999
regions 124983
Minus 124982
Vel@@ 124976
facts 124972
Quote 124951
Cri@@ 124944
alis@@ 124937
maximal 124936
abteilung 124909
finanziellen 124901
campus 124871
Angreifer 124850
Toren 124845
ZDF 124826
kno@@ 124824
nes 124816
awarded 124806
dich 124773
prisoners 124712
arzt 124697
Independent 124695
Kreuz 124679
Haw@@ 124671
aging 124662
überzeugen 124655
proper 124633
Gottes@@ 124606
Zei@@ 124571
TSG 124556
viel@@ 124536
inst@@ 124515
Gesam@@ 124494
sil@@ 124489
settled 124470
gelt 124456
Freizeit@@ 124430
surveillance 124405
bitte 124404
selbstverständlich 124400
Christie 124396
zurzeit 124393
Trans@@ 124391
rasch 124389
bet 124369
ere@@ 124325
urer 124283
H. 124282
restrictions 124281
manchen 124279
Küh@@ 124268
untergebracht 124260
rie 124216
acking 124215
Zimmer@@ 124210
Luke 124206
Brooklyn 124186
Schuld 124179
prosecutor 124172
Kansas 124167
enthalten 124156
relevant 124117
seln 124089
fail 124072
formen 124072
Advent@@ 124045
gol@@ 124021
macher 124012
1990s 124009
Liebes@@ 123994
Staffel 123989
Mund@@ 123976
FSV 123963
Applaus 123957
latt 123949
1980s 123948
Aug. 123931
sparen 123926
Cle@@ 123891
Stärke 123887
barely 123859
ress 123841
partly 123831
entscheidet 123816
40-@@ 123803
Stanley 123799
relatives 123764
arrive 123747
detained 123728
Cuba 123727
equ@@ 123724
24-@@ 123713
AI@@ 123713
schnitt 123694
mouth 123676
rechtzeitig 123663
gering 123655
Klassen 123653
Kraft@@ 123648
staatliche 123640
bull 123633
direkten 123595
burg-@@ 123588
asset 123573
bars 123553
ausgelöst 123536
schlechte 123519
liberal 123509
bombing 123478
mi 123478
kunden 123468
dler 123461
Info@@ 123410
cs 123407
ule 123404
Tokyo 123381
Heil@@ 123359
Aufklärung 123348
motion 123348
hinzu@@ 123343
Türen 123323
tons 123317
sey 123316
totally 123315
Schulden@@ 123305
End 123297
expense 123293
plat@@ 123260
P. 123252
erfolgreichen 123242
bitter 123241
klaren 123210
Pakistani 123181
punk@@ 123157
verlängert 123132
Rolf 123131
factory 123115
info 123103
verein@@ 123069
concert 123063
dic@@ 123047
speculation 123022
horn 123021
necessarily 123011
lieb@@ 123009
pa 122996
denden 122949
dungen 122939
Beine 122920
native 122919
moral 122915
roles 122901
dende 122894
citing 122893
Königs@@ 122883
civilian 122815
gewachsen 122813
eth@@ 122804
Jung 122795
work@@ 122794
Yorker 122784
FIFA 122783
badly 122772
engagiert 122755
vergangene 122727
Goldman 122720
meyer 122693
EM-@@ 122690
Freien 122682
Protest@@ 122671
scher@@ 122664
ologe 122656
Männer@@ 122616
ado 122579
Wh@@ 122570
survive 122536
Polit@@ 122531
Second 122530
dedicated 122508
Nadal 122477
Authority 122460
ppen@@ 122446
ligisten 122415
Mir 122388
favour 122382
fassen 122376
Hi@@ 122353
Eng@@ 122333
asen 122320
band@@ 122313
Willen 122281
signal 122261
ites 122259
planes 122252
thu@@ 122237
Chefin 122225
tour@@ 122224
amounts 122201
dient 122201
Brit@@ 122176
ffen 122160
jener 122155
ollen 122121
una 122119
stages 122117
und-@@ 122103
Kron@@ 122091
steuern 122089
Ferrari 122088
terrorists 122087
Ebene 122083
1.5 122073
pul@@ 122066
gefährdet 122047
technische 122034
hör@@ 122016
walls 122010
Sechs 121997
Clarke 121996
Blas@@ 121931
spro@@ 121928
Campbell 121924
absence 121910
verfügt 121894
Vill@@ 121884
DDR 121863
mitteln 121862
pack@@ 121859
Griff 121857
Schmid 121847
Sonntagabend 121839
Aufnahme 121836
cli@@ 121836
ington 121832
Lev@@ 121825
fünf@@ 121824
stretch 121822
theit 121816
establish 121812
din@@ 121802
sionen 121798
Begriff 121790
Transport 121770
zumal 121769
tlicher 121751
1500 121744
Bremer 121737
Risiken 121737
scheid 121733
proof 121692
Berlusconi 121671
Show@@ 121668
Comeback 121652
Sem@@ 121638
ammer 121621
aufnahme 121614
auction 121574
Free 121565
taste 121546
sicherheit 121524
op 121508
anna 121499
Regel@@ 121492
stoff@@ 121487
shirt 121478
equivalent 121467
Series 121465
Hell@@ 121461
han@@ 121460
freilich 121458
Sab@@ 121445
junger 121437
Abkommen 121430
welcomed 121412
ppo 121397
atik 121371
knowing 121363
abortion 121347
gefällt 121340
kunde 121333
Blut 121331
terrible 121307
hosts 121274
forget 121273
kräfte 121263
Dauer 121250
journal 121218
weiten 121218
cycle 121215
frisch 121197
incredible 121193
Bell 121191
alist 121154
Pleite 121151
teure 121135
funktion@@ 121129
Sieger@@ 121116
mus@@ 121102
ergänzt 121077
helicopter 121044
betrifft 121028
verpasst 121025
Aaron 121023
hardly 121021
Loh@@ 121005
Leu@@ 120993
beteiligten 120985
Rote 120979
Hunderte 120976
flug 120967
of@@ 120943
optim@@ 120907
performances 120896
Kapital@@ 120893
humans 120884
beobachten 120870
oned 120870
Spitz@@ 120863
BILD 120859
bedingt 120846
Videos 120839
A.@@ 120824
multi-@@ 120811
Senioren@@ 120809
Betriebe 120805
map 120781
vorsitzende 120737
Theresa 120729
Shanghai 120720
posts 120713
Erwachsene 120707
plot 120704
differences 120682
Emp@@ 120671
RO@@ 120671
Ori@@ 120663
Gründung 120661
Gottesdienst 120612
Sachsen 120602
N-@@ 120592
stetten 120587
Falle 120570
six-@@ 120545
races 120527
Gemeinschafts@@ 120509
Pokal@@ 120474
Regelung 120467
announce 120438
ops 120385
Reinhard 120374
planen 120362
grünen 120359
tender 120352
etten 120301
Mannheim 120292
tiv@@ 120252
Computer@@ 120246
Hampshire 120212
AS 120198
Tatsache 120183
Mayer 120181
Nah@@ 120177
Susanne 120161
Anzeige 120155
dist@@ 120148
genügend 120134
Fac@@ 120116
Med@@ 120101
hadn 120101
producers 120069
massiv 120060
Vereinen 120058
ständen 120046
cabinet 120033
bayern 120029
function 120012
Zuhörer 119998
verbessert 119998
Wayne 119970
beit 119968
Ihrer 119965
mäßig 119960
nationalen 119958
nis 119918
intervention 119908
erie 119889
regulation 119884
controversy 119883
Tour@@ 119872
pt 119864
digung 119840
Wimbledon 119825
regulatory 119814
befand 119801
Bebau@@ 119786
hang 119778
Hy@@ 119757
liber@@ 119755
cent@@ 119746
possession 119742
Abends 119738
Dol@@ 119735
um-@@ 119703
ert@@ 119701
musi@@ 119693
rest@@ 119683
Seel@@ 119664
Reh@@ 119648
blocked 119634
Maßnahme 119580
Arbeitsk@@ 119576
Famili@@ 119576
Venezuela 119575
rad 119569
royal 119563
Securities 119548
entering 119544
Updated 119532
ula 119527
Rob@@ 119513
imposed 119500
fahrten 119486
somebody 119484
Ret@@ 119479
MA 119455
Mittelfeld 119453
diagnosed 119448
wichtigste 119419
Wild 119391
eigen@@ 119391
Argentina 119369
ologist 119352
Trade 119345
resident 119306
rac@@ 119256
Nachwuchs@@ 119255
diet 119248
atur@@ 119235
Authorities 119195
shocked 119193
bricht 119159
Djokovic 119152
channel 119149
Tür@@ 119121
da-@@ 119106
schätzt 119088
threatening 119065
ate@@ 119046
LI@@ 119031
soci@@ 119005
sbach 118994
protected 118991
Danny 118963
Herren@@ 118953
rennen 118914
Grä@@ 118904
encouraged 118876
assessment 118875
titles 118861
woh@@ 118852
dressed 118851
keeps 118849
künftigen 118835
Cambridge 118833
sprache 118823
Wird 118820
stärken 118811
dale 118808
Wright 118796
amb@@ 118754
Flammen 118749
empty 118741
fach 118722
hoo@@ 118720
älteren 118719
Truppe 118700
Klopp 118699
Schiff 118689
no-@@ 118684
tea 118667
sec@@ 118664
Klar 118660
Lkw 118652
APA 118648
Signal 118641
,000 118638
milk 118613
Gör@@ 118601
Anlagen 118600
posed 118586
Kath@@ 118581
dankte 118563
representing 118544
beschäftigen 118534
Osborne 118528
real@@ 118524
Roth 118505
Solar@@ 118505
Lob 118486
76@@ 118476
sinnvoll 118476
großem 118472
zitiert 118472
BC 118463
baseball 118450
utes 118446
75@@ 118441
derer 118437
Stil 118432
Technology 118431
cheap 118428
holz 118368
Wann 118344
rang 118338
Klo@@ 118299
contained 118264
quasi 118239
historische 118218
Design 118202
burg@@ 118201
Any 118198
defender 118196
degrees 118187
kontrolliert 118175
bittet 118172
dash@@ 118140
wand 118125
din 118121
geprägt 118112
schnelle 118108
Herbst@@ 118101
spots 118091
2,5 118087
Haf@@ 118082
Juden 118074
iPad 118058
hotels 118045
pra@@ 118020
iste 118010
Mindest@@ 118006
soldier 117994
nord@@ 117971
einander 117937
scientific 117935
Corp 117921
Forschung 117916
assen@@ 117909
sweet 117898
Druckversion 117897
surge 117887
dische 117876
Mönchengladbach 117855
Sängerin 117849
CS@@ 117845
investor 117836
urban 117834
Realität 117793
aussehen 117783
abgeben 117772
Zehn 117770
tische 117759
substantial 117730
lifted 117724
1988 117689
NO@@ 117684
pas 117675
Farben 117673
regierung 117640
arrival 117638
hard-@@ 117632
officially 117630
Justiz@@ 117627
steher 117626
Bündnis 117619
kol@@ 117585
Job@@ 117580
Zoo 117575
handling 117546
ital 117527
Anton 117522
ände 117519
person@@ 117506
wehren 117461
Jäger 117443
rop@@ 117438
Elisabeth 117425
hired 117420
Gleich 117407
lab@@ 117398
breast 117375
scheiterte 117364
utz 117353
fuhren 117332
Cross 117318
ungspro@@ 117313
Islamist 117301
Radfahrer 117275
Bildern 117269
normally 117269
Auseinandersetzung 117257
ord 117256
fel 117236
cable 117226
Birmingham 117225
exhibition 117221
Variante 117183
kosten@@ 117171
leiten 117170
modernen 117161
vorbei@@ 117144
honest 117139
leichte 117116
Beh@@ 117112
bst@@ 117095
Vorgänger 117087
Erstmals 117026
ito 117015
demanding 117010
doppelt 117007
Mül@@ 117005
Vortrag 117000
Pflege 116995
Hoffenheim 116972
genannten 116949
investigations 116949
newly 116947
Deal 116929
vely 116912
Plattform 116900
killer 116878
clinical 116871
weapon 116821
stal@@ 116807
II. 116801
replied 116794
holes 116792
Runden 116764
parking 116762
Ele@@ 116759
ratings 116759
offizielle 116751
basketball 116740
desperate 116690
21-@@ 116673
uner@@ 116673
Mid@@ 116672
Bar 116667
requirements 116662
kurzer 116648
Später 116643
such@@ 116640
sitz 116622
horst 116606
Fußballer 116597
Kro@@ 116596
hl@@ 116586
forum 116583
derStandard.at 116579
Tottenham 116544
verkauf 116535
Hoeneß 116523
Antworten 116520
PR@@ 116487
Bach 116484
dit@@ 116470
experiences 116457
Columbia 116454
trainiert 116451
tank 116447
Friedens@@ 116435
kern 116431
Allianz 116405
creation 116393
cat 116385
verlust 116380
tief@@ 116375
Hektar 116353
regulators 116351
Arthur 116335
hinweg 116332
vollständig 116329
meldet 116316
mountain 116309
Schlag 116305
DA@@ 116289
Hinzu 116289
übertragen 116276
ures 116256
Figur 116254
versorgt 116246
I-@@ 116232
fonds 116224
Adresse 116217
Spannung 116207
Vice 116187
ambassador 116182
finanziell 116180
Schwei@@ 116166
saison 116156
suffer 116133
Weltkrieg 116131
seitdem 116127
Rob 116113
applied 116111
aufgerufen 116096
Durchgang 116085
stoffe 116077
Az@@ 116071
Akteure 116051
sun@@ 116047
Fahrzeugen 116032
schlechter 116023
FDP-@@ 116013
delayed 116005
zul@@ 115980
betrieben 115972
Aufsichtsrat 115943
Alfred 115933
dicht 115931
repeated 115930
ately 115928
Pist@@ 115921
öffnet 115912
fangen 115910
qui@@ 115908
steam 115901
portfolio 115887
fehlte 115880
MO@@ 115877
theim 115874
sicherte 115850
pil@@ 115823
bron@@ 115818
Note 115806
verlegt 115805
actors 115804
elite 115792
momentan 115750
Sm@@ 115733
nern 115732
stance 115731
akt 115706
inge 115695
ison 115687
erheblich 115683
stability 115680
lag@@ 115665
ev 115654
Stimm@@ 115630
noticed 115607
Indonesia 115599
Einladung 115588
Schwierigkeiten 115580
assist 115579
kehrt 115577
Mein@@ 115576
Jubiläum 115539
adopted 115521
Juan 115511
Avenue 115490
tradition 115489
Bin@@ 115486
bekamen 115468
stan@@ 115463
ranked 115443
ferin 115441
momentum 115439
arts 115410
stern 115398
Atem@@ 115395
Deb@@ 115395
calm 115382
bat@@ 115352
1980 115349
Illinois 115338
43@@ 115334
Read 115324
hofer 115296
Jahrhunderts 115289
Kanada 115280
sank 115272
slowly 115252
multi@@ 115246
Alabama 115232
grund@@ 115227
gestoßen 115224
tools 115222
selben 115214
ands 115213
Lars 115203
smoking 115184
irgendwie 115180
bi 115158
Darauf 115125
bad@@ 115122
Grundstück 115114
frequently 115100
loh@@ 115094
Monika 115083
Systems 115075
amts@@ 115052
Axel 115013
zin@@ 114999
feu@@ 114994
vorge@@ 114986
Farbe 114961
cc@@ 114951
Warren 114922
Ebenfalls 114914
Mourinho 114909
defending 114908
IR@@ 114889
zentralen 114884
association 114882
Ange@@ 114863
Jane 114857
featuring 114855
Ray 114831
Special 114818
Others 114817
Match 114812
ings@@ 114810
remote 114798
häufiger 114796
Ministerium 114784
50,000 114774
Ster@@ 114769
eting 114758
producing 114747
Begründung 114736
Reit@@ 114729
GB 114727
PS@@ 114727
Unterricht 114727
economist 114723
tone 114722
unknown 114709
silver 114703
schlechten 114701
grün@@ 114699
exposure 114672
ques 114660
Schumacher 114657
wen 114653
Ten 114652
Teilnehmern 114649
rebel 114647
tom@@ 114624
monitoring 114617
Senior 114615
controls 114615
dates 114606
strom 114604
Sind 114594
departure 114590
sich@@ 114581
wand@@ 114581
drohen 114579
break@@ 114573
ère 114573
fantastic 114561
Major 114527
Dav@@ 114515
hab 114511
schaden 114501
Android 114468
Landwirtschaft 114467
historical 114447
österreichische 114442
Kommunal@@ 114416
ba@@ 114388
IP 114387
Senat 114375
presidency 114368
nehme 114346
opens 114344
Reformen 114341
Sher@@ 114338
acken 114330
liefen 114317
19-@@ 114310
Clark 114308
Boot 114292
tisch 114290
tensions 114280
fatal 114276
BI@@ 114246
packed 114236
Camp@@ 114228
issen 114219
Phoenix 114208
Gut@@ 114176
Brad 114174
10.000 114171
beenden 114161
teurer 114133
Flächen 114132
uncertainty 114118
Schicksal 114111
deutsch@@ 114103
wohnt 114078
abandoned 114077
documentary 114070
ty@@ 114065
seventh 114059
26.@@ 114053
relative 114050
resulted 114049
Umzug 114047
kündigt 114047
Project 114038
Dreh@@ 114034
Schei@@ 114029
AZ 114028
ial 114012
Österreichs 113969
euch 113966
blickt 113958
iter 113956
sparked 113921
vormittag 113918
ler-@@ 113914
Bürgermeisterin 113913
Fra@@ 113912
tragedy 113894
prosecution 113886
Leidenschaft 113878
schnellen 113878
gestohlen 113877
shed 113865
tierten 113864
keits@@ 113849
Mes@@ 113845
Angehörigen 113836
distribution 113828
mood 113826
vern@@ 113816
fir@@ 113765
Kandidat 113762
keinem 113745
revolution 113742
ried 113728
commander 113718
boom 113713
Bruno 113707
travelling 113706
Shar@@ 113683
Tipps 113683
rid 113672
bew@@ 113642
Modelle 113641
Price 113635
Prinzip 113610
Chef@@ 113603
brand@@ 113567
path@@ 113528
Chairman 113515
Collins 113513
mentioned 113505
thoughts 113496
Untersuchungen 113465
theory 113464
Mischung 113448
pet 113441
Egyptian 113432
electronic 113412
allzu 113405
geworfen 113384
broader 113379
ogra@@ 113375
27.@@ 113368
Nachrichten@@ 113368
funny 113356
ize 113342
Wand 113332
Problemen 113312
Nelson 113305
kamp 113299
Lieder 113287
specialist 113241
Blatt 113240
directors 113235
fung 113219
striking 113218
verfolgen 113217
consistent 113207
selected 113198
Nase 113164
Pope 113153
spr@@ 113140
Lena 113133
exports 113108
angewiesen 113094
gelegen 113091
Software 113086
aufgefordert 113063
earthquake 113059
erlitt 113046
Duke 113005
Camp 112999
sueddeutsche.de 112998
kostenlos 112992
Sou@@ 112991
bestens 112980
breaks 112960
psych@@ 112940
val 112936
Smartphone 112935
eighth 112933
gerettet 112906
übrig 112904
Everyone 112897
bun@@ 112858
contain 112854
treibt 112830
Positionen 112822
tsp@@ 112822
Kamer@@ 112819
couples 112817
serves 112807
visits 112775
Law@@ 112764
Milan 112763
ix 112761
Herausforderungen 112740
erschienen 112722
US-Dollar 112714
kunft 112711
Net@@ 112701
Rente 112691
Bühnen@@ 112673
rät 112672
arbeiter 112671
ermöglicht 112665
Betrieb@@ 112652
babies 112618
nominee 112618
Tennis@@ 112617
Ganze 112610
nochmals 112590
Ursula 112560
convinced 112558
plate 112551
tin@@ 112544
positiven 112516
retailers 112498
erfolgreiche 112493
Züge 112468
recall 112466
forcing 112465
vorhanden 112460
employers 112450
successfully 112445
Konto 112430
Silber@@ 112410
UR@@ 112391
Baghdad 112389
konferenz 112387
Chi@@ 112373
capture 112358
drawing 112328
bail 112297
bere@@ 112297
scheinen 112296
Feu@@ 112286
remarkable 112273
favor 112272
anzen 112260
Officer 112230
handelte 112223
katholischen 112213
Bam@@ 112159
fet@@ 112140
verletzten 112128
äm@@ 112119
monthly 112114
string 112112
Green@@ 112095
kicked 112086
complained 112085
ec 112078
Kit@@ 112063
celebrity 112049
Anerkennung 112040
Bezug 112040
Kontakte 112039
zweiter 112035
dat@@ 112007
Right 112004
unabhängig 112002
Beste 112001
Zweit@@ 111988
Jes@@ 111983
hundred 111961
fake 111928
Voraussetzungen 111919
ausschusses 111910
Hob@@ 111904
Beweis 111896
I. 111888
campaigns 111877
stic 111871
Miliband 111850
entweder 111842
pos@@ 111839
Indeed 111807
Giants 111799
Passagiere 111790
obtained 111782
Angriffe 111778
gige 111768
süd@@ 111768
Rent@@ 111759
stoßen 111751
karten 111743
Weiter@@ 111739
bilder 111726
landed 111717
activist 111716
Turner 111712
Franken@@ 111691
Fa@@ 111675
Gun@@ 111660
zte 111659
Mich@@ 111643
radical 111624
Mann@@ 111616
überlegen 111599
lo 111583
our@@ 111579
spitze 111566
14,@@ 111536
Without 111513
ordinary 111513
atives 111504
Sonn@@ 111463
bereitschaft 111457
dent 111410
enormous 111408
ji 111407
Turnier@@ 111383
0,000 111382
mun@@ 111381
wonach 111353
wechselt 111343
1986 111342
Funktion 111342
Auszeichnung 111332
Gründer 111300
wiesen 111294
sig 111291
Tabelle 111278
Steuer 111252
blocks 111250
Kasse 111237
cal 111232
Polizeisprecher 111225
stoppen 111208
rarely 111182
mph 111173
Port@@ 111171
appe 111158
metres 111156
Arm 111149
cleared 111142
nobody 111141
Sozialdemokraten 111136
Vereinigten 111136
statt@@ 111132
gewisse 111130
affair 111121
salary 111119
Gur@@ 111117
Be 111110
crashed 111105
räumte 111102
ersetzt 111087
zuge@@ 111087
vielmehr 111079
1860 111078
upcoming 111075
Konzern@@ 111073
Verletzte 111072
nutzte 111071
complicated 111068
halb@@ 111067
Niederlagen 111039
Ersten 111021
28.@@ 111001
Finanzkrise 110998
Dritt@@ 110997
premiere 110934
typical 110911
harmon@@ 110891
alized 110879
fähigkeit 110878
17,@@ 110867
yen 110837
dienen 110828
Franzosen 110808
stad@@ 110808
uter 110788
lieben 110784
fers 110783
Indiana 110781
Tickets 110780
Hinspiel 110779
congressional 110778
Vladimir 110766
Messi 110752
meanwhile 110748
surprising 110747
jüngste 110709
übergeben 110695
iss 110692
deutliche 110689
ON@@ 110678
shadow 110638
encouraging 110629
Edwards 110622
Singapore 110614
lokal 110611
Jay 110581
Distanz 110575
leute 110566
Berlins 110562
thank 110544
wach@@ 110544
Termin@@ 110535
harte 110520
specifically 110516
Rum@@ 110509
Mut@@ 110506
concept 110506
bö@@ 110483
Braun 110479
Given 110446
gg@@ 110427
Welsh 110425
fixed 110418
Fran@@ 110417
bud@@ 110402
prof@@ 110398
unden 110398
Take 110391
spra@@ 110358
ef 110354
AU@@ 110336
ausgesetzt 110334
gig 110333
Hart@@ 110332
sustained 110322
ly@@ 110316
yellow 110316
fördern 110308
intensive 110304
flan@@ 110301
meter 110293
folgten 110287
bereit@@ 110283
Kä@@ 110277
Pflanzen 110247
Jahrzehnte 110238
kräften 110221
engineering 110208
entlassen 110204
Chancellor 110189
representative 110165
ancient 110119
verz@@ 110113
losigkeit 110103
MS 110091
Eg@@ 110085
attacking 110085
papers 110085
Renten@@ 110081
werks 110064
liked 110060
Stat@@ 110057
rely 110052
blu@@ 110049
bleibe 110027
Vorstellungen 110012
aming 109995
fahrerin 109992
hofen 109989
warming 109960
konkrete 109957
T-@@ 109942
Knapp 109906
zuständige 109901
Messer 109890
kreisen 109866
erfolgen 109865
asse@@ 109858
Dokumenten 109852
recommended 109847
Kie@@ 109843
ethnic 109840
Pass 109838
childhood 109824
Manchmal 109813
Lag@@ 109808
gefasst 109804
Piloten 109797
mus 109795
Stone 109787
sorry 109775
inner@@ 109771
überwiegend 109764
fruit 109762
ester@@ 109759
1970s 109752
Höchst@@ 109752
expecting 109737
Miet@@ 109730
flu 109727
bester 109723
criticized 109723
Ebenso 109716
pages 109716
Maschinen 109710
Utah 109710
loses 109709
Dominik 109703
zäh@@ 109690
moderate 109670
ening 109651
ater@@ 109636
explo@@ 109625
Bür@@ 109624
lending 109615
Erhöhung 109588
fü@@ 109581
aker 109561
Trainer@@ 109547
Provinz 109539
ausen 109504
umstrittenen 109489
motor 109485
Verkaufs@@ 109471
theme 109464
ner-@@ 109457
mittag 109448
Bie@@ 109446
birds 109428
Glo@@ 109425
erforderlich 109423
gelangen 109421
sang 109416
Bedenken 109410
verl@@ 109388
tracks 109386
Bast@@ 109380
som@@ 109378
stet 109373
einsetzen 109372
Division 109363
Rav@@ 109363
pen 109355
versteht 109344
branche 109328
Falls 109300
manner 109287
Arbeitsmarkt 109265
asylum 109264
Flugzeug 109260
deadline 109239
Können 109225
Wladimir 109215
tis 109208
ordentlich 109202
fäl@@ 109192
checks 109182
20,000 109158
champions 109154
Lohn@@ 109141
Dutzend 109138
Sudan 109128
festen 109121
Community 109117
Siege 109100
Rückgang 109093
icht 109065
rischen 109061
bewegung 109059
Ap@@ 109036
iness 109035
clothing 109033
Final@@ 109026
Infos 109021
Seiten@@ 109018
-Zeitung 109012
willkommen 109008
Analyse 108985
ham@@ 108980
Flo@@ 108978
ables 108975
AD 108933
traditionellen 108925
roof 108918
13,@@ 108911
reißen 108902
hire 108878
HC 108871
Mode@@ 108855
kid 108852
bund 108817
alia 108811
oms 108799
Pir@@ 108792
Denver 108789
photographs 108784
ßer 108777
vermutet 108774
TE@@ 108754
führenden 108743
griechische 108707
.org 108688
geschossen 108664
Geheim@@ 108662
Diesen 108646
Diskussionen 108620
elderly 108616
steiner 108614
Parker 108611
bayerische 108603
künftige 108598
category 108590
organis@@ 108588
witz 108577
familie 108576
Aufbau 108571
Over@@ 108515
mo 108511
treiben 108488
Arbeiter 108465
medicine 108463
Adams 108459
pose 108450
Moderator 108448
discovery 108442
year-old 108438
Pokal 108435
Ausdruck 108431
Schlüssel@@ 108419
Band@@ 108412
heart@@ 108409
replacement 108409
moderne 108408
Dialog 108407
lacht 108395
stücke 108394
kreis@@ 108367
midfielder 108352
zahl@@ 108351
Einsatzkräfte 108346
syn@@ 108332
21@@ 108321
Eing@@ 108317
fighter 108299
gewinn 108292
genes 108290
readers 108277
Regie 108268
pledged 108247
sat@@ 108205
SNP 108202
ausstellung 108200
stürzte 108197
verstanden 108177
Fahrzeug@@ 108168
Formel 108157
rup@@ 108146
Sä@@ 108129
rot 108121
prü@@ 108116
communication 108104
derweil 108101
Quer@@ 108087
erfasst 108087
Trio 108080
wendet 108070
criticised 108066
15,@@ 108046
Netanyahu 108037
Baltimore 108033
Wood 108027
law@@ 108026
Hallen@@ 108008
eingesch@@ 108006
enne 107999
drinks 107996
neten 107992
etliche 107989
classes 107965
pay@@ 107963
boards 107961
ware 107954
tiere 107946
dit 107944
klinik 107921
collapsed 107916
VI@@ 107913
platz@@ 107894
Verfassung 107893
Live-@@ 107890
Wolf@@ 107890
Wissenschaft 107880
herum@@ 107875
Geburt 107847
strah@@ 107843
stiegen 107842
Chil@@ 107821
Ky@@ 107776
vin@@ 107773
collected 107771
enge 107733
schwierigen 107723
hre 107722
1945 107719
desto 107717
Wieder 107707
löst 107681
afraid 107666
Kreisliga 107654
Siegen 107612
Nat@@ 107601
Spenden@@ 107596
breit@@ 107592
streit 107580
immer@@ 107569
Switzerland 107568
veterans 107565
Biden 107556
appointment 107555
Ausnahme 107548
stimmung 107548
gathering 107527
Airbus 107514
stimmte 107504
Magdeburg 107496
Lösungen 107490
oul@@ 107474
bauten 107472
kung 107462
falsche 107429
Sav@@ 107408
reagierte 107399
Beis@@ 107373
Raum@@ 107365
legacy 107359
franchise 107355
geleitet 107336
wick 107336
brilliant 107281
musikalische 107278
weshalb 107268
Ton 107256
gefolgt 107254
answers 107246
Douglas 107241
kultur 107239
depression 107229
volume 107222
recover 107217
engen 107216
Autoren 107206
coup 107202
oral 107191
avo@@ 107176
produziert 107175
welches 107166
ader 107155
ost@@ 107153
29.@@ 107150
Drogen 107150
Australians 107145
Fahrrad 107135
not@@ 107102
versuche 107100
Regime 107097
mul@@ 107097
chat 107069
marijuana 107065
Roy 107062
ple@@ 107056
rede 107048
ranks 107029
shoes 107015
ô@@ 106989
automatisch 106986
händler 106978
barer 106973
dium 106943
ishing 106899
Ordnungs@@ 106890
Tiger 106879
1984 106873
Following 106824
Grant 106806
• 106801
Tests 106796
PRNewswire 106776
ziert 106775
uts 106724
sei@@ 106714
Belgien 106712
vin 106699
wettbewerb 106688
Morgenpost 106684
ological 106668
bedingungen 106665
hob 106661
wahl@@ 106650
Olympia-@@ 106643
zurückzu@@ 106642
bes 106639
diskutieren 106636
Mieter 106586
Liber@@ 106584
Berater 106579
italienische 106579
rolle 106529
stieß 106515
Vorgaben 106498
sprung 106483
Hou@@ 106460
elements 106458
tan 106438
Model 106437
IN 106433
Cel@@ 106422
viewed 106409
describe 106400
Sing@@ 106390
cas@@ 106380
Ihren 106360
geladen 106348
zweit@@ 106339
entscheidend 106328
alliance 106301
Alaska 106284
correct 106280
Tabellenführer 106267
terer 106265
natur@@ 106259
Luis 106258
but@@ 106241
Emma 106231
stehende 106226
wealthy 106210
betreibt 106202
gewohnt 106200
household 106198
Jochen 106191
bed@@ 106189
Vie@@ 106179
kleinere 106179
landing 106174
Dal@@ 106152
niemals 106150
emails 106146
Verbrechen 106141
OS 106123
reference 106112
Macht@@ 106093
Timo 106079
Klassenerhalt 106074
mak@@ 106074
wuchs 106061
ausgel@@ 106056
Tourismus 106021
eri@@ 106019
Änderungen 106017
gewannen 106009
cop@@ 106004
Bochum 105992
Orleans 105980
Meh@@ 105978
räum@@ 105965
nte 105961
Py@@ 105956
fairly 105946
anda 105930
sieger 105915
Reid 105904
verletzung 105901
57@@ 105854
exp@@ 105846
Gei@@ 105835
Johann@@ 105834
defended 105834
divided 105788
settle 105788
Kleidung 105767
Kommunikation 105763
Österreich@@ 105751
Feier 105741
load 105739
Which 105715
richter 105712
covering 105688
Zweite 105687
wn 105684
Gerichts@@ 105681
nar@@ 105669
advised 105657
berge 105656
iled 105654
glichen 105642
exist 105627
rische 105608
mutmaßlichen 105580
C.@@ 105569
Für@@ 105557
port@@ 105533
Cour@@ 105529
wiederholt 105523
sing@@ 105491
wohnen 105488
Cli@@ 105474
Bundesrepublik 105425
consumption 105389
throwing 105388
Scher@@ 105364
switch 105364
decken 105350
zuversichtlich 105349
rapidly 105348
Lawrence 105334
Rettung 105330
ellen@@ 105319
sitz@@ 105319
error 105309
Katharina 105305
bone 105304
Migranten 105296
nacht 105288
eurozone 105267
anen 105265
erb@@ 105262
quit 105261
Susan 105227
Umfragen 105224
Commons 105223
klassischen 105223
maschine 105219
guess 105209
zy 105199
extensive 105195
Sometimes 105193
quarterback 105191
Zumindest 105188
Lakers 105186
leistungen 105172
ici@@ 105169
ian@@ 105159
update 105157
Rudolf 105151
targeting 105127
TO@@ 105114
raft 105114
teaching 105113
Vielfalt 105112
satellite 105101
Nazis 105100
praised 105096
Waren 105085
begrüßt 105081
outlook 105073
ail 105063
Organisatoren 105055
aches 105049
erhöhte 105047
klang 105039
Ministerpräsidenten 105038
Soviet 105030
stroke 105027
behauptet 105025
Fast@@ 105024
opponent 105012
Hills 105010
shaus 105006
latter 104995
Bauern@@ 104987
acted 104977
Tarif@@ 104976
Westminster 104954
Redaktion 104950
orten 104944
Brenn@@ 104936
Stuart 104908
Wisconsin 104907
kun@@ 104895
Murphy 104891
Karl-Heinz 104870
blast 104862
Leicester 104854
breit 104839
comprehensive 104831
carefully 104827
alisation 104820
Sturz 104818
änder 104811
Sho@@ 104805
Andre 104800
Pop 104796
Ensemble 104789
MS@@ 104788
Sachsen-Anhalt 104779
Bielefeld 104751
Rosberg 104741
Taiwan 104740
efficient 104740
33@@ 104732
BO@@ 104724
fed 104715
Dagegen 104714
ry@@ 104685
vorgenommen 104683
Statistik 104678
Hunt 104664
gelöst 104663
eling 104656
Fazit 104649
Stücke 104632
SOURCE 104629
scharf 104627
guidance 104605
Bureau 104595
beauftragte 104594
umb@@ 104580
Vormittag 104575
damalige 104565
Reisen 104562
demanded 104562
geehrt 104554
Rekord 104539
promising 104537
iron 104535
spannend 104533
stimm@@ 104520
bereiten 104507
Leon 104505
Mexiko 104505
Planungs@@ 104475
Potenzial 104474
sou@@ 104460
counter@@ 104440
routine 104439
alarm 104435
tere 104421
ownership 104410
Get 104407
Mauer 104387
regen 104383
seit@@ 104381
reveals 104368
Olympia 104363
maier 104354
sit@@ 104336
morgens 104330
cream 104329
wie@@ 104328
Ev@@ 104326
Stö@@ 104324
Pfle@@ 104321
gross 104319
olle@@ 104310
requests 104304
ali 104295
Traum@@ 104292
grenzen 104291
Bundespräsident 104284
exc@@ 104265
fache 104260
billions 104259
1987 104248
Seitdem 104236
graben 104235
Kreist@@ 104232
Pilot 104218
Kunden@@ 104209
parallel 104203
Latin 104186
Haben 104178
Lucas 104169
sichtbar 104156
Auskunft 104154
honor 104138
klassen 104133
Chaos 104121
Hughes 104120
weekly 104119
ells 104106
Programm@@ 104072
hersteller 104071
verhandelt 104068
register 104057
boyfriend 104052
fla@@ 104047
Martin@@ 104044
Kuchen 104037
Schlaf@@ 104027
messen 104023
ungsh@@ 104019
it-@@ 104015
acquisition 104001
Katastrophe 104000
hn@@ 103996
approached 103992
guarantee 103990
dienste 103978
Kassel 103961
ktive 103960
teuren 103950
Rand 103933
nisse 103913
verzichtet 103911
detention 103898
vorzu@@ 103876
Express 103853
feier@@ 103846
Well@@ 103831
Geschwindigkeit 103830
principal 103828
rö@@ 103808
siehe 103793
Schatten 103773
derten 103764
Begeisterung 103743
interessant 103743
reasonable 103740
Aufwand 103735
Edel@@ 103722
Cann@@ 103719
Palestinians 103716
Pressemitteilung 103712
setzung 103712
Oxford 103688
coaches 103688
Sieg@@ 103668
Medienberichten 103646
geholfen 103640
fied 103637
innovative 103635
hinein 103632
cooperation 103626
nationwide 103615
breiten 103603
attractive 103600
rant 103592
T. 103591
fließen 103589
ähnliche 103579
heben 103567
abkommen 103564
rep@@ 103555
funeral 103548
recognition 103541
monitor 103538
junior 103537
zün@@ 103524
BE@@ 103523
klein@@ 103521
Auflage 103477
gebraucht 103449
bestätigen 103444
Zi@@ 103436
Verträge 103434
Bewerber 103428
Erinnerungen 103427
park@@ 103425
Terror 103385
primarily 103382
Schu@@ 103378
orf 103366
providers 103335
attract 103334
Freistoß 103328
jüngst 103318
Rauch@@ 103315
Lösch@@ 103288
chern 103275
Chile 103270
Politik@@ 103265
Millionen@@ 103262
bab@@ 103255
Gerd 103242
Co-@@ 103239
dd@@ 103200
Früher 103194
engage 103189
demnächst 103177
entscheidende 103156
authors 103134
contacted 103129
Versammlung 103112
thus 103101
SW@@ 103059
1979 103051
Berlin-@@ 103042
nel 103041
trillion 103039
L.A. 103037
choices 103029
Marktplatz 103023
Ten@@ 102992
daughters 102990
grüne 102990
berg-@@ 102989
yl 102988
Termine 102983
Anton@@ 102979
lon@@ 102979
unprecedented 102979
zero 102976
Pittsburgh 102962
markt@@ 102962
stunde 102955
ligist 102945
Sant@@ 102930
membership 102907
Ken 102904
Eu@@ 102900
verändern 102881
begrüßte 102845
56@@ 102840
ergab 102819
lady 102815
handel 102809
Ankara 102805
towns 102797
eligible 102761
Cast@@ 102756
Solche 102743
gebürtige 102730
beinahe 102729
träger 102727
Barry 102719
zuständigen 102714
Eurozone 102707
Schnell@@ 102698
securities 102697
bares 102692
Aachen 102688
Trennung 102678
boot 102671
Arbeitnehmer 102666
Leh@@ 102665
bli@@ 102659
steigern 102649
militant 102643
kurzem 102622
testimony 102618
Terroristen 102614
rocket 102613
vorgelegt 102611
waves 102606
umm@@ 102585
Moo@@ 102582
Ron 102581
dischen 102553
fires 102538
Castro 102524
famili@@ 102519
wünsche 102501
Kiew 102490
Figuren 102482
Neustadt 102481
Tit@@ 102444
Adrian 102429
DC 102425
Nachwuch@@ 102407
Fuchs 102395
steel 102391
schoss 102376
bay@@ 102370
GDP 102360
Medizin@@ 102351
Stationen 102313
Fan 102283
loaded 102269
Poland 102259
Oil 102254
Som@@ 102252
100-@@ 102247
leidet 102246
minim@@ 102240
ausgabe 102216
ener@@ 102208
abschluss 102203
sechsten 102189
gefangen 102181
geleistet 102174
Ring@@ 102165
mand@@ 102140
Graz 102127
crazy 102114
abgegeben 102111
streak 102109
foundation 102098
admits 102096
Maj@@ 102095
nerin 102091
democratic 102090
bestehenden 102077
handful 102048
anim@@ 102038
lad@@ 102038
wein 102038
Kontroll@@ 102014
Orange 102014
wenigstens 102010
führ@@ 102004
mothers 101982
informierte 101971
och 101970
tic@@ 101970
TA 101959
itt 101959
aims 101945
Senior@@ 101941
fern@@ 101938
Jazz 101934
Denk@@ 101933
Mik@@ 101933
Zweck 101927
vs. 101925
lik@@ 101921
nation@@ 101920
jan 101912
errichtet 101904
verdict 101888
ffe 101885
Cou@@ 101878
Wulff 101841
conviction 101829
Göttingen 101803
upper 101802
liefert 101795
grat@@ 101787
angesprochen 101708
Inc. 101703
hinterher 101674
Libyen 101666
hell 101662
geräte 101661
eres 101653
Sieben@@ 101651
mistakes 101650
Lebensmittel 101638
Dres@@ 101612
modest 101587
delays 101586
Sky@@ 101583
stru@@ 101572
icke 101568
Nau@@ 101565
mer-@@ 101563
Links@@ 101558
freund@@ 101556
Aut@@ 101554
Whether 101539
keiten 101530
occasion 101516
betrachtet 101514
Hoffmann 101504
BS@@ 101498
nam@@ 101494
universities 101460
Nichts 101458
eim 101457
wirkte 101446
Bach@@ 101428
Jr 101425
veröffentlichten 101412
mitt@@ 101408
Rafael 101406
Get@@ 101401
en- 101400
forschung 101393
Berichte 101375
entr@@ 101370
Frau@@ 101368
trials 101358
Fairfax 101332
chan@@ 101330
zig@@ 101328
Boss 101321
besitzt 101313
ood 101309
Part 101306
awareness 101284
übrigen 101277
frem@@ 101273
expanded 101271
fein@@ 101251
Zusammen 101247
dere 101245
fanta@@ 101239
igkeiten 101237
pursue 101237
ückt 101237
Hinter 101236
Hawaii 101233
bte 101230
provider 101210
Facebook-@@ 101190
cru@@ 101180
Kriminal@@ 101177
covers 101177
X-@@ 101168
Standards 101164
450 101163
Mitt 101157
Vit@@ 101155
sagten 101148
Civil 101138
Play@@ 101132
academic 101103
chinesische 101103
Kub@@ 101102
Jahresende 101093
stän@@ 101092
aver@@ 101090
pressed 101084
fare 101066
Les 101065
verursacht 101046
religion 101043
Wilhelm@@ 101038
favor@@ 101032
ballot 101022
Mubarak 101018
Fraktions@@ 100998
chner 100944
weiße 100940
perspective 100931
pipeline 100930
DFB 100925
etz 100924
Gates 100918
Hunde 100915
lob@@ 100899
fitness 100878
Lager@@ 100867
Volley@@ 100866
Kaum 100862
Autobahn@@ 100860
gefähr@@ 100858
Lüb@@ 100848
Masters 100834
mte 100825
humanitarian 100816
wages 100816
stätten 100797
ausger@@ 100768
somewhere 100760
Karin 100754
Point 100750
Sehr 100749
einst@@ 100741
Taten 100733
stufe 100732
Hän@@ 100721
Fraktionschef 100704
öfter 100700
ited 100686
Diana 100683
fortgesetzt 100683
rolled 100681
computers 100676
Sowohl 100674
representatives 100673
kti@@ 100665
musik@@ 100662
› 100648
odds 100647
Wiese 100635
anybody 100613
esse 100609
celebrated 100602
financing 100602
Nato 100599
langfristig 100596
Rodriguez 100581
echten 100572
Tourismus@@ 100569
fire@@ 100567
Dou@@ 100564
Leider 100564
hidden 100541
Girl 100534
linke 100512
rad@@ 100508
SO@@ 100493
zig 100491
dir 100467
somewhat 100465
ritt 100455
eingeführt 100444
tears 100442
verkehrs@@ 100408
Vordergrund 100404
tenen 100388
16,@@ 100387
anische 100380
Rome 100369
dying 100358
zusätzlichen 100353
Beratung 100343
lic 100343
auto@@ 100341
prospects 100335
ester 100328
englischen 100305
abends 100296
jähriges 100291
kenn@@ 100291
belastet 100272
Wert@@ 100237
Dör@@ 100231
Schleswig-Holstein 100226
sper@@ 100225
optimistisch 100209
starben 100208
Beratungs@@ 100193
Kenn@@ 100193
näh@@ 100186
Fonds 100176
Kabul 100176
recording 100164
dienstes 100153
kommen@@ 100147
valuable 100147
eff@@ 100128
Papiere 100121
Verluste 100110
Patri@@ 100088
refugee 100086
erscheinen 100080
berater 100056
kauf@@ 100054
Salzburger 100028
Stol@@ 100003
arti@@ 99997
Guido 99993
isieren 99992
bü@@ 99946
vie@@ 99925
searching 99913
attitude 99904
4000 99896
ziel 99887
frame 99886
rounds 99884
traten 99883
output 99879
Ehemann 99860
geäußert 99842
respectively 99834
Bell@@ 99811
ury 99804
aya 99799
ktions@@ 99798
Somalia 99794
Metall@@ 99791
Bevor 99783
Büro@@ 99768
ös 99740
guards 99729
gefahr 99723
io@@ 99704
miss@@ 99702
riding 99702
Tätigkeit 99677
attempting 99677
label 99670
risen 99668
wechselte 99668
aden@@ 99652
PR 99650
Defensive 99645
Weiter 99639
í@@ 99639
tei@@ 99626
freu@@ 99615
nummer 99584
motiv@@ 99583
chaos 99579
Tories 99574
ORE 99566
klagen 99546
rig 99536
resolve 99521
Neum@@ 99514
everywhere 99510
hunt 99505
Einkommen 99485
59@@ 99476
Hitler 99470
nik 99463
gy 99461
wirtschaftlich 99449
Pie@@ 99423
Ve@@ 99397
mbach 99367
economies 99350
Fleisch 99339
Marathon 99335
Kentucky 99325
mail 99316
stadt@@ 99315
ires 99310
Generalsekretär 99281
strange 99276
fron@@ 99259
landen 99259
bla@@ 99249
bild@@ 99242
schung 99229
Haut 99227
Acht 99225
pays 99214
Organisationen 99201
Dat@@ 99200
odd 99191
2.5 99178
anticipated 99174
forward-looking 99170
Öl 99154
ual 99138
essentially 99134
Simpson 99133
Staat@@ 99116
Deswegen 99108
öck@@ 99105
politician 99101
suchte 99085
Stevens 99083
of-@@ 99078
modell 99066
Stan@@ 99065
rolling 99063
Handel@@ 99055
plätzen 99055
firing 99045
geflogen 99045
generated 99027
ühr@@ 99027
Tö@@ 99002
Nordkorea 98982
Cardiff 98964
schalten 98963
taught 98962
tool 98962
flat@@ 98956
Internationale 98927
barrel 98908
ppt 98908
Up@@ 98906
generate 98899
permission 98898
Analysten 98880
ills 98835
medal 98825
gend@@ 98821
trick 98814
be-@@ 98786
mobil@@ 98780
Carsten 98771
politischer 98765
Kombination 98756
Rugby 98744
heits@@ 98739
lang@@ 98732
speaks 98715
konzentriert 98702
insists 98699
Schlos@@ 98690
express 98687
wesen 98685
Strich 98680
Würzburg 98667
Stellvertreter 98665
Handball-@@ 98655
bankruptcy 98655
e-mail 98612
Vf@@ 98590
Orten 98586
Huber 98581
Fort 98573
Sieben 98572
künfte 98572
describes 98565
tausend 98551
verbands 98547
Zehn@@ 98545
manip@@ 98545
Hahn 98535
STANDARD 98516
Einstellung 98508
Engel@@ 98508
troubled 98505
locken 98488
Hohen@@ 98475
1985 98473
sportlichen 98467
löste 98464
erschossen 98461
acquired 98452
mum 98435
befürchtet 98428
Story 98419
Gomez 98416
Jänner 98413
Det@@ 98406
Belastung 98398
Hann@@ 98394
gab@@ 98392
rückt 98391
harten 98389
langjährige 98388
Plätzen 98368
Wahlkampf@@ 98350
verweist 98344
üblich 98343
Flor@@ 98340
G. 98316
gebiete 98305
Bauarbeiten 98290
Körperverletzung 98275
angesch@@ 98241
Oregon 98235
ator@@ 98187
konzentrieren 98167
feierten 98161
constant 98156
Produktions@@ 98153
drückt 98137
Langen@@ 98133
Steinbrück 98122
entwickelte 98118
analy@@ 98112
keeper 98108
venue 98107
CD 98102
arguing 98099
Bauern 98091
Kim@@ 98090
gigen 98070
nutzt 98062
Bett 98031
oring 98020
ungser@@ 98016
Toni 98013
Nov@@ 98011
Seven 98008
disappointing 98005
Histor@@ 98003
23-@@ 97998
· 97997
addressed 97992
einstellen 97986
mod@@ 97982
atz 97955
Amy 97951
suspension 97951
counter 97949
enorm 97941
hi 97937
xes 97921
sag@@ 97908
unveiled 97908
LL@@ 97894
burning 97891
Ähnlich 97891
Geträn@@ 97889
Austausch 97888
Schil@@ 97887
contribution 97874
stunning 97863
kämpfe 97862
Christina 97858
bold 97855
Zahn@@ 97853
Planungen 97849
Umsatz@@ 97846
Capitol 97837
Truppen 97831
Einsätze 97797
170 97794
attracted 97782
kette 97782
Economic 97780
versuch 97779
könig@@ 97761
oni 97723
ausgestattet 97713
mitgeteilt 97711
wes@@ 97710
bedeuten 97702
Saf@@ 97692
TT@@ 97687
Viertel@@ 97683
steady 97683
klassi@@ 97680
diabetes 97667
Myanmar 97666
angegriffen 97658
freiheit 97658
CE@@ 97648
gran@@ 97648
ilt 97641
saniert 97639
beln 97632
Durchschnitt 97627
Rap@@ 97617
Talent 97598
äd@@ 97590
guest 97580
PE@@ 97575
Bond 97574
konz@@ 97568
inder 97565
klingen 97544
stattdessen 97530
Arbeitslosigkeit 97526
Qaeda 97506
wirbt 97506
Frankreichs 97501
4,000 97499
ite@@ 97498
asks 97496
Sech@@ 97488
tta 97476
Gewerkschaften 97475
ago@@ 97473
Erster 97456
begründet 97455
inner 97455
Pay@@ 97454
komplette 97452
procedures 97451
parade 97431
Ahmed 97414
alert 97407
centers 97402
landscape 97391
Äußerungen 97388
Gam@@ 97378
zel 97374
Archiv 97364
affordable 97319
bitten 97312
af 97310
tter@@ 97295
personally 97292
stimulus 97292
supports 97282
sized 97278
useful 97276
quer 97257
fügt 97250
Büch@@ 97238
borough 97213
rell 97204
Fünf@@ 97191
kan 97179
Book 97177
genen 97177
Martina 97175
Paderborn 97160
Sparkasse 97159
volunteers 97150
jets 97147
Spieler@@ 97140
technologies 97138
Herrmann 97137
b-@@ 97117
dropping 97100
fang 97065
Staff@@ 97059
umso 97046
Spanier 97028
binnen 97027
stressed 97018
tourism 97012
Müll@@ 97010
Ted 97009
Fei@@ 96994
Orchester 96975
Netflix 96964
Kleinen 96961
Armstrong 96959
Brazilian 96959
Schie@@ 96949
Vorteile 96946
duo 96946
ela 96945
ungsplan 96930
skir@@ 96923
FPÖ 96922
Sän@@ 96916
VA 96893
Altstadt 96888
cle@@ 96882
windows 96879
Endspiel 96868
ols 96856
Neu 96854
Jam@@ 96836
Udo 96832
Haare 96831
üssen 96819
downtown 96813
resigned 96796
ums@@ 96792
lass 96789
deutlichen 96784
Ronald 96780
Keith 96777
Barclays 96761
il-@@ 96756
RTL 96742
aturen 96739
litz 96730
Studien 96723
tale 96712
eb 96709
1982 96690
Schwerpunkt 96671
zehn@@ 96657
Reich 96654
competing 96649
icker 96632
fying 96624
Fasch@@ 96609
camps 96608
LG 96589
IWF 96575
aire 96572
boden 96571
popularity 96571
reduziert 96553
Fun@@ 96527
behörden 96526
rab@@ 96512
verteidigen 96489
breite 96486
Schauspiel@@ 96473
Austin 96459
welle 96437
pending 96431
mischen 96428
ep 96406
raten 96402
Hav@@ 96398
las 96393
örtlichen 96391
bemüht 96390
bergs 96373
Branchen@@ 96366
Wende 96363
Entwicklungs@@ 96345
aj@@ 96342
Wars 96326
rechtliche 96317
zeichnete 96289
65@@ 96275
participate 96255
missions 96253
leistungs@@ 96250
Wein 96249
inches 96245
Szenen 96240
vermitteln 96236
wise 96222
30.@@ 96215
gefördert 96206
steuer@@ 96186
springen 96182
trainieren 96170
Voraussetzung 96153
constitutional 96152
woche 96144
voraus 96110
incredibly 96109
Oper 96100
alls 96100
Schließung 96084
Anliegen 96081
Unglück 96066
Radi@@ 96062
Wis@@ 96049
Prognose 96044
falschen 96029
gehörten 96028
125 96022
ente@@ 96020
accusations 96010
unterricht 96006
Palin 95991
ativen 95982
getrennt 95981
heftig 95981
ologischen 95978
auftreten 95965
Franzis@@ 95951
equally 95940
ruf 95935
Demonstration 95918
versichert 95917
Armin 95910
Harvard 95909
Fall@@ 95906
loch 95903
Teilnehmer@@ 95895
Stellung 95892
news@@ 95870
Fair@@ 95864
ologists 95863
appearances 95841
eur 95840
roman@@ 95835
Ihm 95834
Photograph 95816
gebrochen 95805
verteidigt 95802
Fein@@ 95792
vowed 95790
dahinter 95789
verbände 95776
Studio 95759
Nutz@@ 95748
Droh@@ 95743
bird 95695
earth 95694
-Sie@@ 95684
deck@@ 95671
normalen 95648
aking 95639
kauft 95623
anyway 95613
Safety 95610
racial 95608
Schwä@@ 95585
Pad@@ 95562
schüler 95551
Kollege 95550
Konferenz 95545
Parteitag 95544
Wort@@ 95531
context 95515
heimische 95514
keinerlei 95508
Kai 95506
uth 95502
closure 95499
bergen 95496
gebildet 95496
spokesperson 95487
industries 95476
knife 95465
feste 95461
absolviert 95454
memories 95439
Pic@@ 95428
Releg@@ 95426
geschätzt 95412
Blatter 95409
ined 95401
westlichen 95380
Jen@@ 95368
Mitteln 95359
liest 95355
Märkte 95343
ball-@@ 95339
Fili@@ 95336
zun@@ 95327
external 95326
Zusatz@@ 95320
trains 95314
diesjährigen 95301
Prix 95294
bestellt 95291
infection 95279
solch 95278
taxpayers 95250
hä@@ 95249
sämtliche 95218
Moritz 95213
antrag 95182
knocked 95174
Oft 95162
Tehran 95149
gle 95145
vel 95139
RI@@ 95137
Ocean 95135
tired 95125
feared 95124
DJ 95123
thei@@ 95111
Thorsten 95105
Leiche 95102
resulting 95099
Aktuell 95091
Maier 95081
kinder 95078
Inhalt 95073
vest@@ 95071
Jean 95062
wed 95055
fes 95045
gle@@ 95028
keineswegs 95022
extension 95017
größ@@ 95015
Brigitte 95014
shilfe 95014
zulegen 95009
chicken 94996
peaceful 94985
stünden 94982
buried 94977
fürchten 94977
strei@@ 94973
Abschluss@@ 94971
Streik 94960
aktive 94959
bombs 94944
Ken@@ 94934
lub 94928
tall 94926
premium 94908
Überblick 94902
Harvey 94871
station@@ 94847
mten 94833
guidelines 94831
ausgegangen 94814
alo@@ 94809
früh@@ 94806
-to-@@ 94803
Sum@@ 94803
nights 94796
erzielen 94786
Gerä@@ 94784
Schm@@ 94784
yan 94783
Tex@@ 94748
teenage 94742
flew 94740
boten 94739
Kids 94735
HS@@ 94715
walks 94711
temperature 94676
raid 94671
beweisen 94670
pädagog@@ 94668
orn@@ 94651
Amtsgericht 94649
Meier 94635
freiwillig 94633
finanzieren 94620
solches 94607
studiert 94604
Option 94599
Wood@@ 94595
Milch@@ 94574
Drama 94563
Affairs 94552
laufende 94540
trips 94536
heiß 94516
Darstellung 94509
ministeriums 94504
IG 94499
werken 94496
licherweise 94490
Ukrainian 94486
Allgemeine 94482
Commonwealth 94476
Kategorie 94475
Mun@@ 94474
reserves 94468
establishment 94429
Kammer@@ 94425
Klin@@ 94394
FS@@ 94390
Commissioner 94387
expanding 94373
ausdrücklich 94369
Tä@@ 94368
anonymity 94345
lows 94339
Kings 94330
Plastik@@ 94316
attending 94315
chens 94313
singing 94313
breakfast 94311
Lincoln 94303
spur 94303
secured 94282
Mutter@@ 94269
fie 94263
Gaddafi 94251
Tasche 94251
verstän@@ 94237
fundamental 94224
Nasdaq 94205
hierzulande 94192
Arts 94182
pregnancy 94160
Defence 94142
bühne 94133
betrug 94127
88@@ 94122
Instituts 94116
musikalischen 94103
fate 94100
Town 94086
ücken 94083
Auftritte 94068
divorce 94067
solve 94064
Organis@@ 94062
introduce 94062
sth@@ 94011
Conservatives 94008
Russlands 94008
Zivil@@ 93998
ocean 93991
Schock 93982
Cottbus 93980
aktiven 93972
evangelischen 93968
flood 93921
ions 93905
äum@@ 93905
femin@@ 93896
dreimal 93883
Entertainment 93881
Schlei@@ 93881
angemeldet 93880
maintained 93877
Konz@@ 93869
mig@@ 93867
stock@@ 93852
high-profile 93841
hur@@ 93840
Theatre 93838
Spec@@ 93824
ect 93824
iv@@ 93817
ez 93790
swimming 93786
terung 93770
Seele 93765
Nevada 93761
kraft@@ 93760
scrutiny 93751
chron@@ 93744
Private 93741
Qatar 93733
Tanz 93724
gezielt 93718
Dodgers 93704
Fron@@ 93704
discrimination 93696
fishing 93693
folgende 93670
ändert 93665
perfectly 93662
swing 93654
abgel@@ 93652
Ari@@ 93646
rang@@ 93644
Tennessee 93643
Siemens 93638
sharply 93637
Vogel 93635
leu@@ 93625
zahlungen 93619
eless 93614
erlitten 93608
Abstieg 93600
Ei@@ 93596
Gewicht 93580
Uli 93580
Holland 93579
hard@@ 93575
az 93567
österreich@@ 93556
Aktivisten 93539
Blu@@ 93513
employed 93513
Dean 93507
followers 93505
gebieten 93503
Dorn@@ 93497
Sachs 93473
meal 93466
Zins@@ 93445
dish 93443
ide 93440
protecting 93435
lined 93434
Rad 93424
Country 93423
Strecken 93423
flooding 93423
uns@@ 93423
Swedish 93416
eman 93414
richtete 93403
Birgit 93400
Terr@@ 93400
branch 93398
funktionieren 93396
durchsetzen 93385
pend@@ 93367
verrät 93367
sheet 93339
resistance 93308
Achtelfinale 93306
Deutsch@@ 93306
ktor 93286
powered 93264
Investment 93258
Einmal 93242
leitete 93240
High@@ 93239
dol@@ 93236
hren@@ 93222
Mont@@ 93211
-and-@@ 93208
HIV 93203
Ost 93203
Haas 93202
fels 93201
Kann 93199
Bayerischen 93197
Until 93197
operator 93192
Funk@@ 93180
pon@@ 93180
wert@@ 93180
lessons 93176
Wandel 93172
zeitung 93162
ila 93151
Jede 93149
enjoying 93141
Dy@@ 93131
cheaper 93126
Flug 93110
dru@@ 93110
Bag@@ 93108
sporting 93107
Burg 93105
verschwunden 93102
Bestehen 93092
hosted 93091
Daimler 93080
Tas@@ 93076
Sascha 93062
mü@@ 93059
Dortmunder 93056
Review 93049
Areal 93042
bildet 93031
Typ 93027
Freie 93011
empfiehlt 93008
Präsentation 93007
aces 93004
netz@@ 92993
Comp@@ 92986
blind 92982
shore 92975
Sophie 92972
aki 92969
spann@@ 92967
rt 92954
Briten 92948
Knie 92942
zukommen 92942
besuch 92940
Kampagne 92923
deck 92920
BP 92919
bottle 92917
soccer 92908
involve 92902
ened 92883
Ereignisse 92873
Erb@@ 92871
dien 92846
politically 92846
icken 92820
männ@@ 92809
Hur@@ 92789
pink 92785
Ach@@ 92780
Tschechien 92778
Hammer 92775
Chinas 92773
moon 92773
produktion 92766
Jedes 92761
Vertretern 92756
tha 92754
Organ@@ 92753
Finger 92751
Londoner 92742
öhn@@ 92742
gefühl 92718
storage 92716
Fir@@ 92691
gert 92683
Literatur@@ 92682
intention 92658
thor@@ 92647
Texte 92622
urt 92618
sache 92616
verantworten 92608
zweier 92603
Additional 92585
beziehen 92576
urn@@ 92556
Pon@@ 92550
Erkenntnisse 92541
Frank@@ 92536
Einbruch 92534
Adler 92517
trinken 92512
innovation 92503
läufer 92480
rückte 92471
Konstanz 92469
Hoffnungen 92464
Pom@@ 92454
.co.uk 92440
forderten 92421
rechtlich 92414
Betrag 92407
delivering 92392
Under@@ 92379
jetzigen 92379
deployed 92360
investigated 92352
Islamisten 92343
gezwungen 92332
Bak@@ 92330
Verteidigung 92327
color 92304
devastating 92301
langem 92294
Margaret 92289
Reaktionen 92285
druck@@ 92277
gerissen 92271
sexually 92263
zy@@ 92259
Lou@@ 92248
Kli@@ 92244
gewarnt 92243
rig@@ 92237
Strukturen 92225
herz@@ 92218
commit 92216
Düsseldorfer 92203
labour 92187
Zweiter 92167
lehnt 92165
smile 92164
90. 92157
fasste 92155
Zürich 92154
erungs@@ 92152
ce-@@ 92151
challenged 92135
URIE@@ 92118
Lane 92096
Feuerwehren 92087
Konzert@@ 92085
besitzer 92079
statistics 92065
wers 92057
surely 92042
passion 92029
lau 92020
vent@@ 92009
rushed 92008
sta@@ 91987
asser@@ 91979
Übersicht 91978
Lab@@ 91971
Mohamed 91971
trennen 91954
Ehepaar 91951
liegenden 91949
Militär 91948
timing 91942
chest 91940
airlines 91902
reichlich 91901
Asien 91900
oper@@ 91891
Übungs@@ 91873
abgesagt 91870
SC@@ 91849
üben 91844
beider 91829
tourist 91788
veröffentlichte 91784
füllen 91756
add@@ 91740
var@@ 91723
appeals 91714
over-@@ 91703
liebsten 91701
Hüt@@ 91696
painting 91689
unseres 91678
Institutionen 91671
Jar@@ 91671
Inhalte 91669
vs 91660
mist@@ 91658
trapped 91655
-off 91644
Coalition 91644
klin@@ 91633
Rand@@ 91630
vari@@ 91589
exclusive 91569
lifestyle 91567
ls@@ 91562
mö@@ 91559
Recht@@ 91554
int 91552
lists 91549
Eines 91542
Zahlreiche 91542
Lern@@ 91532
Down 91527
Geschehen 91527
Nas@@ 91524
Schi@@ 91521
5.000 91511
Pierre 91507
gespräch 91502
lebte 91492
studied 91491
Graf 91488
bonus 91483
leich@@ 91469
Banken@@ 91468
zeitweise 91458
geeignet 91454
et-@@ 91450
Vorstand@@ 91448
ee@@ 91439
rebounds 91434
anteil 91418
same-sex 91397
Modell@@ 91393
Davies 91386
Hunde@@ 91377
Lastwagen 91375
thro@@ 91371
Wiesbadener 91367
Kilo 91366
unterschiedlich 91366
defined 91344
Wehr 91327
BB@@ 91322
chefs 91317
Billy 91302
Diesmal 91298
Fashion 91292
Bud@@ 91276
Sheriff 91264
arrests 91236
proven 91214
Hül@@ 91192
suspicion 91188
Republikaner 91187
Jean-@@ 91186
sty 91178
1983 91177
30,000 91169
Rooney 91146
ultimate 91145
verbreitet 91145
roo@@ 91134
manufacturers 91132
gangs@@ 91105
ausgeb@@ 91086
sits 91085
warnings 91080
hergestellt 91067
Wells 91064
itation 91034
Tem@@ 91032
Gedenk@@ 91031
atur 91029
dau@@ 91009
Ander@@ 91005
contains 91000
p-@@ 90994
CC 90985
Favorit 90985
bn@@ 90984
conspiracy 90984
bringung 90973
Glücks@@ 90961
Bran@@ 90959
Nacht@@ 90952
nervous 90945
Old@@ 90938
deny 90936
ital@@ 90929
Sigmar 90925
bundes@@ 90920
mehrmals 90920
Link@@ 90916
Palmer 90916
ausfallen 90905
tunnel 90897
HS 90885
staat 90853
garage 90830
gal@@ 90829
ca. 90826
senken 90826
speziell 90819
Netherlands 90811
coaching 90805
Li 90803
vielfäl@@ 90798
befürchten 90785
Down@@ 90782
school@@ 90771
isse 90766
namens 90764
pin@@ 90759
zü@@ 90757
sportliche 90756
Ltd 90749
.... 90740
schläge 90737
DI@@ 90724
teren 90717
Cabinet 90703
Gul@@ 90698
Schützen 90693
aring 90673
residential 90669
cel@@ 90650
recommendations 90633
Hart 90632
Explosion 90630
Länge 90625
premier 90610
lehrer 90600
rush 90599
Guard 90597
aben 90596
touchdown 90593
Alonso 90578
Luxus@@ 90571
staaten 90564
Control 90554
tum 90549
Lehmann 90548
forscher 90548
silence 90540
professionals 90535
kop@@ 90533
liger 90533
dialogue 90527
ured 90526
sechs@@ 90509
borders 90499
rises 90490
sü@@ 90475
Benedikt 90472
water@@ 90468
Ess@@ 90459
eingeleitet 90441
schwe@@ 90411
Maximilian 90393
Luxemburg 90378
uted 90365
engagement 90362
gesunken 90362
Bradley 90357
surrounded 90348
Sicherheit@@ 90337
ung-@@ 90332
disorder 90331
Unterhaltung 90318
Keeper 90307
Schau 90305
Vize-@@ 90294
accompanied 90289
Zy@@ 90288
wahr 90283
unterdessen 90279
feelings 90265
Vereinbarung 90225
Dum@@ 90216
HO@@ 90201
Have 90200
ause 90197
twit@@ 90191
enswert 90185
Heidi 90178
konkreten 90176
Wahr@@ 90170
tener 90169
betrieb@@ 90144
ova 90144
arguments 90135
einheiten 90132
bindung 90112
longtime 90092
Wechsel@@ 90077
pollution 90077
kämen 90070
Later 90069
Interessenten 90046
Wunsch@@ 90028
Alte 90018
screening 90017
Abschnitt 90006
Realschule 89998
Sand 89996
derart 89993
one@@ 89968
gesetz@@ 89964
N.@@ 89959
blauen 89959
Kenya 89944
Rice 89940
flug@@ 89940
EN 89918
kowski 89916
Beobachter 89912
bast@@ 89911
Vermögen 89910
Visier 89908
Shi@@ 89903
robust 89896
Jak@@ 89894
Deputy 89888
spenden 89881
anxiety 89877
eh 89872
gele@@ 89852
marke 89852
merkt 89837
tels 89823
Schlagzeilen 89810
ritten 89792
Konzerns 89790
ight 89785
Larry 89782
virtually 89778
Identität 89755
Broadway 89752
Jün@@ 89745
picking 89743
Psych@@ 89740
kenne 89738
abhängig 89725
betreiben 89701
Action 89699
ür 89664
Stolz 89662
rob@@ 89654
visible 89649
Merk@@ 89646
personality 89619
AL 89616
Playing 89601
Abdullah 89597
Junior@@ 89594
noting 89589
Juncker 89587
Fakten 89552
änge 89543
Gesetze 89534
listening 89530
resignation 89530
prefer 89520
Prof. 89516
economists 89508
Juli@@ 89504
cope 89488
oning 89471
solo 89464
command 89457
recht@@ 89449
Heiz@@ 89447
stimmten 89443
Bundesstraße 89442
pupils 89442
Hauptbahnhof 89437
stärksten 89426
Connecticut 89408
Weltmeisterschaft 89406
Medicare 89391
offences 89384
connect 89379
restore 89363
blü@@ 89362
Bamberg 89360
Kla@@ 89360
crossing 89343
Titelverteidiger 89326
inne 89321
traded 89321
DJK 89315
beliebt 89315
ç@@ 89313
foods 89302
riesigen 89299
tape 89290
Ralph 89288
fällig 89280
Kamp@@ 89277
trail 89271
Mem@@ 89268
kal 89267
Gü@@ 89255
1972 89246
vorher@@ 89246
verlangen 89239
interviewed 89232
schein 89229
durchschnittlich 89220
Konzerte 89215
Van@@ 89206
Einbrecher 89186
Fortuna 89181
Sri 89181
Vet@@ 89174
Bayern@@ 89173
qualified 89166
ausgehen 89160
gasse 89124
r. 89118
Seoul 89115
pulling 89112
Braunschweig 89108
Yankees 89082
Angehörige 89081
1,2 89070
blin@@ 89070
bailout 89051
Energiewende 89041
Loch 89031
disappeared 89026
verlauf 89006
Fair 88998
ped 88991
Thom@@ 88990
tn@@ 88985
Bernard 88966
Ingolstadt 88961
Mittag 88958
gun@@ 88950
bewertet 88946
finishing 88946
Absage 88937
här@@ 88910
Tisch@@ 88908
Feier@@ 88906
Vorlage 88874
gie 88866
-Stiftung 88865
Lewand@@ 88865
keln 88840
concrete 88832
Erweiterung 88829
Gingrich 88812
lten 88807
Everton 88803
dene 88802
careful 88800
Hochzeit 88798
Unterlagen 88788
crowds 88782
Gebühren 88776
Jerry 88776
antes 88767
Amsterdam 88763
unfair 88762
Finance 88753
sem@@ 88742
survivors 88739
nachts 88738
54@@ 88727
contribute 88721
Yorkshire 88720
Rollen 88716
Baker 88713
mom 88706
reserve 88676
umfasst 88670
Unentschieden 88669
ik-@@ 88664
operated 88659
weichen 88653
Muslime 88642
height 88640
schaff@@ 88640
constantly 88630
Motors 88624
Dienste 88599
Humor 88593
breach 88591
hanging 88588
Perspektive 88586
Verbesserung 88580
Gegenzug 88573
trends 88570
ca@@ 88566
Botschafter 88551
angelegt 88550
rough 88548
Unterstütz@@ 88546
Glas 88544
barri@@ 88540
penalties 88518
rapid 88518
organized 88511
engruppe 88503
Europa-@@ 88498
rag@@ 88493
Wohl 88484
Kirchengemeinde 88479
franken 88475
itzen 88473
succeed 88466
OB 88433
households 88429
tow@@ 88423
Galaxy 88417
Landschaft 88408
disabled 88391
umgehen 88391
comparison 88386
Smartphones 88385
ichte 88384
1974 88379
occur 88379
beantragt 88375
Jü@@ 88364
Hofmann 88353
22-@@ 88351
Solidarität 88343
Kita 88336
merely 88332
conclusion 88330
ding@@ 88317
Garden 88312
camp@@ 88312
AN 88289
Niemand 88270
Ankündigung 88267
Pfing@@ 88262
Glauben 88261
onie 88253
Haushalte 88252
bewiesen 88251
touched 88248
Italiener 88245
zeige 88241
urging 88235
Related 88229
Westerwelle 88224
joke 88218
Lang 88212
briefly 88200
Grü@@ 88199
Bargeld 88196
Erfurt 88195
Sanierungs@@ 88180
survival 88175
Heiko 88172
Kredite 88164
sche@@ 88159
Verkehrsunfall 88157
schte 88146
schwachen 88145
leichten 88139
bür@@ 88136
betre@@ 88133
Erich 88130
somehow 88123
ences 88119
posten 88110
Offenbar 88087
siert 88083
Ansonsten 88060
alling 88059
hip 88051
Punkt@@ 88041
Water 88039
headlines 88037
Groß 88017
Beiträge 88011
Charakter 88002
ziel@@ 87991
seed 87975
basically 87970
Digit@@ 87959
zweites 87938
seeks 87934
rah@@ 87931
gler 87919
governing 87912
Ban 87907
Kent 87903
GS 87891
Pfer@@ 87890
besonderes 87871
Lieb@@ 87866
geringer 87865
origin@@ 87864
griffen 87858
judgment 87857
Run@@ 87855
narrow 87855
sudden 87852
gestoppt 87841
Piraten 87836
zur@@ 87830
à@@ 87820
längere 87819
comfort 87816
60-@@ 87811
overcome 87798
Chefs 87796
schöner 87796
istischer 87795
Published 87791
lösung 87784
krank 87780
ami 87774
aten@@ 87770
outbreak 87767
Angels 87763
hinnehmen 87755
betriebe 87751
Erhalt 87736
Besucher@@ 87729
ral 87716
gelder 87712
turm 87710
Fleisch@@ 87703
öp@@ 87699
conc@@ 87697
klu@@ 87686
ora 87684
brüche 87678
regeln 87674
Tsch@@ 87671
Mount 87661
Dietmar 87660
realised 87653
denies 87638
Clemens 87629
Schram@@ 87626
Busse 87618
trägen 87611
Investors 87609
Zo@@ 87604
iger@@ 87596
20th 87590
entitled 87590
1976 87585
100.000 87576
BSC 87571
ied 87564
cm 87558
tension 87549
Wen@@ 87516
eggs 87506
beach@@ 87469
herunter@@ 87443
syrische 87443
Dick@@ 87435
nominated 87426
Gramm 87417
gerichtet 87396
ktion@@ 87391
ct 87390
geborene 87390
Phillips 87389
Industri@@ 87385
ktiv 87385
playoff 87378
werben 87374
einheit 87371
Researchers 87367
ances 87359
defeated 87359
quarters 87357
--@@ 87349
You@@ 87346
nde 87331
ique 87320
sustainable 87318
Dänemark 87313
crackdown 87305
welchem 87304
diversity 87302
berry 87288
Johnny 87287
illing 87267
verschoben 87266
plea 87265
clashes 87255
Such@@ 87253
hauser 87249
Spekulationen 87240
verlässt 87226
Garcia 87225
ex 87215
fies 87204
Mühe 87203
Attacke 87198
räumt 87195
Monaco 87175
Wend@@ 87156
För@@ 87153
Bürgermeister@@ 87152
RB 87145
delighted 87144
Gray 87135
1967 87127
ares 87117
Ehre 87113
geld@@ 87111
Straß@@ 87105
filing 87099
ka@@ 87099
mess@@ 87098
Spurs 87091
ó@@ 87062
diseases 87054
Fred 87053
fluss 87043
Haiti 87042
derungen 87036
ez@@ 87023
Colin 87017
lobt 87009
älter 87000
Virgin 86996
hil@@ 86993
Diesel@@ 86992
see@@ 86973
contributions 86968
Regierungen 86950
Lind@@ 86944
convention 86942
straßen 86936
18.30 86926
Offen@@ 86925
Ric@@ 86924
Block@@ 86921
versprach 86909
Line 86882
kungen 86869
vent 86867
Seh@@ 86860
Junioren 86857
letztes 86852
verbringen 86838
Milliarden@@ 86833
interim 86827
Mindestens 86825
storms 86820
1981 86813
ambitious 86804
Much 86800
Hamm 86769
Linkspartei 86767
ented 86758
carries 86753
test@@ 86746
regarded 86730
advocates 86709
EPA 86704
burden 86704
Esp@@ 86693
Nathan 86693
kleineren 86689
Tower 86686
Training@@ 86686
earning 86678
publication 86675
kinds 86674
Mailand 86671
preferred 86670
sende 86669
ja@@ 86667
berücksichtigt 86659
Fund@@ 86658
horses 86657
Wider@@ 86653
fühle 86651
rist@@ 86648
forecasts 86630
Maizière 86620
Lob@@ 86612
drängt 86609
Athleten 86607
souverän 86606
reihe 86588
Bob@@ 86584
Geis@@ 86569
Versicherungs@@ 86560
Englisch 86559
spektion 86559
focusing 86549
Ludwig@@ 86542
wy@@ 86533
Telefonnummer 86532
sul@@ 86530
Lon@@ 86525
GP 86524
Hurricane 86516
hall@@ 86515
arbeitung 86491
vereinbart 86476
enable 86475
Essen@@ 86463
spräsident 86456
donn@@ 86455
begründete 86451
compromise 86444
donations 86436
zentrums 86427
dauer 86417
nötige 86417
Lad@@ 86416
sichere 86415
iten@@ 86410
Dru@@ 86408
procedure 86402
Bastian 86391
unlike 86390
Zeitungen 86385
arbeits@@ 86384
colour 86372
sowieso 86370
hem@@ 86361
Panorama 86345
enemy 86340
Schweinsteiger 86335
Girls 86332
Kitz@@ 86332
eis@@ 86325
gespannt 86323
organisations 86317
ORF 86306
Kontrollen 86297
newspapers 86291
Pariser 86283
ninth 86283
soweit 86281
Ot@@ 86274
Freedom 86270
Kloster@@ 86269
genaue 86242
fünfte 86237
hopefully 86231
festgelegt 86227
Alternativen 86225
new@@ 86224
snow@@ 86212
AB@@ 86178
Stress 86177
Umständen 86171
graduate 86166
entdecken 86162
Box@@ 86158
short-term 86157
Abbas 86128
Lutz 86127
drehte 86125
aufgehoben 86124
portion 86122
Schü@@ 86118
ank 86104
Morris 86101
kasse 86096
[...]
